<unk>	0
<s>	0
</s>	0
▁t	-0
▁i	-1
▁a	-2
▁th	-3
▁s	-4
▁w	-5
re	-6
in	-7
ou	-8
▁h	-9
▁the	-10
on	-11
me	-12
▁b	-13
at	-14
er	-15
▁c	-16
ing	-17
▁f	-18
▁d	-19
▁l	-20
▁y	-21
▁m	-22
or	-23
▁p	-24
an	-25
▁to	-26
▁g	-27
st	-28
ll	-29
▁you	-30
▁o	-31
en	-32
▁n	-33
▁an	-34
is	-35
it	-36
ed	-37
▁it	-38
es	-39
▁be	-40
ve	-41
ame	-42
▁that	-43
ar	-44
ot	-45
▁in	-46
as	-47
▁and	-48
▁is	-49
le	-50
ow	-51
▁wh	-52
▁of	-53
▁e	-54
name	-55
▁re	-56
▁[	-57
ay	-58
▁ha	-59
▁so	-60
ke	-61
▁on	-62
ic	-63
ly	-64
▁he	-65
▁this	-66
..	-67
oo	-68
al	-69
se	-70
▁for	-71
▁u	-72
ut	-73
id	-74
ld	-75
gh	-76
ver	-77
ad	-78
▁li	-79
et	-80
▁st	-81
▁me	-82
ro	-83
all	-84
▁we	-85
▁j	-86
▁sh	-87
ac	-88
out	-89
ion	-90
ust	-91
ri	-92
▁not	-93
▁was	-94
▁my	-95
▁do	-96
▁lo	-97
op	-98
ith	-99
ould	-100
▁k	-101
ch	-102
th	-103
ally	-104
ee	-105
▁but	-106
▁just	-107
nt	-108
▁are	-109
ir	-110
▁with	-111
▁like	-112
▁have	-113
▁they	-114
▁su	-115
ght	-116
ill	-117
▁co	-118
▁ne	-119
▁mo	-120
▁can	-121
▁as	-122
▁your	-123
one	-124
▁r	-125
▁what	-126
ct	-127
▁than	-128
▁some	-129
pp	-130
▁ab	-131
ks	-132
ea	-133
▁at	-134
▁ch	-135
ce	-136
▁get	-137
ter	-138
▁if	-139
▁don	-140
▁al	-141
ant	-142
▁go	-143
ent	-144
▁de	-145
ck	-146
▁po	-147
ry	-148
...	-149
ate	-150
nd	-151
▁wor	-152
im	-153
▁no	-154
ood	-155
▁all	-156
▁ma	-157
▁would	-158
ers	-159
▁ex	-160
▁about	-161
au	-162
very	-163
un	-164
am	-165
▁kn	-166
ink	-167
▁out	-168
▁con	-169
▁com	-170
ere	-171
▁up	-172
▁pe	-173
end	-174
ur	-175
ul	-176
ab	-177
ime	-178
ge	-179
il	-180
▁see	-181
▁one	-182
▁did	-183
▁or	-184
▁se	-185
ess	-186
ople	-187
▁love	-188
▁pl	-189
▁people	-190
▁she	-191
▁any	-192
▁good	-193
▁how	-194
ain	-195
▁there	-196
▁v	-197
▁know	-198
▁pro	-199
ind	-200
and	-201
!!	-202
▁think	-203
ear	-204
king	-205
▁loo	-206
ist	-207
▁too	-208
ation	-209
ard	-210
ig	-211
ss	-212
ment	-213
rom	-214
▁when	-215
ous	-216
ra	-217
▁time	-218
▁her	-219
▁from	-220
ive	-221
▁really	-222
uck	-223
ven	-224
art	-225
are	-226
▁more	-227
▁gu	-228
ast	-229
▁who	-230
▁man	-231
▁them	-232
ack	-233
ough	-234
ie	-235
ue	-236
▁him	-237
▁will	-238
▁bec	-239
▁now	-240
▁pre	-241
our	-242
if	-243
ause	-244
um	-245
ome	-246
▁his	-247
ound	-248
ong	-249
▁ag	-250
▁has	-251
thing	-252
▁"	-253
pe	-254
▁tr	-255
ight	-256
▁want	-257
▁got	-258
us	-259
ort	-260
ble	-261
eel	-262
▁int	-263
▁every	-264
▁thing	-265
▁happ	-266
ite	-267
▁us	-268
ice	-269
▁feel	-270
▁does	-271
▁im	-272
right	-273
▁because	-274
▁year	-275
▁say	-276
▁am	-277
act	-278
so	-279
ud	-280
▁sa	-281
▁ta	-282
▁lol	-283
ore	-284
▁un	-285
▁thanks	-286
ine	-287
▁had	-288
▁act	-289
way	-290
▁mu	-291
▁ar	-292
▁why	-293
▁1	-294
her	-295
▁2	-296
lf	-297
▁oh	-298
fe	-299
▁even	-300
reat	-301
▁been	-302
▁much	-303
▁play	-304
▁en	-305
▁right	-306
ep	-307
ity	-308
lo	-309
▁by	-310
▁need	-311
▁still	-312
▁well	-313
ty	-314
▁only	-315
▁bet	-316
om	-317
ting	-318
▁here	-319
▁thank	-320
▁their	-321
ide	-322
▁sp	-323
own	-324
▁hop	-325
ish	-326
▁:	-327
ag	-328
▁way	-329
kes	-330
▁te	-331
▁sc	-332
▁should	-333
▁yea	-334
▁bad	-335
ha	-336
▁never	-337
ure	-338
▁guy	-339
▁q	-340
▁off	-341
ies	-342
▁then	-343
▁make	-344
▁could	-345
▁being	-346
ually	-347
▁didn	-348
▁le	-349
▁back	-350
▁yeah	-351
ving	-352
▁af	-353
ious	-354
▁game	-355
▁day	-356
▁hope	-357
▁fuck	-358
pt	-359
per	-360
▁post	-361
▁oth	-362
].	-363
dd	-364
▁fa	-365
ick	-366
atch	-367
ought	-368
be	-369
▁tho	-370
▁very	-371
ond	-372
▁*	-373
▁dis	-374
iz	-375
▁going	-376
ire	-377
ci	-378
▁over	-379
▁try	-380
▁fe	-381
▁someone	-382
ace	-383
orry	-384
▁also	-385
ff	-386
▁were	-387
▁lea	-388
▁look	-389
▁real	-390
▁br	-391
▁better	-392
oy	-393
ade	-394
ree	-395
▁pret	-396
ass	-397
▁may	-398
int	-399
▁same	-400
▁sorry	-401
▁great	-402
▁mean	-403
▁comp	-404
▁new	-405
ms	-406
▁other	-407
▁fun	-408
ool	-409
▁actually	-410
▁lit	-411
▁>	-412
▁down	-413
able	-414
▁bl	-415
▁cl	-416
00	-417
▁thought	-418
ber	-419
▁id	-420
▁aw	-421
▁ke	-422
▁jo	-423
▁sub	-424
▁doesn	-425
age	-426
ase	-427
riend	-428
▁sure	-429
self	-430
od	-431
▁pretty	-432
ves	-433
▁wr	-434
▁those	-435
sh	-436
ason	-437
▁work	-438
▁pers	-439
ip	-440
▁though	-441
ways	-442
lp	-443
▁something	-444
ol	-445
▁again	-446
ful	-447
nder	-448
▁best	-449
ile	-450
▁def	-451
▁pr	-452
▁fir	-453
▁gr	-454
read	-455
ull	-456
▁person	-457
▁read	-458
▁gl	-459
▁tw	-460
▁makes	-461
▁take	-462
up	-463
▁(	-464
▁after	-465
▁help	-466
▁happen	-467
ang	-468
iss	-469
▁app	-470
▁let	-471
▁looks	-472
▁first	-473
▁kid	-474
▁dam	-475
▁always	-476
▁most	-477
mo	-478
ated	-479
▁into	-480
▁ad	-481
▁happy	-482
▁our	-483
ap	-484
▁ok	-485
▁ac	-486
ably	-487
▁under	-488
ach	-489
▁years	-490
▁these	-491
▁part	-492
▁3	-493
other	-494
▁qu	-495
▁friend	-496
ved	-497
▁its	-498
ude	-499
ma	-500
▁come	-501
▁comment	-502
▁cont	-503
os	-504
▁op	-505
ount	-506
▁che	-507
▁hard	-508
▁tal	-509
▁yes	-510
▁old	-511
▁watch	-512
▁life	-513
],	-514
fore	-515
▁kind	-516
▁keep	-517
▁where	-518
na	-519
ans	-520
ence	-521
▁call	-522
▁made	-523
▁bot	-524
ute	-525
tle	-526
▁wa	-527
▁lot	-528
▁prob	-529
▁“	-530
▁find	-531
ions	-532
▁before	-533
▁bel	-534
▁said	-535
▁cr	-536
▁damn	-537
▁ever	-538
▁probably	-539
hing	-540
▁wow	-541
▁last	-542
pl	-543
▁ser	-544
ress	-545
▁things	-546
we	-547
▁maybe	-548
▁sound	-549
ird	-550
ts	-551
ating	-552
ild	-553
▁start	-554
▁point	-555
▁isn	-556
ich	-557
....	-558
▁glad	-559
▁res	-560
ory	-561
hh	-562
igh	-563
▁end	-564
▁getting	-565
▁per	-566
▁long	-567
ub	-568
▁shit	-569
az	-570
ft	-571
ote	-572
ning	-573
▁show	-574
▁stop	-575
▁:)	-576
ance	-577
pect	-578
▁nice	-579
▁ro	-580
▁rel	-581
▁big	-582
▁wrong	-583
▁ter	-584
▁fl	-585
▁haha	-586
day	-587
▁tell	-588
ug	-589
▁hate	-590
▁ph	-591
erest	-592
fere	-593
▁thr	-594
▁-	-595
▁care	-596
▁des	-597
▁everyone	-598
▁anything	-599
▁att	-600
▁dude	-601
xt	-602
po	-603
▁many	-604
ise	-605
▁doing	-606
▁belie	-607
▁use	-608
▁interest	-609
ict	-610
▁gir	-611
▁wish	-612
▁give	-613
▁ho	-614
▁little	-615
ily	-616
▁wait	-617
▁dif	-618
ual	-619
▁sur	-620
▁sm	-621
▁put	-622
ia	-623
ical	-624
▁rec	-625
ord	-626
orm	-627
▁acc	-628
▁tea	-629
▁ins	-630
▁weird	-631
ak	-632
ism	-633
▁str	-634
▁luck	-635
ny	-636
ens	-637
▁el	-638
ddit	-639
▁ple	-640
mer	-641
ody	-642
ath	-643
ense	-644
▁guess	-645
▁least	-646
▁4	-647
▁sec	-648
vor	-649
▁proble	-650
▁high	-651
▁kill	-652
▁both	-653
wn	-654
▁nothing	-655
stand	-656
▁dr	-657
▁guys	-658
less	-659
▁em	-660
▁cool	-661
▁defin	-662
▁tri	-663
▁girl	-664
▁reason	-665
wh	-666
ange	-667
▁5	-668
red	-669
▁miss	-670
▁trying	-671
ign	-672
ary	-673
get	-674
rible	-675
let	-676
urn	-677
▁wond	-678
▁ob	-679
▁sad	-680
▁sl	-681
▁win	-682
mber	-683
▁inc	-684
▁wee	-685
▁around	-686
▁rep	-687
ult	-688
▁sounds	-689
▁fucking	-690
▁amaz	-691
▁supp	-692
ready	-693
▁already	-694
▁hone	-695
ically	-696
▁bu	-697
▁cons	-698
▁might	-699
fect	-700
▁far	-701
▁vide	-702
▁believe	-703
▁understand	-704
▁imp	-705
▁mon	-706
ked	-707
les	-708
▁20	-709
ible	-710
▁sin	-711
▁gen	-712
▁enough	-713
▁which	-714
▁while	-715
▁fo	-716
▁such	-717
▁ass	-718
▁true	-719
▁hear	-720
ash	-721
▁cra	-722
▁comm	-723
▁seen	-724
▁anyone	-725
▁bit	-726
▁min	-727
▁won	-728
▁gon	-729
▁differe	-730
joy	-731
▁cle	-732
▁honest	-733
▁hell	-734
li	-735
▁fin	-736
erally	-737
▁wonder	-738
gr	-739
pr	-740
▁two	-741
itely	-742
▁else	-743
iously	-744
▁dec	-745
▁gonna	-746
ons	-747
▁enjoy	-748
▁having	-749
▁unt	-750
▁world	-751
ta	-752
▁gi	-753
▁hand	-754
▁mar	-755
▁reme	-756
▁please	-757
▁fr	-758
▁sex	-759
▁conf	-760
em	-761
upid	-762
▁team	-763
als	-764
▁pol	-765
ats	-766
▁seems	-767
!!!	-768
▁car	-769
▁definitely	-770
▁hor	-771
▁leg	-772
est	-773
▁another	-774
oney	-775
▁favor	-776
▁amazing	-777
ize	-778
▁exact	-779
ered	-780
▁sch	-781
▁dont	-782
▁stupid	-783
▁problem	-784
▁yourself	-785
lt	-786
▁ed	-787
▁bro	-788
▁since	-789
▁bre	-790
▁que	-791
esome	-792
▁kids	-793
ater	-794
▁remember	-795
▁/	-796
▁next	-797
▁inter	-798
▁money	-799
▁live	-800
▁count	-801
iv	-802
▁own	-803
▁sho	-804
▁awesome	-805
ple	-806
cept	-807
▁name	-808
▁fact	-809
▁until	-810
ither	-811
arent	-812
▁word	-813
▁job	-814
▁char	-815
▁child	-816
▁saying	-817
ations	-818
▁interesting	-819
vers	-820
▁inst	-821
▁funny	-822
aw	-823
▁looking	-824
▁without	-825
qu	-826
▁through	-827
ect	-828
▁left	-829
aa	-830
▁bo	-831
ook	-832
umb	-833
▁home	-834
??	-835
▁gets	-836
▁must	-837
▁wouldn	-838
ates	-839
body	-840
▁head	-841
▁literally	-842
vel	-843
▁away	-844
cks	-845
▁done	-846
▁idea	-847
▁agree	-848
▁bas	-849
▁sit	-850
▁pay	-851
▁second	-852
time	-853
med	-854
uff	-855
▁few	-856
ps	-857
gn	-858
▁video	-859
▁inf	-860
▁super	-861
sol	-862
ward	-863
▁fam	-864
▁rem	-865
▁lau	-866
▁surpr	-867
ised	-868
▁lma	-869
▁face	-870
▁mind	-871
▁favorite	-872
▁di	-873
▁hum	-874
ying	-875
ather	-876
▁less	-877
lete	-878
oooo	-879
gg	-880
▁eas	-881
▁run	-882
▁boy	-883
▁spe	-884
▁week	-885
omen	-886
▁cor	-887
▁wasn	-888
mm	-889
arly	-890
▁imag	-891
▁either	-892
ib	-893
ics	-894
ream	-895
ors	-896
ists	-897
▁ah	-898
▁lmao	-899
▁season	-900
▁ago	-901
▁sim	-902
▁times	-903
ian	-904
▁against	-905
ever	-906
▁heard	-907
▁school	-908
▁once	-909
▁used	-910
▁friends	-911
cial	-912
▁hur	-913
el	-914
▁sk	-915
▁came	-916
▁ent	-917
▁whole	-918
▁reddit	-919
▁exc	-920
▁laugh	-921
ead	-922
ten	-923
▁women	-924
▁everything	-925
▁went	-926
▁quest	-927
▁art	-928
ately	-929
▁feeling	-930
**	-931
▁joke	-932
▁place	-933
▁honestly	-934
log	-935
▁absol	-936
▁exactly	-937
▁stay	-938
▁different	-939
ake	-940
▁hu	-941
▁absolute	-942
aut	-943
▁hit	-944
▁reg	-945
▁yet	-946
ial	-947
fort	-948
▁clo	-949
▁month	-950
▁expect	-951
▁talking	-952
▁making	-953
ph	-954
zy	-955
▁sw	-956
atter	-957
?!	-958
▁ind	-959
▁free	-960
▁stuff	-961
▁om	-962
▁check	-963
▁story	-964
ited	-965
ces	-966
▁ev	-967
▁saw	-968
▁lear	-969
▁poor	-970
▁happened	-971
▁beaut	-972
▁add	-973
ah	-974
no	-975
ness	-976
ail	-977
▁talk	-978
gu	-979
vie	-980
roll	-981
▁myself	-982
most	-983
▁ext	-984
▁war	-985
der	-986
come	-987
▁needs	-988
▁complete	-989
min	-990
▁men	-991
ren	-992
orn	-993
▁rest	-994
▁worse	-995
▁bab	-996
▁turn	-997
▁6	-998
▁ru	-999
▁ment	-1000
▁found	-1001
▁terrible	-1002
▁sn	-1003
▁ty	-1004
▁dri	-1005
▁med	-1006
ger	-1007
ship	-1008
▁night	-1009
ned	-1010
ew	-1011
!!!!	-1012
ition	-1013
▁wanted	-1014
▁sy	-1015
ative	-1016
ience	-1017
▁okay	-1018
▁fan	-1019
▁omg	-1020
led	-1021
▁:(	-1022
▁cu	-1023
ully	-1024
app	-1025
ix	-1026
▁10	-1027
▁dep	-1028
▁aren	-1029
▁cou	-1030
▁worst	-1031
▁playing	-1032
▁iss	-1033
lic	-1034
▁resp	-1035
▁sense	-1036
▁almost	-1037
▁sometime	-1038
▁change	-1039
ys	-1040
alth	-1041
llow	-1042
▁support	-1043
▁exper	-1044
ower	-1045
▁exp	-1046
▁today	-1047
▁beautif	-1048
ract	-1049
▁expl	-1050
▁imagine	-1051
▁list	-1052
ared	-1053
ster	-1054
▁pass	-1055
ired	-1056
▁ref	-1057
▁top	-1058
ump	-1059
vice	-1060
▁swe	-1061
▁ep	-1062
▁es	-1063
nce	-1064
▁pain	-1065
▁leave	-1066
ident	-1067
▁news	-1068
▁tot	-1069
▁crazy	-1070
▁sometimes	-1071
▁appre	-1072
▁haven	-1073
ced	-1074
▁beautiful	-1075
dy	-1076
ouse	-1077
▁days	-1078
▁deal	-1079
▁move	-1080
▁dou	-1081
aring	-1082
▁heart	-1083
▁question	-1084
rel	-1085
▁ey	-1086
ried	-1087
▁mor	-1088
▁par	-1089
▁disc	-1090
▁matter	-1091
▁fight	-1092
▁gotta	-1093
▁family	-1094
▁thinking	-1095
oom	-1096
▁dog	-1097
▁dra	-1098
▁mis	-1099
▁appreci	-1100
acter	-1101
▁lost	-1102
▁state	-1103
cess	-1104
ots	-1105
the	-1106
ross	-1107
▁sign	-1108
▁ir	-1109
▁rid	-1110
▁poss	-1111
▁...	-1112
▁ban	-1113
▁games	-1114
ction	-1115
▁cho	-1116
▁rac	-1117
▁coming	-1118
▁parent	-1119
▁hour	-1120
▁kinda	-1121
ier	-1122
ject	-1123
ling	-1124
▁cry	-1125
ering	-1126
▁worth	-1127
▁cre	-1128
▁perfect	-1129
▁surprised	-1130
ized	-1131
▁mom	-1132
▁mess	-1133
▁consid	-1134
▁taking	-1135
cer	-1136
▁hey	-1137
▁tra	-1138
▁feels	-1139
ife	-1140
▁god	-1141
▁absolutely	-1142
▁obv	-1143
▁dumb	-1144
▁seem	-1145
▁self	-1146
cially	-1147
eal	-1148
ont	-1149
vot	-1150
▁fre	-1151
lcome	-1152
▁cour	-1153
▁deser	-1154
▁character	-1155
▁rather	-1156
▁.	-1157
▁opp	-1158
▁pop	-1159
▁baby	-1160
▁entire	-1161
ane	-1162
bs	-1163
▁9	-1164
use	-1165
ilar	-1166
▁comments	-1167
io	-1168
▁cute	-1169
▁forg	-1170
ret	-1171
ments	-1172
br	-1173
▁#	-1174
▁^	-1175
ken	-1176
▁ret	-1177
▁pick	-1178
ner	-1179
▁201	-1180
▁wom	-1181
ket	-1182
▁completely	-1183
ars	-1184
where	-1185
▁norm	-1186
▁open	-1187
ety	-1188
gest	-1189
▁seriously	-1190
▁eat	-1191
▁able	-1192
▁stand	-1193
▁thread	-1194
]?	-1195
⠀⠀	-1196
▁close	-1197
▁woman	-1198
▁called	-1199
▁remind	-1200
▁cur	-1201
▁red	-1202
▁watching	-1203
line	-1204
unch	-1205
▁wal	-1206
▁awful	-1207
▁thats	-1208
▁welcome	-1209
sw	-1210
ave	-1211
▁sing	-1212
▁'	-1213
▁fine	-1214
▁$	-1215
mit	-1216
▁soon	-1217
▁ask	-1218
ins	-1219
ush	-1220
▁ign	-1221
▁ball	-1222
▁become	-1223
▁health	-1224
tain	-1225
▁congr	-1226
▁z	-1227
▁pres	-1228
]!	-1229
▁pa	-1230
▁pri	-1231
fully	-1232
ional	-1233
▁8	-1234
▁pos	-1235
▁meant	-1236
▁polit	-1237
▁appreciate	-1238
uu	-1239
▁gun	-1240
▁edit	-1241
▁pict	-1242
icul	-1243
▁alone	-1244
▁cause	-1245
vern	-1246
▁meme	-1247
▁worry	-1248
▁ya	-1249
▁idi	-1250
▁side	-1251
man	-1252
▁dad	-1253
meric	-1254
▁argu	-1255
▁break	-1256
▁sweet	-1257
more	-1258
rect	-1259
▁fall	-1260
▁took	-1261
▁class	-1262
mor	-1263
▁gre	-1264
▁law	-1265
oud	-1266
anger	-1267
▁dead	-1268
▁each	-1269
▁half	-1270
▁situ	-1271
▁americ	-1272
▁instead	-1273
ows	-1274
▁fair	-1275
▁picture	-1276
▁7	-1277
itch	-1278
▁past	-1279
▁intern	-1280
▁explain	-1281
▁av	-1282
▁hot	-1283
▁full	-1284
▁goes	-1285
▁using	-1286
▁wants	-1287
amp	-1288
ell	-1289
uc	-1290
▁bud	-1291
▁govern	-1292
▁ill	-1293
igion	-1294
▁answ	-1295
ries	-1296
▁coll	-1297
▁sucks	-1298
."	-1299
gue	-1300
▁movie	-1301
▁played	-1302
▁knew	-1303
▁opin	-1304
▁couldn	-1305
▁ra	-1306
ality	-1307
▁quite	-1308
▁x	-1309
▁mod	-1310
ility	-1311
▁told	-1312
▁tried	-1313
pecially	-1314
▁😂	-1315
ball	-1316
vote	-1317
ween	-1318
▁ear	-1319
▁bring	-1320
▁cring	-1321
▁commun	-1322
sel	-1323
▁hair	-1324
▁artic	-1325
oh	-1326
▁ri	-1327
▁food	-1328
▁means	-1329
▁between	-1330
▁!	-1331
arch	-1332
▁lose	-1333
▁shame	-1334
▁troll	-1335
▁house	-1336
▁totally	-1337
▁horrible	-1338
ey	-1339
ific	-1340
▁says	-1341
used	-1342
▁cop	-1343
▁curi	-1344
▁ones	-1345
▁shot	-1346
▁anymore	-1347
▁happens	-1348
ene	-1349
rop	-1350
▁ant	-1351
▁bus	-1352
aught	-1353
▁loved	-1354
▁works	-1355
▁seeing	-1356
▁reading	-1357
▁non	-1358
▁easy	-1359
▁link	-1360
▁gener	-1361
▁realize	-1362
▁ann	-1363
▁dist	-1364
▁level	-1365
▁forgot	-1366
▁players	-1367
▁started	-1368
uth	-1369
▁die	-1370
gether	-1371
▁comes	-1372
▁country	-1373
▁youn	-1374
▁strong	-1375
gy	-1376
▁bar	-1377
▁low	-1378
▁hurt	-1379
cr	-1380
▁trans	-1381
cy	-1382
pped	-1383
▁cut	-1384
▁especially	-1385
ents	-1386
▁mine	-1387
▁scre	-1388
▁except	-1389
▁moment	-1390
▁parents	-1391
▁together	-1392
▁power	-1393
▁words	-1394
not	-1395
▁ve	-1396
aste	-1397
bt	-1398
ank	-1399
ied	-1400
rib	-1401
▁fut	-1402
uring	-1403
ror	-1404
▁tb	-1405
▁cat	-1406
▁inv	-1407
▁mad	-1408
fortun	-1409
ationship	-1410
its	-1411
▁unc	-1412
iness	-1413
▁wife	-1414
ention	-1415
▁months	-1416
▁buy	-1417
▁epis	-1418
▁line	-1419
▁song	-1420
▁stra	-1421
ending	-1422
ark	-1423
ently	-1424
▁exist	-1425
▁human	-1426
res	-1427
▁cal	-1428
▁met	-1429
▁val	-1430
▁episod	-1431
eak	-1432
ues	-1433
side	-1434
▁col	-1435
▁bull	-1436
reme	-1437
▁set	-1438
selves	-1439
▁unfortun	-1440
▁experience	-1441
rif	-1442
cked	-1443
ines	-1444
inks	-1445
lect	-1446
▁wan	-1447
▁case	-1448
▁forget	-1449
▁situation	-1450
ho	-1451
▁future	-1452
▁correct	-1453
▁fans	-1454
▁prof	-1455
▁chang	-1456
▁issue	-1457
▁relationship	-1458
ls	-1459
haha	-1460
▁fig	-1461
▁plan	-1462
▁sent	-1463
▁nah	-1464
reddit	-1465
▁government	-1466
▁ton	-1467
ities	-1468
▁late	-1469
▁couple	-1470
▁others	-1471
▁posted	-1472
▁**	-1473
▁100	-1474
▁listen	-1475
outh	-1476
ured	-1477
▁boo	-1478
▁los	-1479
▁quick	-1480
▁chance	-1481
▁nobody	-1482
▁article	-1483
ubw	-1484
▁mid	-1485
▁girls	-1486
▁short	-1487
▁course	-1488
▁working	-1489
▁internet	-1490
oth	-1491
set	-1492
▁hist	-1493
land	-1494
▁mus	-1495
▁hold	-1496
▁piss	-1497
ubwubw	-1498
▁normal	-1499
▁curious	-1500
oid	-1501
▁hy	-1502
▁ps	-1503
▁vi	-1504
▁single	-1505
▁holy	-1506
▁learn	-1507
▁disapp	-1508
▁import	-1509
▁possible	-1510
vi	-1511
aking	-1512
▁finally	-1513
▁apo	-1514
▁opt	-1515
▁sol	-1516
▁hands	-1517
hhhh	-1518
ital	-1519
utes	-1520
istic	-1521
umber	-1522
▁fast	-1523
▁compl	-1524
▁posts	-1525
▁account	-1526
bo	-1527
acy	-1528
iced	-1529
leep	-1530
▁tbh	-1531
▁beat	-1532
▁fake	-1533
▁fore	-1534
▁sour	-1535
▁small	-1536
▁wanna	-1537
que	-1538
ming	-1539
▁mist	-1540
▁sort	-1541
▁phone	-1542
▁social	-1543
▁subreddit	-1544
▁del	-1545
▁det	-1546
▁creep	-1547
ork	-1548
ugs	-1549
▁tit	-1550
▁sick	-1551
usting	-1552
▁later	-1553
▁reply	-1554
▁anyway	-1555
▁obviously	-1556
ru	-1557
ings	-1558
▁cer	-1559
▁emp	-1560
itive	-1561
▁cake	-1562
▁fail	-1563
▁gone	-1564
▁advice	-1565
).	-1566
asc	-1567
ted	-1568
ume	-1569
▁age	-1570
▁cap	-1571
▁disg	-1572
ets	-1573
▁vis	-1574
▁cant	-1575
▁gave	-1576
▁downvot	-1577
▁extreme	-1578
arr	-1579
astic	-1580
ution	-1581
▁loss	-1582
▁shoot	-1583
▁clearly	-1584
▁whatever	-1585
~~	-1586
air	-1587
▁pur	-1588
ensive	-1589
▁racist	-1590
eeee	-1591
ibly	-1592
▁blo	-1593
▁lad	-1594
▁answer	-1595
▁living	-1596
rap	-1597
▁jer	-1598
gress	-1599
▁dest	-1600
▁huge	-1601
▁shut	-1602
▁missed	-1603
▁opinion	-1604
▁date	-1605
▁stud	-1606
iculous	-1607
▁loves	-1608
▁young	-1609
▁looked	-1610
▁excited	-1611
ants	-1612
antly	-1613
▁gold	-1614
▁grou	-1615
▁spec	-1616
▁water	-1617
▁history	-1618
ged	-1619
ault	-1620
▁pen	-1621
▁felt	-1622
▁safe	-1623
▁follow	-1624
▁player	-1625
▁ridiculous	-1626
fer	-1627
unk	-1628
▁eng	-1629
▁har	-1630
▁odd	-1631
▁hours	-1632
▁prote	-1633
▁giving	-1634
religion	-1635
▁episode	-1636
▁children	-1637
du	-1638
uss	-1639
▁15	-1640
ices	-1641
▁yep	-1642
▁round	-1643
▁contro	-1644
▁disappo	-1645
".	-1646
ones	-1647
onse	-1648
▁cri	-1649
.....	-1650
owing	-1651
ublic	-1652
▁cold	-1653
▁writ	-1654
▁brain	-1655
▁incred	-1656
▁certain	-1657
▁straight	-1658
gin	-1659
rent	-1660
▁fil	-1661
▁fix	-1662
▁dire	-1663
▁pull	-1664
▁remo	-1665
▁star	-1666
ular	-1667
▁cla	-1668
▁tur	-1669
▁ugh	-1670
▁unfortunately	-1671
irc	-1672
key	-1673
ped	-1674
▁knows	-1675
▁often	-1676
▁takes	-1677
▁needed	-1678
gan	-1679
cent	-1680
post	-1681
▁sal	-1682
▁body	-1683
▁mill	-1684
▁death	-1685
▁dream	-1686
▁ignor	-1687
▁liber	-1688
▁light	-1689
▁response	-1690
gic	-1691
you	-1692
▁30	-1693
▁goo	-1694
▁tax	-1695
▁emot	-1696
▁mate	-1697
▁wall	-1698
▁actual	-1699
▁finish	-1700
▁mother	-1701
▁deserve	-1702
▁mention	-1703
▁minutes	-1704
▁basically	-1705
by	-1706
osed	-1707
▁inj	-1708
▁eyes	-1709
▁suck	-1710
idence	-1711
▁treat	-1712
▁number	-1713
▁america	-1714
▁serious	-1715
99	-1716
gry	-1717
ope	-1718
irth	-1719
▁anx	-1720
▁step	-1721
▁didnt	-1722
▁concer	-1723
▁usually	-1724
ards	-1725
▁bur	-1726
▁pic	-1727
▁tru	-1728
▁anim	-1729
▁watched	-1730
▁important	-1731
he	-1732
irt	-1733
▁ap	-1734
ends	-1735
▁sme	-1736
▁lead	-1737
▁brother	-1738
oc	-1739
ustr	-1740
▁bed	-1741
▁foot	-1742
▁creat	-1743
▁idiot	-1744
▁compan	-1745
▁hoping	-1746
for	-1747
aces	-1748
▁beh	-1749
▁birth	-1750
▁given	-1751
ational	-1752
dle	-1753
off	-1754
▁da	-1755
▁ug	-1756
▁son	-1757
▁vie	-1758
ories	-1759
▁black	-1760
▁doubt	-1761
▁during	-1762
▁outside	-1763
▁congrats	-1764
eep	-1765
ters	-1766
▁idk	-1767
▁vot	-1768
▁react	-1769
▁title	-1770
▁apolog	-1771
▁killed	-1772
▁report	-1773
▁complain	-1774
▁disgusting	-1775
▁themselves	-1776
erv	-1777
band	-1778
ides	-1779
▁nat	-1780
▁view	-1781
▁drive	-1782
▁hilar	-1783
▁match	-1784
▁white	-1785
▁cringe	-1786
▁apparent	-1787
▁?	-1788
how	-1789
row	-1790
▁hus	-1791
▁pie	-1792
▁book	-1793
▁const	-1794
▁attack	-1795
tc	-1796
gle	-1797
ient	-1798
ison	-1799
like	-1800
▁pot	-1801
▁clear	-1802
▁sleep	-1803
▁current	-1804
xic	-1805
▁er	-1806
0000	-1807
lling	-1808
▁claim	-1809
▁music	-1810
▁refere	-1811
▁personally	-1812
raid	-1813
▁mur	-1814
▁iron	-1815
▁phot	-1816
▁canad	-1817
▁grand	-1818
▁shouldn	-1819
▁tonight	-1820
!"	-1821
ax	-1822
ex	-1823
sc	-1824
yy	-1825
▁upd	-1826
▁died	-1827
▁trash	-1828
▁hilarious	-1829
▁apparently	-1830
acc	-1831
sed	-1832
▁save	-1833
▁type	-1834
▁afraid	-1835
▁sharing	-1836
▁hopefully	-1837
ii	-1838
▁bra	-1839
▁annoy	-1840
▁liked	-1841
▁contin	-1842
▁likely	-1843
att	-1844
but	-1845
ole	-1846
ube	-1847
▁ce	-1848
▁anti	-1849
▁fant	-1850
▁ruin	-1851
▁three	-1852
▁control	-1853
▁husband	-1854
ives	-1855
▁eff	-1856
▁sug	-1857
▁cost	-1858
▁drink	-1859
▁trust	-1860
▁oc	-1861
logy	-1862
ester	-1863
ffect	-1864
▁cond	-1865
▁demo	-1866
▁doct	-1867
▁rele	-1868
▁ugly	-1869
▁user	-1870
▁allow	-1871
▁danger	-1872
▁insane	-1873
▁league	-1874
▁attract	-1875
▁noticed	-1876
▁respect	-1877
▁interested	-1878
go	-1879
ipp	-1880
ging	-1881
▁psy	-1882
▁sat	-1883
▁direct	-1884
ults	-1885
▁gar	-1886
▁orig	-1887
▁party	-1888
▁behind	-1889
▁worried	-1890
▁argument	-1891
mend	-1892
ouch	-1893
▁suc	-1894
▁city	-1895
▁syst	-1896
▁proud	-1897
▁truly	-1898
▁confir	-1899
▁police	-1900
▁unless	-1901
▁confused	-1902
my	-1903
rs	-1904
to	-1905
acks	-1906
▁pray	-1907
▁rich	-1908
▁truth	-1909
▁himself	-1910
mon	-1911
▁12	-1912
ills	-1913
▁mil	-1914
▁accept	-1915
▁figure	-1916
▁proper	-1917
tf	-1918
▁;	-1919
form	-1920
itter	-1921
▁fire	-1922
▁hero	-1923
▁repl	-1924
▁soci	-1925
▁test	-1926
▁group	-1927
▁psych	-1928
▁stick	-1929
▁upvote	-1930
▁extremely	-1931
ify	-1932
ton	-1933
▁la	-1934
ages	-1935
ield	-1936
▁200	-1937
▁fat	-1938
▁neg	-1939
▁hang	-1940
▁room	-1941
▁cross	-1942
▁destro	-1943
▁effect	-1944
▁source	-1945
▁therap	-1946
^^	-1947
ased	-1948
ided	-1949
▁pet	-1950
▁mass	-1951
▁reco	-1952
▁bless	-1953
▁scared	-1954
▁depress	-1955
▁attention	-1956
con	-1957
ury	-1958
▁loc	-1959
▁burn	-1960
▁form	-1961
▁build	-1962
▁ready	-1963
▁cheers	-1964
▁calling	-1965
fs	-1966
und	-1967
ator	-1968
▁eye	-1969
▁smo	-1970
imate	-1971
wards	-1972
▁blood	-1973
▁front	-1974
ision	-1975
▁avoid	-1976
▁coach	-1977
cing	-1978
▁goal	-1979
▁crying	-1980
▁origin	-1981
▁screen	-1982
▁posting	-1983
fl	-1984
mb	-1985
arc	-1986
▁jud	-1987
▁uni	-1988
▁issues	-1989
▁thinks	-1990
▁yester	-1991
▁yesterday	-1992
.”	-1993
eg	-1994
ien	-1995
ric	-1996
▁ca	-1997
ding	-1998
vant	-1999
wise	-2000
▁nor	-2001
ended	-2002
▁beha	-2003
▁crit	-2004
▁blame	-2005
▁catch	-2006
▁hi	-2007
▁dro	-2008
▁emb	-2009
▁imo	-2010
▁pat	-2011
cking	-2012
▁diff	-2013
▁hasn	-2014
▁nope	-2015
▁smell	-2016
▁upset	-2017
▁weeks	-2018
▁difference	-2019
atic	-2020
iety	-2021
▁bri	-2022
▁area	-2023
▁vote	-2024
▁trade	-2025
▁longer	-2026
▁system	-2027
▁worked	-2028
▁waiting	-2029
▁disappoint	-2030
do	-2031
ese	-2032
ove	-2033
▁net	-2034
▁steal	-2035
▁amount	-2036
▁creepy	-2037
▁public	-2038
▁record	-2039
▁company	-2040
mmer	-2041
ther	-2042
▁choo	-2043
▁cult	-2044
▁dark	-2045
▁yout	-2046
▁elect	-2047
▁store	-2048
▁mental	-2049
▁discuss	-2050
▁similar	-2051
😤😤	-2052
view	-2053
▁grow	-2054
▁viol	-2055
▁based	-2056
▁press	-2057
▁share	-2058
▁common	-2059
▁hahaha	-2060
▁inside	-2061
▁birthday	-2062
10	-2063
rist	-2064
what	-2065
▁maj	-2066
▁incl	-2067
▁phys	-2068
▁legit	-2069
▁inform	-2070
▁alright	-2071
▁running	-2072
av	-2073
▁=	-2074
ili	-2075
enty	-2076
uine	-2077
▁squ	-2078
ister	-2079
▁jump	-2080
▁meet	-2081
▁prom	-2082
▁buddy	-2083
▁aut	-2084
andom	-2085
▁circ	-2086
▁send	-2087
▁suff	-2088
▁order	-2089
▁train	-2090
▁asking	-2091
▁suggest	-2092
▁problems	-2093
▁wondering	-2094
ne	-2095
▁<	-2096
▁bi	-2097
▁lab	-2098
arely	-2099
▁deep	-2100
▁exam	-2101
▁fasc	-2102
▁clean	-2103
▁general	-2104
▁wonderful	-2105
book	-2106
▁etc	-2107
▁fav	-2108
oring	-2109
▁bott	-2110
▁info	-2111
▁wind	-2112
▁angry	-2113
▁older	-2114
▁space	-2115
▁spend	-2116
▁canada	-2117
▁videos	-2118
fortable	-2119
▁genuine	-2120
▁accident	-2121
▁&	-2122
ural	-2123
▁gif	-2124
▁huh	-2125
ender	-2126
▁cent	-2127
▁crap	-2128
▁gives	-2129
▁legal	-2130
▁photo	-2131
▁speak	-2132
ization	-2133
▁prefer	-2134
▁forward	-2135
oof	-2136
unt	-2137
▁due	-2138
▁spo	-2139
▁prov	-2140
▁ended	-2141
▁extra	-2142
▁likes	-2143
▁piece	-2144
▁sexual	-2145
▁starting	-2146
▁thoughts	-2147
de	-2148
tw	-2149
ina	-2150
izz	-2151
▁cau	-2152
▁fur	-2153
▁pan	-2154
ances	-2155
▁conv	-2156
▁taken	-2157
▁behavi	-2158
▁democr	-2159
▁losing	-2160
▁threat	-2161
ege	-2162
▁fal	-2163
▁typ	-2164
ising	-2165
▁chea	-2166
▁roll	-2167
verage	-2168
▁gross	-2169
▁shows	-2170
▁choice	-2171
▁online	-2172
▁convers	-2173
▁youtube	-2174
▁vs	-2175
ored	-2176
tern	-2177
▁ice	-2178
▁mult	-2179
▁prev	-2180
▁bunch	-2181
▁random	-2182
▁simple	-2183
▁college	-2184
▁special	-2185
▁political	-2186
▁considering	-2187
men	-2188
bage	-2189
empt	-2190
pose	-2191
icked	-2192
friend	-2193
ommend	-2194
▁admit	-2195
▁early	-2196
▁illeg	-2197
▁waste	-2198
▁effort	-2199
▁points	-2200
▁morning	-2201
▁service	-2202
▁strange	-2203
▁downvoted	-2204
co	-2205
cus	-2206
loy	-2207
fuck	-2208
▁sun	-2209
order	-2210
▁main	-2211
▁trou	-2212
▁smile	-2213
▁gotten	-2214
▁middle	-2215
▁putting	-2216
▁success	-2217
▁telling	-2218
▁president	-2219
raph	-2220
▁fit	-2221
▁assh	-2222
▁paid	-2223
▁quit	-2224
inting	-2225
▁alive	-2226
▁disag	-2227
▁keeps	-2228
▁scream	-2229
▁society	-2230
▁business	-2231
▁otherwise	-2232
▁recommend	-2233
--	-2234
❤️	-2235
▁vo	-2236
▁cow	-2237
▁mot	-2238
▁rul	-2239
▁100%	-2240
▁tech	-2241
▁crime	-2242
▁teams	-2243
▁trigg	-2244
▁anxiety	-2245
▁twitter	-2246
20	-2247
zz	-2248
▁40	-2249
▁tv	-2250
▁hom	-2251
▁pun	-2252
▁card	-2253
▁near	-2254
▁vers	-2255
▁walk	-2256
▁major	-2257
▁pract	-2258
▁eating	-2259
▁regret	-2260
▁congrat	-2261
▁garbage	-2262
▁killing	-2263
▁playoff	-2264
▁protect	-2265
▁quality	-2266
▁reality	-2267
▁removed	-2268
cu	-2269
ze	-2270
000	-2271
lish	-2272
▁sou	-2273
aming	-2274
▁bill	-2275
▁road	-2276
▁event	-2277
▁lucky	-2278
▁teach	-2279
▁third	-2280
▁compet	-2281
▁embarr	-2282
▁changed	-2283
▁congratul	-2284
▁happening	-2285
▁‘	-2286
???	-2287
ale	-2288
yle	-2289
▁aff	-2290
▁occ	-2291
icult	-2292
▁land	-2293
▁porn	-2294
▁push	-2295
▁spot	-2296
▁block	-2297
▁scene	-2298
▁tired	-2299
▁doctor	-2300
▁biggest	-2301
▁defense	-2302
▁destroy	-2303
▁original	-2304
▁dangerous	-2305
▁,	-2306
aur	-2307
ays	-2308
▁:/	-2309
aaaa	-2310
aged	-2311
iest	-2312
ures	-2313
▁imm	-2314
▁twe	-2315
ively	-2316
▁fing	-2317
▁fault	-2318
▁hurts	-2319
▁banned	-2320
▁terrif	-2321
▁mistake	-2322
▁community	-2323
▁embarrass	-2324
▁;)	-2325
▁ye	-2326
port	-2327
room	-2328
▁rap	-2329
lying	-2330
▁desp	-2331
▁russ	-2332
▁sens	-2333
▁text	-2334
▁cares	-2335
▁draft	-2336
▁impro	-2337
▁mouth	-2338
▁sadly	-2339
▁scary	-2340
▁tough	-2341
▁assume	-2342
▁bottom	-2343
▁broken	-2344
▁learned	-2345
▁reminds	-2346
▁consider	-2347
▁expecting	-2348
▁reference	-2349
▁somewhere	-2350
1|	-2351
hhh	-2352
uel	-2353
reed	-2354
shit	-2355
vert	-2356
▁base	-2357
▁boys	-2358
▁fear	-2359
▁kept	-2360
▁rape	-2361
▁skin	-2362
▁stre	-2363
▁vacc	-2364
▁stuck	-2365
▁mostly	-2366
▁notice	-2367
▁paying	-2368
▁turned	-2369
▁surprise	-2370
cl	-2371
aded	-2372
icks	-2373
▁hat	-2374
▁lar	-2375
iting	-2376
▁drop	-2377
▁term	-2378
▁asked	-2379
▁aware	-2380
▁false	-2381
▁media	-2382
▁tomor	-2383
▁write	-2384
▁series	-2385
oooooooo	-2386
▁disagree	-2387
fa	-2388
of	-2389
rr	-2390
iod	-2391
pir	-2392
ses	-2393
▁eu	-2394
▁air	-2395
▁dev	-2396
▁flo	-2397
▁ran	-2398
▁blue	-2399
▁cust	-2400
▁educ	-2401
▁lady	-2402
▁slow	-2403
▁oppos	-2404
▁sport	-2405
▁office	-2406
▁summer	-2407
▁fighting	-2408
▁username	-2409
▁certainly	-2410
▁difficult	-2411
▁genuinely	-2412
ama	-2413
icy	-2414
ler	-2415
ply	-2416
▁<3	-2417
▁eh	-2418
▁yup	-2419
kward	-2420
▁doll	-2421
▁chick	-2422
▁toxic	-2423
▁career	-2424
▁decent	-2425
▁frustr	-2426
▁pissed	-2427
▁places	-2428
▁missing	-2429
▁football	-2430
▁tomorrow	-2431
▁incredibly	-2432
uts	-2433
▁50	-2434
▁obs	-2435
ading	-2436
▁jeal	-2437
ressed	-2438
▁price	-2439
▁touch	-2440
aughter	-2441
▁commit	-2442
▁easily	-2443
▁plenty	-2444
▁awkward	-2445
▁jealous	-2446
▁facebook	-2447
▁personal	-2448
▁supposed	-2449
▁characters	-2450
ubwubwubwubw	-2451
cei	-2452
▁yo	-2453
ears	-2454
ined	-2455
ping	-2456
▁adv	-2457
▁fac	-2458
ining	-2459
light	-2460
▁club	-2461
▁desc	-2462
▁inno	-2463
▁pizz	-2464
ulation	-2465
▁seemed	-2466
▁obvious	-2467
▁contract	-2468
▁recently	-2469
ga	-2470
igr	-2471
ency	-2472
illy	-2473
▁ain	-2474
▁sha	-2475
▁tip	-2476
▁cred	-2477
▁stat	-2478
▁apart	-2479
▁assum	-2480
▁begin	-2481
▁broke	-2482
▁helps	-2483
▁lives	-2484
▁uncom	-2485
▁barely	-2486
▁dating	-2487
▁regard	-2488
▁simply	-2489
▁slight	-2490
▁meaning	-2491
▁compared	-2492
▁progress	-2493
++	-2494
ds	-2495
ero	-2496
▁16	-2497
ains	-2498
arma	-2499
rage	-2500
vest	-2501
▁hes	-2502
▁ris	-2503
ption	-2504
▁dare	-2505
▁feed	-2506
▁wear	-2507
▁focus	-2508
▁invol	-2509
▁offic	-2510
▁smart	-2511
▁easier	-2512
▁fellow	-2513
▁murder	-2514
▁period	-2515
▁switch	-2516
▁message	-2517
▁project	-2518
▁positive	-2519
ob	-2520
ext	-2521
etic	-2522
ourn	-2523
▁rev	-2524
aster	-2525
pping	-2526
usion	-2527
▁evil	-2528
▁pack	-2529
▁vict	-2530
▁faith	-2531
▁weren	-2532
▁bigger	-2533
▁choose	-2534
▁contact	-2535
▁forever	-2536
▁somehow	-2537
▁expected	-2538
▁reaction	-2539
▁fantastic	-2540
▁attractive	-2541
▁disappointed	-2542
ik	-2543
uh	-2544
▁2.	-2545
back	-2546
cell	-2547
play	-2548
▁lie	-2549
▁lots	-2550
▁breat	-2551
▁daily	-2552
▁cannot	-2553
▁idiots	-2554
▁option	-2555
▁enjoyed	-2556
▁willing	-2557
▁congratulations	-2558
lex	-2559
▁uk	-2560
▁wo	-2561
wing	-2562
▁den	-2563
▁hug	-2564
▁mer	-2565
▁ner	-2566
▁page	-2567
▁snow	-2568
though	-2569
▁above	-2570
▁spent	-2571
▁capital	-2572
▁hearing	-2573
▁profess	-2574
▁respond	-2575
▁information	-2576
don	-2577
ians	-2578
this	-2579
▁hmm	-2580
▁ide	-2581
▁oil	-2582
ified	-2583
izing	-2584
verse	-2585
▁beer	-2586
▁camp	-2587
▁comb	-2588
▁lack	-2589
▁abuse	-2590
▁femin	-2591
▁throw	-2592
▁upvot	-2593
▁design	-2594
▁minute	-2595
▁states	-2596
▁allowed	-2597
▁attempt	-2598
▁trouble	-2599
▁annoying	-2600
▁negative	-2601
▁position	-2602
omb	-2603
urb	-2604
▁cy	-2605
▁ju	-2606
asty	-2607
mare	-2608
uuuu	-2609
▁ben	-2610
iment	-2611
▁guns	-2612
▁town	-2613
▁west	-2614
acking	-2615
atives	-2616
iction	-2617
▁balls	-2618
▁chill	-2619
▁produ	-2620
▁agreed	-2621
▁ending	-2622
▁favour	-2623
▁average	-2624
▁illegal	-2625
▁married	-2626
▁wearing	-2627
▁everybody	-2628
▁conversation	-2629
50	-2630
😂😂	-2631
▁$1	-2632
▁ba	-2633
▁uh	-2634
▁~~	-2635
gers	-2636
lier	-2637
▁deb	-2638
▁mir	-2639
▁ped	-2640
▁memes	-2641
▁moder	-2642
▁pizza	-2643
▁rules	-2644
▁twice	-2645
▁bought	-2646
▁humans	-2647
▁multip	-2648
▁necess	-2649
▁brought	-2650
▁finding	-2651
▁evidence	-2652
▁ignorant	-2653
▁nightmare	-2654
eed	-2655
pro	-2656
dden	-2657
▁btw	-2658
ially	-2659
▁bath	-2660
▁calm	-2661
▁nail	-2662
▁none	-2663
▁till	-2664
▁bitch	-2665
▁cheese	-2666
▁sudden	-2667
▁animals	-2668
▁content	-2669
▁perform	-2670
▁walking	-2671
▁laughing	-2672
mp	-2673
nel	-2674
ppy	-2675
sec	-2676
▁ur	-2677
that	-2678
▁smh	-2679
▁sus	-2680
velop	-2681
▁ince	-2682
▁plus	-2683
▁stri	-2684
▁ways	-2685
▁wild	-2686
▁facts	-2687
▁neigh	-2688
▁organ	-2689
lfriend	-2690
▁affect	-2691
▁desper	-2692
▁million	-2693
▁purpose	-2694
▁respons	-2695
▁stories	-2696
▁somebody	-2697
owl	-2698
▁yi	-2699
angu	-2700
ring	-2701
using	-2702
▁bene	-2703
▁priv	-2704
▁prop	-2705
▁accur	-2706
▁shirt	-2707
▁south	-2708
▁taste	-2709
▁tweet	-2710
▁lovely	-2711
▁moving	-2712
▁laughed	-2713
▁related	-2714
▁seconds	-2715
▁stopped	-2716
▁version	-2717
▁although	-2718
▁american	-2719
▁bullshit	-2720
▁0	-2721
▁19	-2722
▁90	-2723
iron	-2724
rest	-2725
sing	-2726
▁fed	-2727
▁fol	-2728
▁hos	-2729
▁hun	-2730
▁tre	-2731
▁fish	-2732
▁scen	-2733
▁sell	-2734
▁enter	-2735
▁reach	-2736
▁action	-2737
▁double	-2738
▁includ	-2739
▁neighb	-2740
▁context	-2741
▁develop	-2742
▁healthy	-2743
▁however	-2744
▁knowing	-2745
▁downvote	-2746
▁girlfriend	-2747
ges	-2748
▁eq	-2749
▁pu	-2750
just	-2751
vies	-2752
▁bes	-2753
▁dod	-2754
▁und	-2755
▁2019	-2756
▁drug	-2757
▁jerk	-2758
▁race	-2759
▁benef	-2760
▁color	-2761
▁cover	-2762
▁dying	-2763
▁earth	-2764
▁glass	-2765
▁hated	-2766
▁pleas	-2767
▁yikes	-2768
▁rights	-2769
▁sister	-2770
▁weight	-2771
▁depends	-2772
▁sitting	-2773
▁daughter	-2774
▁feelings	-2775
▁politics	-2776
te	-2777
oop	-2778
ose	-2779
rit	-2780
▁mix	-2781
▁ver	-2782
arian	-2783
riage	-2784
▁bang	-2785
▁bast	-2786
▁busy	-2787
▁hosp	-2788
▁jail	-2789
▁loud	-2790
▁rule	-2791
▁karma	-2792
▁recei	-2793
▁father	-2794
▁helped	-2795
▁painful	-2796
▁restaur	-2797
▁realized	-2798
▁questions	-2799
ec	-2800
eez	-2801
ium	-2802
oun	-2803
par	-2804
down	-2805
hood	-2806
▁sir	-2807
orate	-2808
under	-2809
▁cele	-2810
▁dogs	-2811
▁door	-2812
▁rese	-2813
▁explo	-2814
ibility	-2815
▁google	-2816
▁ground	-2817
▁update	-2818
▁anyways	-2819
▁example	-2820
▁science	-2821
▁statement	-2822
tr	-2823
ym	-2824
mas	-2825
ooo	-2826
▁14	-2827
aked	-2828
eral	-2829
over	-2830
▁key	-2831
▁rob	-2832
▁uns	-2833
▁van	-2834
ledge	-2835
▁fell	-2836
▁fill	-2837
▁guil	-2838
orable	-2839
▁avail	-2840
▁langu	-2841
▁logic	-2842
▁relig	-2843
▁saved	-2844
▁boring	-2845
▁loving	-2846
▁search	-2847
▁reasons	-2848
▁shocked	-2849
▁behavior	-2850
▁continue	-2851
▁experien	-2852
▁stranger	-2853
▁interview	-2854
pa	-2855
ker	-2856
ogy	-2857
here	-2858
▁cas	-2859
▁env	-2860
▁sau	-2861
▁tex	-2862
▁wtf	-2863
ature	-2864
ology	-2865
▁band	-2866
▁ends	-2867
▁laws	-2868
▁seat	-2869
▁subs	-2870
ential	-2871
▁along	-2872
▁drugs	-2873
▁drunk	-2874
▁hates	-2875
▁jerse	-2876
▁peace	-2877
▁critic	-2878
▁excuse	-2879
▁highly	-2880
▁conserv	-2881
▁weekend	-2882
▁expensive	-2883
▁favourite	-2884
▁mentioned	-2885
▁considered	-2886
▁uncomfortable	-2887
?"	-2888
aly	-2889
asm	-2890
che	-2891
iny	-2892
▁1.	-2893
ider	-2894
▁bat	-2895
▁ive	-2896
usive	-2897
▁risk	-2898
▁teen	-2899
▁trip	-2900
▁wake	-2901
▁warm	-2902
▁weed	-2903
▁zero	-2904
▁carry	-2905
▁ident	-2906
▁large	-2907
▁total	-2908
▁traff	-2909
▁value	-2910
▁yours	-2911
▁basket	-2912
▁movies	-2913
▁confirm	-2914
ees	-2915
▁tar	-2916
▁wit	-2917
ences	-2918
rated	-2919
▁born	-2920
▁coff	-2921
▁prep	-2922
▁spea	-2923
▁activ	-2924
▁adult	-2925
▁intro	-2926
▁caught	-2927
▁invest	-2928
▁repres	-2929
▁return	-2930
▁anybody	-2931
▁decided	-2932
▁quickly	-2933
▁innocent	-2934
▁boyfriend	-2935
bl	-2936
oph	-2937
ram	-2938
wor	-2939
urch	-2940
▁deg	-2941
▁enc	-2942
▁hon	-2943
▁phr	-2944
▁weak	-2945
▁wins	-2946
▁green	-2947
▁journ	-2948
▁refer	-2949
▁strug	-2950
00000000	-2951
▁careful	-2952
▁helpful	-2953
▁therapy	-2954
▁sentence	-2955
▁perfectly	-2956
den	-2957
mar	-2958
▁17	-2959
▁bf	-2960
▁ny	-2961
kets	-2962
work	-2963
▁bug	-2964
▁sil	-2965
▁sky	-2966
▁sto	-2967
ashed	-2968
▁bear	-2969
▁hide	-2970
▁sarc	-2971
icking	-2972
▁insur	-2973
▁local	-2974
▁score	-2975
▁solid	-2976
▁style	-2977
▁celebr	-2978
▁church	-2979
▁employ	-2980
▁itself	-2981
▁prison	-2982
▁medical	-2983
▁partner	-2984
▁deserves	-2985
▁available	-2986
]:	-2987
ags	-2988
ams	-2989
bit	-2990
lli	-2991
▁18	-2992
anch	-2993
care	-2994
ires	-2995
▁civ	-2996
▁dun	-2997
ented	-2998
ropri	-2999
▁docu	-3000
▁feet	-3001
▁heav	-3002
▁mach	-3003
▁path	-3004
▁rare	-3005
▁judge	-3006
▁moved	-3007
▁altern	-3008
▁defend	-3009
▁handle	-3010
▁victim	-3011
▁besides	-3012
▁classic	-3013
▁custome	-3014
▁earlier	-3015
▁breaking	-3016
▁multiple	-3017
▁playoffs	-3018
▁religion	-3019
▁slightly	-3020
▁entertain	-3021
▁generally	-3022
▁incredible	-3023
gs	-3024
ops	-3025
]...	-3026
ades	-3027
ager	-3028
mail	-3029
▁bal	-3030
▁gri	-3031
▁hol	-3032
▁mem	-3033
▁mob	-3034
▁ten	-3035
acher	-3036
iliar	-3037
oming	-3038
▁dump	-3039
▁fool	-3040
▁ride	-3041
ground	-3042
▁appro	-3043
▁brown	-3044
▁north	-3045
▁silly	-3046
▁spoil	-3047
▁christ	-3048
▁repost	-3049
▁stream	-3050
▁chicken	-3051
▁despite	-3052
▁leaving	-3053
▁currently	-3054
1.	-3055
▁+	-3056
boy	-3057
ray	-3058
▁25	-3059
▁mr	-3060
cast	-3061
real	-3062
shot	-3063
▁aud	-3064
▁box	-3065
▁dig	-3066
▁est	-3067
▁ger	-3068
▁vol	-3069
arded	-3070
ortun	-3071
▁cats	-3072
▁clue	-3073
▁cops	-3074
▁fund	-3075
▁infl	-3076
▁requ	-3077
▁calls	-3078
▁finan	-3079
▁punch	-3080
▁voice	-3081
ability	-3082
ination	-3083
▁injury	-3084
▁reject	-3085
▁within	-3086
▁natural	-3087
▁process	-3088
▁winning	-3089
▁adorable	-3090
▁learning	-3091
▁opportun	-3092
▁opposite	-3093
▁trolling	-3094
!?	-3095
bi	-3096
ask	-3097
ief	-3098
▁:-	-3099
▁bs	-3100
▁ut	-3101
▁❤️	-3102
,000	-3103
eech	-3104
▁coo	-3105
▁gig	-3106
▁scr	-3107
!!!!!	-3108
itude	-3109
urity	-3110
▁auth	-3111
▁fort	-3112
▁kick	-3113
▁pill	-3114
▁pred	-3115
▁rock	-3116
▁webs	-3117
▁wing	-3118
▁folks	-3119
▁jokes	-3120
▁known	-3121
▁medic	-3122
▁moron	-3123
▁rough	-3124
▁shoes	-3125
▁harder	-3126
▁horror	-3127
▁recogn	-3128
▁suppor	-3129
▁asshole	-3130
▁dumbass	-3131
▁further	-3132
▁teacher	-3133
▁traffic	-3134
▁writing	-3135
▁entirely	-3136
▁language	-3137
▁marriage	-3138
▁restaurant	-3139
ips	-3140
now	-3141
▁xd	-3142
?!?!	-3143
akes	-3144
ohol	-3145
poss	-3146
ssss	-3147
▁dem	-3148
▁glo	-3149
▁vir	-3150
conom	-3151
▁epic	-3152
▁lord	-3153
▁park	-3154
▁sexy	-3155
▁final	-3156
▁lines	-3157
▁minor	-3158
▁penis	-3159
▁pregn	-3160
▁techn	-3161
ionally	-3162
▁doesnt	-3163
▁skills	-3164
▁sports	-3165
▁concern	-3166
▁pretend	-3167
▁accurate	-3168
▁freaking	-3169
▁hospital	-3170
▁shooting	-3171
▁suddenly	-3172
▁emotional	-3173
▁terrifying	-3174
ky	-3175
put	-3176
▁dm	-3177
▁pm	-3178
uses	-3179
▁alb	-3180
▁ble	-3181
▁kno	-3182
▁pal	-3183
▁sea	-3184
rench	-3185
▁brut	-3186
▁drag	-3187
▁four	-3188
▁join	-3189
▁port	-3190
▁pure	-3191
▁sake	-3192
▁spir	-3193
asting	-3194
▁badly	-3195
▁board	-3196
▁books	-3197
▁dress	-3198
▁force	-3199
▁valid	-3200
▁brilli	-3201
▁decide	-3202
▁detail	-3203
▁excell	-3204
▁higher	-3205
▁ignore	-3206
▁showed	-3207
▁directly	-3208
▁enjoying	-3209
▁particul	-3210
▁insurance	-3211
▁reasonable	-3212
!”	-3213
aks	-3214
ert	-3215
ery	-3216
eth	-3217
lit	-3218
lix	-3219
val	-3220
ands	-3221
athy	-3222
ckey	-3223
cons	-3224
ivid	-3225
▁arm	-3226
▁cit	-3227
▁din	-3228
▁egg	-3229
▁ele	-3230
▁kit	-3231
▁wed	-3232
dered	-3233
ening	-3234
oting	-3235
▁crow	-3236
▁hugs	-3237
▁isnt	-3238
▁legs	-3239
▁lets	-3240
▁rude	-3241
▁tend	-3242
▁floor	-3243
▁irony	-3244
▁paper	-3245
▁plays	-3246
▁econom	-3247
▁fucked	-3248
▁intell	-3249
▁speech	-3250
▁starts	-3251
▁target	-3252
▁checked	-3253
▁concept	-3254
▁culture	-3255
▁dropped	-3256
▁letting	-3257
▁document	-3258
▁countries	-3259
▁excellent	-3260
▁discussion	-3261
▁everywhere	-3262
fc	-3263
▁^^	-3264
nect	-3265
▁bio	-3266
▁mut	-3267
▁ult	-3268
allen	-3269
annel	-3270
cious	-3271
▁butt	-3272
ushing	-3273
▁ahead	-3274
▁champ	-3275
▁delic	-3276
▁fresh	-3277
ression	-3278
▁coffee	-3279
▁damage	-3280
▁impact	-3281
▁memory	-3282
▁racism	-3283
▁secret	-3284
▁winter	-3285
eeeeeeee	-3286
▁channel	-3287
▁collect	-3288
▁assuming	-3289
▁liberals	-3290
▁pictures	-3291
▁specific	-3292
▁personality	-3293
-0	-3294
▁|	-3295
▁🤣	-3296
ival	-3297
pper	-3298
▁pod	-3299
cohol	-3300
ether	-3301
icted	-3302
leted	-3303
▁brit	-3304
▁copy	-3305
▁hunt	-3306
▁soul	-3307
action	-3308
▁cheap	-3309
▁divor	-3310
▁lived	-3311
▁mount	-3312
▁queen	-3313
▁separ	-3314
▁trick	-3315
▁wrote	-3316
▁gender	-3317
▁recent	-3318
▁helping	-3319
▁improve	-3320
▁neither	-3321
▁whether	-3322
▁opinions	-3323
▁constantly	-3324
▁understanding	-3325
▁👏	-3326
🦀🦀	-3327
bed	-3328
ipe	-3329
lly	-3330
omp	-3331
thy	-3332
ums	-3333
▁60	-3334
▁dy	-3335
▁rn	-3336
amed	-3337
flix	-3338
ises	-3339
rupt	-3340
▁fro	-3341
▁unf	-3342
asted	-3343
iding	-3344
▁clar	-3345
▁male	-3346
▁rain	-3347
▁repe	-3348
▁sand	-3349
▁suit	-3350
▁wont	-3351
▁court	-3352
▁fixed	-3353
▁flair	-3354
▁limit	-3355
▁lunch	-3356
▁names	-3357
▁progr	-3358
▁speed	-3359
▁turns	-3360
▁failed	-3361
▁nearly	-3362
ifically	-3363
▁ability	-3364
▁challen	-3365
▁driving	-3366
▁possibly	-3367
▁research	-3368
▁signific	-3369
▁whenever	-3370
▁happiness	-3371
▁eventually	-3372
”.	-3373
bel	-3374
cle	-3375
ron	-3376
urs	-3377
▁"[	-3378
▁lm	-3379
edom	-3380
udes	-3381
▁ooo	-3382
▁tor	-3383
▁bank	-3384
▁brex	-3385
▁corp	-3386
▁dear	-3387
▁deli	-3388
▁flor	-3389
▁init	-3390
▁yell	-3391
▁argue	-3392
▁blind	-3393
▁model	-3394
▁offer	-3395
▁screw	-3396
▁tears	-3397
ressive	-3398
▁appear	-3399
▁caused	-3400
▁exists	-3401
▁relate	-3402
▁shitty	-3403
▁stress	-3404
▁connect	-3405
▁towards	-3406
▁decision	-3407
▁involved	-3408
▁previous	-3409
▁throwing	-3410
▁apologies	-3411
new	-3412
ners	-3413
ribe	-3414
they	-3415
▁cuz	-3416
▁laz	-3417
⠀⠀⠀⠀	-3418
inary	-3419
itary	-3420
stood	-3421
▁arms	-3422
▁gain	-3423
▁gift	-3424
▁jobs	-3425
▁kiss	-3426
▁lies	-3427
▁lock	-3428
▁note	-3429
▁numb	-3430
▁bench	-3431
▁email	-3432
▁humor	-3433
▁motiv	-3434
▁proof	-3435
▁table	-3436
▁terms	-3437
▁track	-3438
▁visit	-3439
▁accord	-3440
▁bother	-3441
▁explan	-3442
▁forced	-3443
▁german	-3444
▁insult	-3445
▁market	-3446
▁policy	-3447
▁punish	-3448
▁result	-3449
▁counter	-3450
▁english	-3451
▁keeping	-3452
▁netflix	-3453
▁subject	-3454
▁written	-3455
▁anywhere	-3456
▁finished	-3457
▁delicious	-3458
▁knowledge	-3459
▁religious	-3460
▁therapist	-3461
ago	-3462
asy	-3463
ida	-3464
oon	-3465
▁3.	-3466
▁80	-3467
▁gf	-3468
ites	-3469
ples	-3470
▁cen	-3471
▁eth	-3472
▁gho	-3473
▁lay	-3474
▁sac	-3475
▁vag	-3476
watch	-3477
▁cars	-3478
▁ener	-3479
▁mode	-3480
▁scot	-3481
▁site	-3482
pected	-3483
▁added	-3484
▁china	-3485
▁chuck	-3486
▁crack	-3487
▁image	-3488
▁insec	-3489
▁nasty	-3490
ividual	-3491
▁author	-3492
▁imposs	-3493
▁indeed	-3494
▁jersey	-3495
▁obsess	-3496
▁phones	-3497
▁remain	-3498
▁dollars	-3499
▁freedom	-3500
▁results	-3501
▁familiar	-3502
▁speaking	-3503
▁christmas	-3504
▁concerned	-3505
▁basketball	-3506
▁individual	-3507
▁professional	-3508
mi	-3509
wa	-3510
ape	-3511
bre	-3512
ems	-3513
ral	-3514
ser	-3515
str	-3516
▁ol	-3517
ials	-3518
ompl	-3519
▁abs	-3520
▁bum	-3521
▁jan	-3522
▁nut	-3523
▁yay	-3524
😤😤😤😤	-3525
▁coin	-3526
▁fema	-3527
▁grad	-3528
▁mort	-3529
▁scam	-3530
ashing	-3531
igning	-3532
▁grown	-3533
▁quote	-3534
▁sever	-3535
▁thous	-3536
▁animal	-3537
▁border	-3538
▁surely	-3539
▁changes	-3540
▁figured	-3541
▁offense	-3542
▁website	-3543
▁guessing	-3544
▁pregnant	-3545
▁standard	-3546
▁brilliant	-3547
▁regardless	-3548
▁explanation	-3549
▁frustrating	-3550
▁specifically	-3551
ns	-3552
aff	-3553
ior	-3554
isf	-3555
▁11	-3556
▁qb	-3557
yond	-3558
▁alt	-3559
▁dat	-3560
▁esc	-3561
▁ess	-3562
▁fet	-3563
▁ste	-3564
arily	-3565
ators	-3566
graph	-3567
▁cart	-3568
▁chic	-3569
▁citiz	-3570
▁minim	-3571
▁prove	-3572
▁relax	-3573
▁songs	-3574
▁subsc	-3575
▁swear	-3576
▁across	-3577
▁beyond	-3578
▁commer	-3579
▁female	-3580
▁horrif	-3581
▁mobile	-3582
▁object	-3583
▁alcohol	-3584
▁fingers	-3585
▁florida	-3586
▁injured	-3587
▁monster	-3588
▁percent	-3589
▁replace	-3590
▁sending	-3591
▁workers	-3592
▁communic	-3593
▁listening	-3594
▁represent	-3595
▁accidentally	-3596
"?	-3597
*.	-3598
-3	-3599
ba	-3600
dr	-3601
⣿⣿	-3602
ana	-3603
col	-3604
old	-3605
uit	-3606
ung	-3607
▁#1	-3608
▁13	-3609
▁mc	-3610
▁ot	-3611
irty	-3612
load	-3613
▁^^^	-3614
▁cup	-3615
▁equ	-3616
▁fly	-3617
agram	-3618
ipped	-3619
▁blat	-3620
▁draw	-3621
▁flat	-3622
▁heal	-3623
▁meat	-3624
▁tree	-3625
▁weap	-3626
inated	-3627
▁demon	-3628
▁entit	-3629
▁lower	-3630
▁named	-3631
▁smoke	-3632
▁twist	-3633
▁utter	-3634
▁youre	-3635
▁adults	-3636
▁afford	-3637
▁arrest	-3638
▁belong	-3639
▁energy	-3640
▁hockey	-3641
▁spirit	-3642
▁wholes	-3643
▁massive	-3644
▁popular	-3645
▁showing	-3646
▁pointing	-3647
▁security	-3648
▁shitpost	-3649
▁generation	-3650
▁impossible	-3651
▁population	-3652
rd	-3653
/10	-3654
did	-3655
ius	-3656
nes	-3657
ney	-3658
ota	-3659
▁pc	-3660
9999	-3661
idge	-3662
medi	-3663
miss	-3664
stop	-3665
ucks	-3666
▁rad	-3667
▁tan	-3668
antic	-3669
ribed	-3670
vered	-3671
▁buff	-3672
▁godd	-3673
▁hole	-3674
▁nerv	-3675
▁plat	-3676
▁scum	-3677
▁shop	-3678
▁soft	-3679
▁wars	-3680
ustral	-3681
▁civil	-3682
▁cruel	-3683
▁delus	-3684
▁giant	-3685
▁mater	-3686
▁vegan	-3687
olution	-3688
▁convin	-3689
▁delete	-3690
▁immigr	-3691
▁ironic	-3692
▁levels	-3693
▁phrase	-3694
▁picked	-3695
▁spread	-3696
ropriate	-3697
▁austral	-3698
▁consist	-3699
▁contrib	-3700
▁kidding	-3701
▁numbers	-3702
▁russian	-3703
▁attitude	-3704
▁misunder	-3705
▁offended	-3706
▁physical	-3707
▁practice	-3708
▁beginning	-3709
▁background	-3710
▁confidence	-3711
▁depression	-3712
ev	-3713
can	-3714
ceed	-3715
ript	-3716
▁nur	-3717
▁rip	-3718
▁rom	-3719
▁bowl	-3720
▁flag	-3721
▁heck	-3722
▁hits	-3723
▁lawy	-3724
▁lmfa	-3725
▁neck	-3726
▁shes	-3727
......	-3728
ifying	-3729
▁domin	-3730
▁field	-3731
▁fired	-3732
▁ghost	-3733
▁hello	-3734
▁memor	-3735
▁taxes	-3736
▁truck	-3737
respect	-3738
versity	-3739
▁babies	-3740
▁button	-3741
▁circle	-3742
▁lately	-3743
▁terror	-3744
▁virgin	-3745
▁accompl	-3746
▁anxious	-3747
▁dislike	-3748
▁foreign	-3749
▁product	-3750
▁regular	-3751
▁worries	-3752
▁controll	-3753
▁majority	-3754
▁retarded	-3755
▁apologize	-3756
▁destroyed	-3757
▁wholesome	-3758
▁supporters	-3759
",	-3760
-1	-3761
ato	-3762
eam	-3763
ift	-3764
reg	-3765
▁^(	-3766
▁bb	-3767
head	-3768
xual	-3769
▁bub	-3770
▁fou	-3771
▁gor	-3772
▁org	-3773
▁tem	-3774
arant	-3775
icing	-3776
ounce	-3777
▁king	-3778
▁mods	-3779
▁sain	-3780
▁shad	-3781
▁thre	-3782
▁wash	-3783
piracy	-3784
▁abort	-3785
▁cloth	-3786
▁holid	-3787
▁sauce	-3788
▁shock	-3789
▁shots	-3790
▁anarch	-3791
▁breath	-3792
▁buying	-3793
▁credit	-3794
▁harass	-3795
▁arguing	-3796
▁british	-3797
▁justice	-3798
▁nervous	-3799
▁politic	-3800
▁violent	-3801
ification	-3802
▁building	-3803
▁everyday	-3804
▁military	-3805
▁neighbor	-3806
▁opportunity	-3807
▁performance	-3808
▁embarrassing	-3809
ids	-3810
acle	-3811
anda	-3812
izar	-3813
umed	-3814
▁ash	-3815
▁aww	-3816
▁bon	-3817
▁mic	-3818
▁mum	-3819
▁ooh	-3820
▁rot	-3821
ament	-3822
atest	-3823
ously	-3824
sters	-3825
▁2018	-3826
▁bomb	-3827
▁dish	-3828
▁hire	-3829
▁pair	-3830
▁sold	-3831
▁spam	-3832
season	-3833
▁dirty	-3834
▁incre	-3835
▁manip	-3836
▁march	-3837
▁pants	-3838
▁cancer	-3839
▁create	-3840
▁immedi	-3841
▁killer	-3842
▁psycho	-3843
▁shower	-3844
▁bastard	-3845
▁chicago	-3846
▁deleted	-3847
▁journal	-3848
▁selfish	-3849
▁greatest	-3850
▁investig	-3851
▁national	-3852
▁planning	-3853
▁relevant	-3854
▁spending	-3855
▁defensive	-3856
▁instagram	-3857
▁accomplish	-3858
▁complaining	-3859
65	-3860
hob	-3861
rad	-3862
yal	-3863
▁4.	-3864
ario	-3865
ruct	-3866
uary	-3867
▁gra	-3868
▁oof	-3869
▁pra	-3870
field	-3871
▁adop	-3872
▁bruh	-3873
▁capt	-3874
▁exec	-3875
▁flex	-3876
▁lone	-3877
▁meth	-3878
▁qual	-3879
▁stom	-3880
▁tank	-3881
▁upon	-3882
▁brand	-3883
▁campa	-3884
▁loser	-3885
▁brutal	-3886
▁camera	-3887
▁fairly	-3888
▁manage	-3889
▁mirror	-3890
▁misogy	-3891
▁saving	-3892
▁unlike	-3893
▁window	-3894
▁assault	-3895
▁disturb	-3896
▁managed	-3897
▁becoming	-3898
▁disorder	-3899
▁property	-3900
▁according	-3901
▁democracy	-3902
▁following	-3903
▁triggered	-3904
▁delusional	-3905
ox	-3906
tt	-3907
yl	-3908
***	-3909
ald	-3910
bot	-3911
fun	-3912
oms	-3913
uct	-3914
▁24	-3915
chan	-3916
cise	-3917
gged	-3918
oops	-3919
▁div	-3920
▁dow	-3921
▁gym	-3922
▁mac	-3923
ribly	-3924
▁alot	-3925
▁cast	-3926
▁chat	-3927
▁chem	-3928
▁enem	-3929
▁excl	-3930
▁nons	-3931
▁plot	-3932
▁size	-3933
icious	-3934
izarre	-3935
orious	-3936
▁album	-3937
▁decis	-3938
▁goals	-3939
▁lmfao	-3940
▁magic	-3941
▁occas	-3942
▁patch	-3943
▁prime	-3944
▁reven	-3945
▁staff	-3946
▁brexit	-3947
▁claims	-3948
▁guilty	-3949
▁master	-3950
▁propag	-3951
▁street	-3952
▁useful	-3953
ironment	-3954
▁aggress	-3955
▁bizarre	-3956
▁chances	-3957
▁created	-3958
▁divorce	-3959
▁elected	-3960
▁insight	-3961
▁moments	-3962
▁options	-3963
▁provide	-3964
▁several	-3965
▁upvotes	-3966
▁wondered	-3967
▁desperate	-3968
▁explaining	-3969
▁screenshot	-3970
ef	-3971
sl	-3972
‍♀	-3973
▁@	-3974
aud	-3975
gth	-3976
hey	-3977
iet	-3978
rem	-3979
she	-3980
‍♀️	-3981
▁bc	-3982
▁nu	-3983
ache	-3984
lord	-3985
pocr	-3986
▁gas	-3987
▁jap	-3988
▁joy	-3989
▁lic	-3990
▁mag	-3991
▁til	-3992
asing	-3993
opath	-3994
ophob	-3995
▁bing	-3996
▁boss	-3997
▁five	-3998
▁grab	-3999
▁lean	-4000
▁pics	-4001
▁rage	-4002
▁tool	-4003
itions	-4004
▁bigot	-4005
▁daddy	-4006
▁equal	-4007
▁lying	-4008
▁parts	-4009
▁scare	-4010
▁active	-4011
▁breaks	-4012
▁flying	-4013
▁fuckin	-4014
▁goddam	-4015
▁hypocr	-4016
▁passed	-4017
▁delight	-4018
▁guarant	-4019
▁machine	-4020
▁matches	-4021
▁matters	-4022
▁wanting	-4023
▁bathroom	-4024
▁cheating	-4025
▁emotions	-4026
▁perspect	-4027
▁somewhat	-4028
▁highlight	-4029
▁definition	-4030
▁physically	-4031
▁disappointing	-4032
2|	-4033
fw	-4034
bal	-4035
cha	-4036
ued	-4037
uls	-4038
▁21	-4039
▁ge	-4040
aven	-4041
inct	-4042
quel	-4043
well	-4044
▁:-)	-4045
▁aim	-4046
▁map	-4047
▁pee	-4048
▁tic	-4049
▁tim	-4050
gging	-4051
iling	-4052
inder	-4053
inity	-4054
mates	-4055
moral	-4056
point	-4057
▁cook	-4058
▁quar	-4059
▁rate	-4060
▁refs	-4061
▁rent	-4062
▁solo	-4063
▁tall	-4064
ipping	-4065
▁beach	-4066
▁crowd	-4067
▁drama	-4068
▁petty	-4069
▁quiet	-4070
▁range	-4071
▁study	-4072
▁survi	-4073
▁views	-4074
▁votes	-4075
▁center	-4076
▁comedy	-4077
▁french	-4078
▁ladies	-4079
▁legend	-4080
▁lesson	-4081
▁poorly	-4082
▁russia	-4083
▁satisf	-4084
▁signed	-4085
▁thrown	-4086
▁transl	-4087
▁travel	-4088
▁trolls	-4089
▁united	-4090
▁address	-4091
▁release	-4092
▁staying	-4093
▁location	-4094
▁nonsense	-4095
▁pathetic	-4096
▁pressure	-4097
▁republic	-4098
▁potential	-4099
▁referring	-4100
▁technically	-4101
'.	-4102
45	-4103
nc	-4104
😭😭	-4105
bid	-4106
liv	-4107
oty	-4108
uri	-4109
zen	-4110
▁iq	-4111
++++	-4112
cket	-4113
haps	-4114
ilet	-4115
lled	-4116
soci	-4117
▁ahh	-4118
▁mal	-4119
▁naz	-4120
▁vac	-4121
aries	-4122
every	-4123
minal	-4124
▁2016	-4125
▁appl	-4126
▁bird	-4127
▁euro	-4128
▁held	-4129
▁irel	-4130
▁isra	-4131
▁knee	-4132
▁narc	-4133
▁ring	-4134
▁spin	-4135
▁surv	-4136
▁downt	-4137
▁freak	-4138
▁japan	-4139
▁shout	-4140
▁stole	-4141
▁sweat	-4142
▁topic	-4143
▁union	-4144
fucking	-4145
▁battle	-4146
▁driver	-4147
▁finger	-4148
▁indust	-4149
▁lawyer	-4150
▁libert	-4151
▁makeup	-4152
▁modern	-4153
▁ruined	-4154
▁voting	-4155
▁becomes	-4156
▁billion	-4157
▁choices	-4158
▁falling	-4159
▁holding	-4160
▁justify	-4161
▁liberal	-4162
▁younger	-4163
▁campaign	-4164
▁properly	-4165
▁separate	-4166
▁challenge	-4167
▁stupidity	-4168
▁suffering	-4169
▁commercial	-4170
▁propaganda	-4171
.)	-4172
30	-4173
pd	-4174
aaa	-4175
hip	-4176
nch	-4177
pol	-4178
reh	-4179
wal	-4180
▁ow	-4181
bing	-4182
ened	-4183
ston	-4184
uous	-4185
▁dan	-4186
apped	-4187
mbers	-4188
ounds	-4189
uries	-4190
▁....	-4191
▁blow	-4192
▁cash	-4193
▁grew	-4194
▁hadn	-4195
▁lazy	-4196
▁role	-4197
▁wood	-4198
angers	-4199
▁among	-4200
▁concl	-4201
▁encou	-4202
▁gorge	-4203
▁heads	-4204
▁mexic	-4205
▁obliv	-4206
▁optim	-4207
▁picks	-4208
▁steps	-4209
▁uncle	-4210
▁voted	-4211
▁dinner	-4212
▁franch	-4213
▁hungry	-4214
▁income	-4215
▁joking	-4216
▁planet	-4217
▁satire	-4218
▁strugg	-4219
▁cheaper	-4220
▁covered	-4221
▁hurting	-4222
▁outrage	-4223
▁updated	-4224
▁witness	-4225
▁bringing	-4226
▁changing	-4227
▁coaching	-4228
▁deserved	-4229
▁drinking	-4230
▁explains	-4231
▁material	-4232
▁normally	-4233
▁ignorance	-4234
▁commenting	-4235
▁situations	-4236
▁environment	-4237
9.	-4238
vp	-4239
agn	-4240
amb	-4241
mmm	-4242
urd	-4243
why	-4244
▁na	-4245
▁ni	-4246
...?	-4247
aced	-4248
ases	-4249
ches	-4250
corn	-4251
rely	-4252
some	-4253
star	-4254
▁bag	-4255
▁log	-4256
▁rum	-4257
▁sen	-4258
atory	-4259
lines	-4260
▁film	-4261
▁flow	-4262
▁host	-4263
▁irre	-4264
▁meal	-4265
▁oper	-4266
▁ship	-4267
▁tatt	-4268
aining	-4269
ension	-4270
ration	-4271
▁aside	-4272
▁below	-4273
▁error	-4274
▁faces	-4275
▁guard	-4276
▁insul	-4277
▁texas	-4278
▁trump	-4279
ference	-4280
imately	-4281
inating	-4282
▁absurd	-4283
▁acting	-4284
▁island	-4285
▁orange	-4286
▁retire	-4287
▁turkey	-4288
▁yellow	-4289
expected	-4290
hahahaha	-4291
▁clothes	-4292
▁federal	-4293
▁ireland	-4294
▁luckily	-4295
▁meeting	-4296
▁popcorn	-4297
▁present	-4298
▁private	-4299
▁program	-4300
▁pushing	-4301
▁suppose	-4302
▁wouldnt	-4303
▁distract	-4304
▁entitled	-4305
▁gorgeous	-4306
▁rational	-4307
▁shocking	-4308
▁decisions	-4309
▁education	-4310
▁including	-4311
▁ourselves	-4312
▁depressing	-4313
▁comfortable	-4314
▁immediately	-4315
▁perspective	-4316
▁responsible	-4317
?)	-4318
__	-4319
ok	-4320
⠛⠛	-4321
com	-4322
ern	-4323
esh	-4324
gen	-4325
iff	-4326
mmy	-4327
▁..	-4328
▁35	-4329
▁tl	-4330
life	-4331
mers	-4332
▁***	-4333
▁ate	-4334
▁cig	-4335
▁dry	-4336
▁dys	-4337
▁pub	-4338
▁san	-4339
quest	-4340
think	-4341
▁arri	-4342
▁clip	-4343
▁conc	-4344
▁data	-4345
▁fash	-4346
▁hook	-4347
▁masc	-4348
▁prem	-4349
▁puts	-4350
▁seek	-4351
▁sund	-4352
▁tort	-4353
▁chose	-4354
▁deter	-4355
▁dudes	-4356
▁flash	-4357
▁fully	-4358
▁moves	-4359
▁oppon	-4360
▁pitch	-4361
▁regul	-4362
▁salty	-4363
▁straw	-4364
▁tooth	-4365
▁access	-4366
▁bloody	-4367
▁brings	-4368
▁charge	-4369
▁compar	-4370
▁golden	-4371
▁hating	-4372
▁incels	-4373
▁incomp	-4374
▁nation	-4375
▁remote	-4376
▁sacrif	-4377
▁saints	-4378
▁tattoo	-4379
▁attacks	-4380
▁germany	-4381
▁hitting	-4382
▁illness	-4383
▁perhaps	-4384
▁podcast	-4385
▁threads	-4386
▁wedding	-4387
▁intellig	-4388
▁mentally	-4389
▁students	-4390
▁financial	-4391
▁offensive	-4392
▁sensitive	-4393
▁healthcare	-4394
▁particular	-4395
▁supporting	-4396
▁understood	-4397
▁unfortunate	-4398
cs	-4399
su	-4400
vs	-4401
▁)	-4402
cre	-4403
ils	-4404
lon	-4405
free	-4406
good	-4407
▁cam	-4408
▁usa	-4409
vable	-4410
▁bron	-4411
▁cous	-4412
▁iirc	-4413
▁load	-4414
▁mark	-4415
▁math	-4416
▁mild	-4417
▁nose	-4418
▁tele	-4419
▁wine	-4420
▁wise	-4421
▁brave	-4422
▁costs	-4423
▁dunno	-4424
▁eyebr	-4425
▁oddly	-4426
▁teeth	-4427
▁announ	-4428
▁became	-4429
▁filled	-4430
▁heaven	-4431
▁native	-4432
▁owners	-4433
▁poster	-4434
▁surger	-4435
▁talent	-4436
▁theory	-4437
▁toilet	-4438
▁unique	-4439
▁wealth	-4440
▁assumed	-4441
▁compreh	-4442
▁express	-4443
▁nowhere	-4444
▁revenge	-4445
▁stomach	-4446
▁approach	-4447
▁ideology	-4448
▁insecure	-4449
▁powerful	-4450
entionally	-4451
▁downvotes	-4452
▁franchise	-4453
▁necessary	-4454
▁screaming	-4455
▁surprising	-4456
-2	-4457
.*	-4458
▁̄	-4459
▁🤔	-4460
arm	-4461
hum	-4462
▁31	-4463
▁gg	-4464
▁rh	-4465
bear	-4466
illa	-4467
oles	-4468
rome	-4469
▁ham	-4470
▁nap	-4471
▁pad	-4472
▁row	-4473
▁rub	-4474
▁six	-4475
▁sla	-4476
▁sym	-4477
epend	-4478
ongue	-4479
sorry	-4480
▁anal	-4481
▁cunt	-4482
▁farm	-4483
▁heat	-4484
▁insp	-4485
▁jack	-4486
▁meas	-4487
▁rush	-4488
▁susp	-4489
▁woke	-4490
itable	-4491
▁breed	-4492
▁cance	-4493
▁cream	-4494
▁crush	-4495
▁enfor	-4496
▁kills	-4497
▁kinds	-4498
▁owner	-4499
▁plans	-4500
▁stret	-4501
▁brainw	-4502
▁bubble	-4503
▁dreams	-4504
▁fetish	-4505
▁groups	-4506
▁labour	-4507
▁pushed	-4508
▁raised	-4509
▁refuse	-4510
▁benefit	-4511
▁doctors	-4512
▁existed	-4513
▁failure	-4514
▁manipul	-4515
▁parties	-4516
▁sources	-4517
▁student	-4518
▁typical	-4519
▁useless	-4520
▁whoever	-4521
▁abortion	-4522
▁believes	-4523
▁champion	-4524
▁downtown	-4525
▁episodes	-4526
▁goodness	-4527
▁prepared	-4528
▁arguments	-4529
▁australia	-4530
▁confirmed	-4531
▁impressed	-4532
▁sarcastic	-4533
▁capitalism	-4534
▁responding	-4535
▁successful	-4536
▁expectations	-4537
lb	-4538
sa	-4539
box	-4540
cap	-4541
irl	-4542
non	-4543
▁70	-4544
▁ly	-4545
▁tf	-4546
ders	-4547
game	-4548
icip	-4549
love	-4550
sequ	-4551
umps	-4552
▁fle	-4553
▁gay	-4554
▁pin	-4555
▁sna	-4556
▁sue	-4557
▁tun	-4558
board	-4559
eable	-4560
▁dise	-4561
▁hall	-4562
▁nuts	-4563
▁onto	-4564
▁oops	-4565
▁salt	-4566
▁sees	-4567
▁stun	-4568
▁whoa	-4569
▁addit	-4570
▁anger	-4571
▁bored	-4572
▁cheat	-4573
▁hence	-4574
▁honor	-4575
▁ideas	-4576
▁imper	-4577
▁sides	-4578
▁stars	-4579
▁stats	-4580
▁stone	-4581
▁whats	-4582
itution	-4583
▁closer	-4584
▁gotcha	-4585
▁hardly	-4586
▁lonely	-4587
▁nature	-4588
▁review	-4589
▁scient	-4590
▁scroll	-4591
▁spider	-4592
▁suffer	-4593
▁talked	-4594
▁theres	-4595
▁throws	-4596
▁tongue	-4597
▁comfort	-4598
▁empathy	-4599
▁growing	-4600
▁hunting	-4601
▁passing	-4602
▁promise	-4603
▁smoking	-4604
▁attacked	-4605
▁customer	-4606
▁designed	-4607
▁election	-4608
▁handsome	-4609
▁humanity	-4610
▁millions	-4611
▁mistakes	-4612
▁training	-4613
▁violence	-4614
▁condition	-4615
▁disrespect	-4616
▁impressive	-4617
▁university	-4618
▁conservative	-4619
▁organization	-4620
▁relationships	-4621
43	-4622
]"	-4623
jo	-4624
kk	-4625
sm	-4626
sp	-4627
▁~	-4628
🤣🤣	-4629
mes	-4630
oot	-4631
pie	-4632
????	-4633
hold	-4634
oned	-4635
rets	-4636
tery	-4637
wood	-4638
▁fox	-4639
▁gro	-4640
▁hid	-4641
▁pow	-4642
▁😂😂😂	-4643
aging	-4644
ivity	-4645
night	-4646
▁2020	-4647
▁boat	-4648
▁edge	-4649
▁gram	-4650
▁harm	-4651
▁mama	-4652
▁olds	-4653
▁pink	-4654
▁pros	-4655
▁rout	-4656
▁runs	-4657
▁tour	-4658
▁vent	-4659
orrect	-4660
▁apply	-4661
▁basic	-4662
▁beard	-4663
▁bread	-4664
▁comic	-4665
▁enemy	-4666
▁heavy	-4667
▁indic	-4668
▁outta	-4669
▁paran	-4670
▁split	-4671
▁threw	-4672
▁whose	-4673
▁beauty	-4674
▁bottle	-4675
▁conven	-4676
▁degree	-4677
▁genius	-4678
▁prices	-4679
▁remove	-4680
▁script	-4681
▁sexist	-4682
▁winner	-4683
▁abusive	-4684
▁details	-4685
▁drivers	-4686
▁fashion	-4687
▁herself	-4688
▁license	-4689
▁members	-4690
▁minimum	-4691
▁praying	-4692
▁predict	-4693
▁selling	-4694
▁signing	-4695
▁statist	-4696
▁trigger	-4697
▁distance	-4698
▁friendly	-4699
▁homophob	-4700
▁ignoring	-4701
▁rejected	-4702
▁stealing	-4703
▁universe	-4704
▁worrying	-4705
▁instantly	-4706
▁realistic	-4707
▁conspiracy	-4708
0000000000000000	-4709
11	-4710
7.	-4711
hl	-4712
ka	-4713
gun	-4714
ica	-4715
iers	-4716
iiii	-4717
outs	-4718
rees	-4719
ront	-4720
tail	-4721
vent	-4722
▁ast	-4723
▁der	-4724
▁flu	-4725
▁pls	-4726
▁unp	-4727
▁veg	-4728
allow	-4729
child	-4730
osity	-4731
round	-4732
▁defe	-4733
▁dict	-4734
▁dogg	-4735
▁east	-4736
▁fart	-4737
▁funn	-4738
▁goat	-4739
▁goog	-4740
▁hous	-4741
▁impl	-4742
▁nazi	-4743
▁reck	-4744
▁rise	-4745
▁root	-4746
▁smug	-4747
▁snap	-4748
▁tiny	-4749
atable	-4750
colate	-4751
erable	-4752
formed	-4753
lement	-4754
rength	-4755
urally	-4756
▁click	-4757
▁conso	-4758
▁cried	-4759
▁crypt	-4760
▁grind	-4761
▁horse	-4762
▁influ	-4763
▁maint	-4764
▁marry	-4765
▁prost	-4766
▁raise	-4767
▁stops	-4768
▁usual	-4769
ription	-4770
▁burned	-4771
▁circum	-4772
▁douche	-4773
▁faster	-4774
▁heroes	-4775
▁israel	-4776
▁volume	-4777
▁beating	-4778
▁belongs	-4779
▁england	-4780
▁equally	-4781
▁hanging	-4782
▁immoral	-4783
▁include	-4784
▁introdu	-4785
▁legally	-4786
▁require	-4787
▁warning	-4788
▁weather	-4789
▁arrested	-4790
▁articles	-4791
▁injuries	-4792
▁memories	-4793
▁believing	-4794
▁celebrate	-4795
▁chocolate	-4796
▁depressed	-4797
▁insulting	-4798
▁disturbing	-4799
▁horrifying	-4800
▁fascinating	-4801
▁significant	-4802
▁misunderstand	-4803
nn	-4804
aph	-4805
cra	-4806
cut	-4807
els	-4808
emp	-4809
nam	-4810
1|1|	-4811
born	-4812
iles	-4813
veal	-4814
word	-4815
yyyy	-4816
▁beg	-4817
▁meh	-4818
▁raz	-4819
acing	-4820
allas	-4821
ckets	-4822
happy	-4823
uting	-4824
▁asap	-4825
▁buzz	-4826
▁edgy	-4827
▁gang	-4828
▁lane	-4829
▁mast	-4830
▁poly	-4831
▁prin	-4832
▁scar	-4833
akeday	-4834
▁falls	-4835
▁incel	-4836
▁india	-4837
▁mixed	-4838
▁notes	-4839
▁sight	-4840
▁signs	-4841
▁spell	-4842
▁stock	-4843
▁sympt	-4844
▁talks	-4845
▁tells	-4846
▁tight	-4847
vantage	-4848
▁candid	-4849
▁disney	-4850
▁kicked	-4851
▁liking	-4852
▁nailed	-4853
▁photos	-4854
▁reward	-4855
▁weapon	-4856
entially	-4857
▁ashamed	-4858
▁blatant	-4859
▁blessed	-4860
▁cakeday	-4861
▁dealing	-4862
▁fantasy	-4863
▁goddamn	-4864
▁grandma	-4865
▁hardest	-4866
▁honesty	-4867
▁manager	-4868
▁miracle	-4869
▁overall	-4870
▁scratch	-4871
▁seasons	-4872
▁canadian	-4873
▁independ	-4874
▁mountain	-4875
▁painting	-4876
▁pleasure	-4877
▁solution	-4878
▁corporate	-4879
▁curiosity	-4880
▁customers	-4881
▁socialism	-4882
▁aggressive	-4883
▁friendship	-4884
▁unexpected	-4885
▁alternative	-4886
▁embarrassed	-4887
▁_	-4888
▁👍	-4889
▁😉	-4890
arn	-4891
dom	-4892
edu	-4893
jer	-4894
lif	-4895
may	-4896
▁$3	-4897
▁um	-4898
hand	-4899
iled	-4900
utch	-4901
▁bye	-4902
▁cro	-4903
▁hip	-4904
▁jun	-4905
▁noo	-4906
▁pac	-4907
▁var	-4908
▁vom	-4909
cause	-4910
ieved	-4911
inese	-4912
ndred	-4913
usted	-4914
▁bias	-4915
▁brig	-4916
▁chee	-4917
▁desk	-4918
▁laid	-4919
▁mond	-4920
▁moon	-4921
▁oooh	-4922
▁tear	-4923
!!!!!!	-4924
▁apple	-4925
▁bears	-4926
▁diagn	-4927
▁fruit	-4928
▁gradu	-4929
▁honey	-4930
▁hopes	-4931
▁intim	-4932
▁kitch	-4933
▁knees	-4934
▁occur	-4935
▁squad	-4936
▁trail	-4937
▁wasnt	-4938
itional	-4939
▁budget	-4940
▁debate	-4941
▁decade	-4942
▁drinks	-4943
▁mexico	-4944
▁proven	-4945
▁reveal	-4946
▁strate	-4947
hhhhhhhh	-4948
▁chinese	-4949
▁chuckle	-4950
▁climate	-4951
▁consequ	-4952
▁hundred	-4953
▁misread	-4954
▁outcome	-4955
▁protest	-4956
▁referen	-4957
▁ruining	-4958
▁stretch	-4959
▁upvoted	-4960
▁wasting	-4961
▁bothered	-4962
▁instinct	-4963
▁movement	-4964
▁reminder	-4965
▁remindme	-4966
▁romantic	-4967
▁scenario	-4968
▁sleeping	-4969
▁surround	-4970
▁advantage	-4971
▁incorrect	-4972
▁pointless	-4973
▁sacrifice	-4974
▁downvoting	-4975
▁subreddits	-4976
▁competition	-4977
▁necessarily	-4978
▁politicians	-4979
▁entertaining	-4980
▁neighborhood	-4981
2.	-4982
23	-4983
4.	-4984
gl	-4985
ij	-4986
py	-4987
sy	-4988
▁🤷	-4989
bye	-4990
dra	-4991
duc	-4992
enn	-4993
hic	-4994
lol	-4995
pet	-4996
tfy	-4997
▁23	-4998
⠀⠀⠀	-4999
bles	-5000
imed	-5001
lock	-5002
look	-5003
rict	-5004
roit	-5005
▁cha	-5006
▁ego	-5007
▁esp	-5008
▁lip	-5009
▁reb	-5010
▁ske	-5011
▁unl	-5012
▁vid	-5013
▁wis	-5014
icorn	-5015
iforn	-5016
style	-5017
▁bell	-5018
▁dang	-5019
▁fits	-5020
▁flip	-5021
▁ftfy	-5022
▁hmmm	-5023
▁narr	-5024
▁pets	-5025
▁pool	-5026
▁symp	-5027
▁tone	-5028
▁trad	-5029
enders	-5030
ession	-5031
keting	-5032
levant	-5033
▁admin	-5034
▁combo	-5035
▁finds	-5036
▁frank	-5037
▁grade	-5038
▁input	-5039
▁irrit	-5040
▁metal	-5041
▁misle	-5042
▁prior	-5043
▁seats	-5044
▁shape	-5045
▁shown	-5046
▁sneak	-5047
▁types	-5048
▁unbel	-5049
▁veget	-5050
.......	-5051
ifornia	-5052
▁accent	-5053
▁badass	-5054
▁bullet	-5055
▁butter	-5056
▁cities	-5057
▁cowork	-5058
▁crimes	-5059
▁filthy	-5060
▁format	-5061
▁former	-5062
▁intent	-5063
▁linked	-5064
▁pedoph	-5065
▁pulled	-5066
▁subtle	-5067
▁tinder	-5068
▁answers	-5069
▁burgers	-5070
▁central	-5071
▁charged	-5072
▁contrad	-5073
▁discord	-5074
▁fascism	-5075
▁goodbye	-5076
▁station	-5077
▁surgery	-5078
▁transph	-5079
▁treated	-5080
▁accounts	-5081
▁describe	-5082
▁remotely	-5083
▁reported	-5084
▁standing	-5085
▁strength	-5086
▁vaccines	-5087
▁addiction	-5088
▁communism	-5089
▁therefore	-5090
▁irrelevant	-5091
▁underrated	-5092
▁appreciated	-5093
▁experiences	-5094
-5	-5095
da	-5096
ban	-5097
esc	-5098
met	-5099
thr	-5100
yes	-5101
▁99	-5102
▁ml	-5103
▁pi	-5104
▁😂😂	-5105
aken	-5106
anks	-5107
duct	-5108
ener	-5109
nite	-5110
oint	-5111
ooms	-5112
roph	-5113
whel	-5114
wind	-5115
with	-5116
▁ath	-5117
▁bay	-5118
▁bow	-5119
▁err	-5120
▁iph	-5121
▁max	-5122
▁nfl	-5123
▁saf	-5124
▁tac	-5125
▁vib	-5126
▁wet	-5127
ained	-5128
break	-5129
chool	-5130
ookie	-5131
thank	-5132
while	-5133
▁acts	-5134
▁ahhh	-5135
▁aunt	-5136
▁bait	-5137
▁chap	-5138
▁comr	-5139
▁gods	-5140
▁hype	-5141
▁loop	-5142
▁magn	-5143
▁neat	-5144
▁rant	-5145
▁span	-5146
▁spit	-5147
▁stal	-5148
▁uber	-5149
▁vile	-5150
▁wide	-5151
▁york	-5152
donald	-5153
icient	-5154
ongest	-5155
▁broad	-5156
▁broth	-5157
▁coinc	-5158
▁graph	-5159
▁links	-5160
▁misin	-5161
▁moral	-5162
▁sandw	-5163
▁skill	-5164
▁soooo	-5165
▁steel	-5166
▁trend	-5167
▁vague	-5168
rection	-5169
▁associ	-5170
▁bridge	-5171
▁closed	-5172
▁colour	-5173
▁dallas	-5174
▁engage	-5175
▁europe	-5176
▁sucked	-5177
▁traded	-5178
▁walked	-5179
▁annoyed	-5180
▁blocked	-5181
▁burning	-5182
▁citizen	-5183
▁consent	-5184
▁picking	-5185
▁sarcasm	-5186
▁setting	-5187
▁slavery	-5188
▁spoiled	-5189
▁wishing	-5190
▁accepted	-5191
▁comeback	-5192
▁eyebrows	-5193
▁glorious	-5194
▁inspired	-5195
▁recovery	-5196
▁released	-5197
▁reminded	-5198
▁spelling	-5199
▁struggle	-5200
▁confusing	-5201
▁convinced	-5202
▁elsewhere	-5203
▁employees	-5204
▁reporting	-5205
▁sentiment	-5206
▁california	-5207
▁compliment	-5208
),	-5209
70	-5210
fy	-5211
pm	-5212
‍♂	-5213
▁😭	-5214
♥️	-5215
..*	-5216
axx	-5217
fed	-5218
hea	-5219
lin	-5220
‍♂️	-5221
▁22	-5222
▁>!	-5223
▁>[	-5224
▁az	-5225
▁je	-5226
▁td	-5227
bies	-5228
dies	-5229
izes	-5230
mart	-5231
otel	-5232
pret	-5233
ugly	-5234
uted	-5235
▁199	-5236
▁aha	-5237
▁cub	-5238
▁emo	-5239
▁jam	-5240
▁ket	-5241
▁las	-5242
▁lif	-5243
▁mvp	-5244
▁owe	-5245
▁plz	-5246
▁sab	-5247
▁tag	-5248
▁|2|	-5249
anced	-5250
apers	-5251
entle	-5252
ients	-5253
ished	-5254
rimin	-5255
▁blan	-5256
▁cris	-5257
▁elim	-5258
▁emer	-5259
▁geez	-5260
▁inev	-5261
▁kore	-5262
▁lied	-5263
▁mood	-5264
▁pays	-5265
▁phil	-5266
▁poop	-5267
▁prim	-5268
▁synd	-5269
▁toss	-5270
▁uses	-5271
▁vill	-5272
▁yess	-5273
▁zone	-5274
istent	-5275
▁aband	-5276
▁adopt	-5277
▁autom	-5278
▁belly	-5279
▁bible	-5280
▁blast	-5281
▁cases	-5282
▁chair	-5283
▁frame	-5284
▁kitty	-5285
▁medio	-5286
▁miles	-5287
▁raped	-5288
ruction	-5289
▁adding	-5290
▁artist	-5291
▁asleep	-5292
▁bright	-5293
▁depart	-5294
▁hidden	-5295
▁hyster	-5296
▁inspir	-5297
▁losses	-5298
▁messed	-5299
▁opened	-5300
▁ripped	-5301
▁rookie	-5302
▁scenes	-5303
▁server	-5304
▁silver	-5305
▁sooner	-5306
▁strike	-5307
▁sunday	-5308
▁weirdo	-5309
▁wishes	-5310
inations	-5311
▁compare	-5312
▁complic	-5313
▁corrupt	-5314
▁cringey	-5315
▁decades	-5316
▁detroit	-5317
▁disease	-5318
▁effects	-5319
▁happier	-5320
▁heavily	-5321
▁intense	-5322
▁logical	-5323
▁officer	-5324
▁plastic	-5325
▁prayers	-5326
▁pulling	-5327
▁realise	-5328
▁turning	-5329
▁exciting	-5330
▁hahahaha	-5331
▁identify	-5332
▁listened	-5333
▁messages	-5334
▁precious	-5335
▁replying	-5336
▁sandwich	-5337
▁existence	-5338
▁relatable	-5339
▁typically	-5340
▁libertarian	-5341
▁conservatives	-5342
oooooooooooooooo	-5343
-4	-5344
/3	-5345
ux	-5346
bab	-5347
fle	-5348
haw	-5349
hug	-5350
iac	-5351
isc	-5352
isy	-5353
mod	-5354
omy	-5355
rog	-5356
tah	-5357
▁dl	-5358
▁du	-5359
----	-5360
best	-5361
iefs	-5362
itor	-5363
iven	-5364
lear	-5365
lest	-5366
vere	-5367
▁adm	-5368
▁cud	-5369
▁irl	-5370
▁lim	-5371
▁nhl	-5372
▁pit	-5373
▁ree	-5374
▁sle	-5375
▁toy	-5376
acked	-5377
alled	-5378
anted	-5379
istry	-5380
maybe	-5381
▁ages	-5382
▁athe	-5383
▁dems	-5384
▁ears	-5385
▁horm	-5386
▁inex	-5387
▁kink	-5388
▁lick	-5389
▁meta	-5390
▁migr	-5391
▁milk	-5392
▁nerd	-5393
▁semi	-5394
▁serv	-5395
▁shar	-5396
▁syri	-5397
▁utah	-5398
ablish	-5399
apping	-5400
change	-5401
ialism	-5402
lessly	-5403
people	-5404
sexual	-5405
▁advoc	-5406
▁arent	-5407
▁beast	-5408
▁blown	-5409
▁boobs	-5410
▁brows	-5411
▁etern	-5412
▁loyal	-5413
▁pride	-5414
▁shift	-5415
▁smash	-5416
▁thick	-5417
▁unatt	-5418
▁vibes	-5419
ilities	-5420
▁betray	-5421
▁chiefs	-5422
▁colors	-5423
▁cutest	-5424
▁growth	-5425
▁lights	-5426
▁mutual	-5427
▁shorts	-5428
▁slowly	-5429
▁stands	-5430
▁whoops	-5431
!!!!!!!!	-5432
▁applaud	-5433
▁clapped	-5434
▁console	-5435
▁equival	-5436
▁filming	-5437
▁forgive	-5438
▁privile	-5439
▁replies	-5440
▁smaller	-5441
▁suspect	-5442
▁unicorn	-5443
▁victims	-5444
▁withdra	-5445
▁congress	-5446
▁disaster	-5447
▁fortnite	-5448
▁function	-5449
▁minority	-5450
▁murdered	-5451
▁stopping	-5452
▁thousand	-5453
▁underest	-5454
▁backwards	-5455
▁companies	-5456
▁confident	-5457
▁establish	-5458
▁everytime	-5459
▁overrated	-5460
▁standards	-5461
▁thousands	-5462
▁collection	-5463
▁comparison	-5464
▁nightmares	-5465
yi	-5466
|0	-5467
▁😅	-5468
▁😊	-5469
▁😍	-5470
ado	-5471
bon	-5472
eah	-5473
hab	-5474
kin	-5475
ley	-5476
nic	-5477
nox	-5478
▁--	-5479
▁hr	-5480
▁np	-5481
enez	-5482
ford	-5483
yeah	-5484
zens	-5485
▁ack	-5486
▁awh	-5487
▁boi	-5488
▁dum	-5489
▁hah	-5490
▁hob	-5491
▁rat	-5492
🦀🦀🦀🦀	-5493
iring	-5494
orrow	-5495
stern	-5496
urday	-5497
▁army	-5498
▁bike	-5499
▁bump	-5500
▁chin	-5501
▁coun	-5502
▁crew	-5503
▁disp	-5504
▁diss	-5505
▁firm	-5506
▁gosh	-5507
▁liar	-5508
▁meds	-5509
▁pier	-5510
▁pist	-5511
▁sooo	-5512
▁thri	-5513
arians	-5514
overed	-5515
uclear	-5516
▁amend	-5517
▁cared	-5518
▁chief	-5519
▁curse	-5520
▁delay	-5521
▁dread	-5522
▁empty	-5523
▁guilt	-5524
▁habit	-5525
▁highs	-5526
▁lions	-5527
▁minds	-5528
▁mommy	-5529
▁noise	-5530
▁obnox	-5531
▁panic	-5532
▁resol	-5533
▁roads	-5534
▁scumb	-5535
▁steam	-5536
▁vehic	-5537
▁venez	-5538
logical	-5539
▁advert	-5540
▁amazon	-5541
▁cousin	-5542
▁dozens	-5543
▁factor	-5544
▁fortun	-5545
▁infect	-5546
▁mascul	-5547
▁pieces	-5548
▁ranked	-5549
▁repeat	-5550
▁timing	-5551
whelming	-5552
▁actions	-5553
▁analogy	-5554
▁anytime	-5555
▁drawing	-5556
▁economy	-5557
▁encount	-5558
▁grammar	-5559
▁holiday	-5560
▁killers	-5561
▁limited	-5562
▁narciss	-5563
▁profile	-5564
▁quarter	-5565
▁rolling	-5566
▁section	-5567
▁unbelie	-5568
▁utterly	-5569
😤😤😤😤😤😤😤😤	-5570
▁benefits	-5571
▁combined	-5572
▁educated	-5573
▁feminism	-5574
▁imagined	-5575
▁industry	-5576
▁mediocre	-5577
▁official	-5578
▁platform	-5579
▁starving	-5580
▁syndrome	-5581
▁teachers	-5582
▁teaching	-5583
▁vacation	-5584
▁venezuel	-5585
▁behaviour	-5586
▁childhood	-5587
▁comparing	-5588
▁confusion	-5589
▁influence	-5590
▁lifestyle	-5591
▁miserable	-5592
▁motivated	-5593
▁obnoxious	-5594
▁offseason	-5595
▁treatment	-5596
▁afterwards	-5597
▁misleading	-5598
▁revolution	-5599
▁documentary	-5600
▁emotionally	-5601
▁experienced	-5602
▁consequences	-5603
▁legitimately	-5604
▁investigation	-5605
((	-5606
80	-5607
:)	-5608
va	-5609
vo	-5610
▁🙄	-5611
-10	-5612
gar	-5613
ony	-5614
riz	-5615
sfw	-5616
was	-5617
▁([	-5618
▁cb	-5619
▁dc	-5620
▁nc	-5621
onto	-5622
resh	-5623
rrrr	-5624
your	-5625
▁ach	-5626
▁atm	-5627
▁era	-5628
▁fab	-5629
▁ffs	-5630
▁fyi	-5631
▁lou	-5632
▁oct	-5633
▁pig	-5634
▁rab	-5635
▁sam	-5636
▁sib	-5637
▁woo	-5638
▁wre	-5639
house	-5640
lings	-5641
▁2017	-5642
▁boot	-5643
▁coke	-5644
▁dash	-5645
▁diet	-5646
▁foul	-5647
▁hill	-5648
▁jeez	-5649
▁junk	-5650
▁lips	-5651
▁moms	-5652
▁nsfw	-5653
▁poll	-5654
▁pump	-5655
▁ramp	-5656
▁reci	-5657
▁sink	-5658
▁skip	-5659
▁thor	-5660
▁tips	-5661
▁turd	-5662
▁unre	-5663
▁virt	-5664
▁woah	-5665
atures	-5666
ereoty	-5667
iently	-5668
opular	-5669
▁clown	-5670
▁coast	-5671
▁dance	-5672
▁genoc	-5673
▁initi	-5674
▁loose	-5675
▁plate	-5676
▁reads	-5677
▁theme	-5678
▁wheel	-5679
▁addict	-5680
▁amazed	-5681
▁caring	-5682
▁drives	-5683
▁engine	-5684
▁gentle	-5685
▁havent	-5686
▁iphone	-5687
▁knight	-5688
▁leader	-5689
▁letter	-5690
▁perman	-5691
▁potato	-5692
▁rating	-5693
▁rounds	-5694
▁safety	-5695
▁serial	-5696
▁stayed	-5697
▁taught	-5698
▁wasted	-5699
atically	-5700
▁beliefs	-5701
▁commute	-5702
▁couples	-5703
▁cutting	-5704
▁enforce	-5705
▁highest	-5706
▁instant	-5707
▁kitchen	-5708
▁millenn	-5709
▁misogyn	-5710
▁ordered	-5711
▁sounded	-5712
▁succeed	-5713
▁whining	-5714
▁baseball	-5715
▁circumst	-5716
▁constant	-5717
▁horribly	-5718
▁included	-5719
▁scotland	-5720
▁shutdown	-5721
▁stronger	-5722
▁switched	-5723
▁theories	-5724
▁amazingly	-5725
▁anarchist	-5726
▁communist	-5727
▁creatures	-5728
▁described	-5729
▁feminists	-5730
▁privilege	-5731
▁recognize	-5732
▁strangers	-5733
▁terrified	-5734
▁transport	-5735
▁guaranteed	-5736
▁preference	-5737
▁punishment	-5738
▁statements	-5739
▁terrorists	-5740
▁independent	-5741
▁occasionally	-5742
!*	-5743
-1|	-5744
abs	-5745
ada	-5746
ept	-5747
fit	-5748
ino	-5749
law	-5750
loo	-5751
ona	-5752
rac	-5753
sts	-5754
who	-5755
▁$2	-5756
▁*[	-5757
▁-[	-5758
▁26	-5759
▁29	-5760
▁nd	-5761
▁ss	-5762
acon	-5763
ancy	-5764
bowl	-5765
feed	-5766
hern	-5767
ille	-5768
otic	-5769
rigg	-5770
stal	-5771
ucky	-5772
▁ank	-5773
▁bip	-5774
▁dee	-5775
▁dip	-5776
▁gut	-5777
▁nic	-5778
▁sup	-5779
▁tow	-5780
▁umm	-5781
▁web	-5782
▁wig	-5783
ables	-5784
about	-5785
agers	-5786
inate	-5787
ooooo	-5788
state	-5789
ustin	-5790
usual	-5791
ville	-5792
▁$100	-5793
▁ariz	-5794
▁bout	-5795
▁dent	-5796
▁dose	-5797
▁doub	-5798
▁embr	-5799
▁exer	-5800
▁gras	-5801
▁jets	-5802
▁lake	-5803
▁logo	-5804
▁pats	-5805
▁sept	-5806
▁slap	-5807
▁thro	-5808
▁todd	-5809
▁tons	-5810
▁trib	-5811
▁unin	-5812
▁welp	-5813
▁whis	-5814
▁xbox	-5815
agging	-5816
isters	-5817
nesota	-5818
stream	-5819
weight	-5820
▁analy	-5821
▁bulls	-5822
▁disab	-5823
▁doggo	-5824
▁flame	-5825
▁hotel	-5826
▁hyper	-5827
▁inapp	-5828
▁korea	-5829
▁nurse	-5830
▁penal	-5831
▁plane	-5832
▁plant	-5833
▁purch	-5834
▁serve	-5835
▁solve	-5836
itarian	-5837
itement	-5838
ractive	-5839
▁affair	-5840
▁attach	-5841
▁awhile	-5842
▁backup	-5843
▁cigare	-5844
▁donate	-5845
▁dumber	-5846
▁flight	-5847
▁metaph	-5848
▁morons	-5849
▁praise	-5850
▁profit	-5851
▁rarely	-5852
▁resour	-5853
▁roster	-5854
▁shadow	-5855
▁shared	-5856
▁smells	-5857
▁streak	-5858
▁struct	-5859
▁unreal	-5860
▁arizona	-5861
▁arrived	-5862
▁century	-5863
▁comrade	-5864
▁conduct	-5865
▁ignored	-5866
▁judging	-5867
▁leaders	-5868
▁leading	-5869
▁nuclear	-5870
▁refresh	-5871
▁rooting	-5872
▁schools	-5873
▁threats	-5874
▁torture	-5875
▁unusual	-5876
▁|2|1|1|	-5877
▁administ	-5878
▁assholes	-5879
▁audience	-5880
▁bastards	-5881
▁citizens	-5882
▁creative	-5883
▁criminal	-5884
▁demonstr	-5885
▁division	-5886
▁headline	-5887
▁medicine	-5888
▁patience	-5889
▁prospect	-5890
▁services	-5891
▁stereoty	-5892
▁survivor	-5893
▁talented	-5894
▁ultimate	-5895
▁chemistry	-5896
▁democrats	-5897
▁diagnosed	-5898
▁naturally	-5899
▁socialist	-5900
▁assumption	-5901
▁attraction	-5902
▁discovered	-5903
▁immigrants	-5904
▁legitimate	-5905
▁protection	-5906
▁psychopath	-5907
▁vaccinated	-5908
▁appropriate	-5909
▁essentially	-5910
▁progressive	-5911
▁championship	-5912
▁unattractive	-5913
▁inappropriate	-5914
▁intentionally	-5915
▁significantly	-5916
eeeeeeeeeeeeeeee	-5917
!<	-5918
ai	-5919
▁£	-5920
]!!	-5921
aul	-5922
lay	-5923
▁fb	-5924
▁fu	-5925
▁gd	-5926
▁md	-5927
▁mi	-5928
▁mt	-5929
▁sb	-5930
▁sf	-5931
▁ww	-5932
agon	-5933
cont	-5934
have	-5935
hear	-5936
iped	-5937
ique	-5938
jerk	-5939
keep	-5940
olen	-5941
otes	-5942
ubby	-5943
ylum	-5944
zard	-5945
▁aaa	-5946
▁amb	-5947
▁cos	-5948
▁eag	-5949
▁fbi	-5950
▁ram	-5951
adays	-5952
adium	-5953
akers	-5954
backs	-5955
being	-5956
craft	-5957
gency	-5958
iders	-5959
there	-5960
▁adds	-5961
▁chip	-5962
▁corn	-5963
▁coup	-5964
▁elab	-5965
▁exit	-5966
▁fest	-5967
▁file	-5968
▁gate	-5969
▁grey	-5970
▁hers	-5971
▁libr	-5972
▁maga	-5973
▁pipe	-5974
▁redu	-5975
▁rein	-5976
▁thin	-5977
▁wage	-5978
▁wire	-5979
arents	-5980
celled	-5981
employ	-5982
mitism	-5983
ulsive	-5984
▁actor	-5985
▁anime	-5986
▁arrow	-5987
▁blows	-5988
▁bound	-5989
▁bully	-5990
▁cards	-5991
▁cloud	-5992
▁colts	-5993
▁comed	-5994
▁doors	-5995
▁famil	-5996
▁flesh	-5997
▁hella	-5998
▁kings	-5999
▁knife	-6000
▁leafs	-6001
▁naive	-6002
▁nause	-6003
▁patri	-6004
▁popul	-6005
▁safer	-6006
▁sized	-6007
▁skins	-6008
▁sorts	-6009
lection	-6010
related	-6011
through	-6012
▁acknow	-6013
▁asylum	-6014
▁austin	-6015
▁branch	-6016
▁causes	-6017
▁collap	-6018
▁combat	-6019
▁corpor	-6020
▁cursed	-6021
▁damnit	-6022
▁demand	-6023
▁devast	-6024
▁dodged	-6025
▁dollar	-6026
▁excess	-6027
▁hammer	-6028
▁handed	-6029
▁poison	-6030
▁produc	-6031
▁recall	-6032
▁relief	-6033
▁resist	-6034
▁retail	-6035
▁underw	-6036
▁waited	-6037
▁washed	-6038
▁worthy	-6039
99999999	-6040
▁appoint	-6041
▁cartoon	-6042
▁fascist	-6043
▁glasses	-6044
▁googled	-6045
▁greater	-6046
▁healing	-6047
▁january	-6048
▁journey	-6049
▁masturb	-6050
▁opening	-6051
▁passion	-6052
▁racists	-6053
▁reflect	-6054
▁request	-6055
▁screwed	-6056
▁stadium	-6057
▁tanking	-6058
▁toronto	-6059
▁visible	-6060
▁walmart	-6061
▁windows	-6062
▁yelling	-6063
▁admitted	-6064
▁affected	-6065
▁checking	-6066
▁confront	-6067
▁holidays	-6068
▁identity	-6069
▁implying	-6070
▁increase	-6071
▁nowadays	-6072
▁obsessed	-6073
▁paranoid	-6074
▁realised	-6075
▁received	-6076
▁relieved	-6077
▁unemploy	-6078
▁attacking	-6079
▁cancelled	-6080
▁criticism	-6081
▁intellect	-6082
▁neighbors	-6083
▁reminding	-6084
▁unpopular	-6085
▁democratic	-6086
▁department	-6087
▁harassment	-6088
▁medication	-6089
▁optimistic	-6090
▁pretending	-6091
▁financially	-6092
▁improvement	-6093
▁possibility	-6094
▁translation	-6095
▁particularly	-6096
▁underestimate	-6097
$$	-6098
12	-6099
])	-6100
hi	-6101
la	-6102
▁—	-6103
ari	-6104
bar	-6105
bro	-6106
bur	-6107
cos	-6108
eds	-6109
egr	-6110
hem	-6111
iju	-6112
lig	-6113
mat	-6114
org	-6115
pes	-6116
rid	-6117
rot	-6118
sea	-6119
sty	-6120
▁0.	-6121
▁gm	-6122
▁hm	-6123
▁“[	-6124
eeze	-6125
even	-6126
food	-6127
gage	-6128
girl	-6129
iter	-6130
kers	-6131
list	-6132
oler	-6133
oomm	-6134
pers	-6135
ties	-6136
▁!!!	-6137
▁500	-6138
▁cod	-6139
▁ded	-6140
▁doo	-6141
▁dut	-6142
▁gap	-6143
▁hoo	-6144
▁lob	-6145
▁ppl	-6146
▁raw	-6147
▁shr	-6148
▁tlj	-6149
▁via	-6150
▁yan	-6151
aaaaa	-6152
agger	-6153
human	-6154
iable	-6155
osing	-6156
ourse	-6157
polit	-6158
verty	-6159
which	-6160
would	-6161
▁ammo	-6162
▁ange	-6163
▁auto	-6164
▁bags	-6165
▁blew	-6166
▁bond	-6167
▁chef	-6168
▁coal	-6169
▁code	-6170
▁decl	-6171
▁diab	-6172
▁dram	-6173
▁dust	-6174
▁eggs	-6175
▁enth	-6176
▁guit	-6177
▁hood	-6178
▁ital	-6179
▁mets	-6180
▁mono	-6181
▁ouch	-6182
▁pron	-6183
▁puck	-6184
▁rams	-6185
▁sche	-6186
▁summ	-6187
▁swim	-6188
▁trau	-6189
ateful	-6190
ijuana	-6191
▁agent	-6192
▁birds	-6193
▁bonus	-6194
▁dynam	-6195
▁greed	-6196
▁guide	-6197
▁hired	-6198
▁intri	-6199
▁messy	-6200
▁morty	-6201
▁nomin	-6202
▁pasta	-6203
▁print	-6204
▁rifle	-6205
▁scale	-6206
▁shave	-6207
▁slept	-6208
▁subst	-6209
▁sugar	-6210
▁swing	-6211
▁tries	-6212
▁upper	-6213
iveness	-6214
quently	-6215
▁burger	-6216
▁clever	-6217
▁courts	-6218
▁cringy	-6219
▁easter	-6220
▁famous	-6221
▁frozen	-6222
▁gaming	-6223
▁haters	-6224
▁infuri	-6225
▁knicks	-6226
▁leaves	-6227
▁mechan	-6228
▁monday	-6229
▁pounds	-6230
▁purple	-6231
▁salary	-6232
▁skinny	-6233
▁solved	-6234
▁stolen	-6235
▁toward	-6236
▁uniron	-6237
▁vagina	-6238
▁wallet	-6239
▁worlds	-6240
uuuuuuuu	-6241
▁appears	-6242
▁balance	-6243
▁blaming	-6244
▁charges	-6245
▁condesc	-6246
▁contest	-6247
▁convert	-6248
▁feeding	-6249
▁forcing	-6250
▁funnier	-6251
▁insults	-6252
▁intimid	-6253
▁involve	-6254
▁leaning	-6255
▁patient	-6256
▁poverty	-6257
▁records	-6258
▁rewatch	-6259
▁species	-6260
▁toddler	-6261
▁trading	-6262
▁actively	-6263
▁addition	-6264
▁attempts	-6265
▁calories	-6266
▁catching	-6267
▁defended	-6268
▁dictator	-6269
▁dropping	-6270
▁electric	-6271
▁exchange	-6272
▁families	-6273
▁kindness	-6274
▁misogyny	-6275
▁oblivion	-6276
▁partners	-6277
▁resident	-6278
▁saturday	-6279
▁stunning	-6280
▁underage	-6281
▁abandoned	-6282
▁apartment	-6283
▁attracted	-6284
▁defending	-6285
▁direction	-6286
▁elaborate	-6287
▁encourage	-6288
▁explained	-6289
▁finishing	-6290
▁hypocrisy	-6291
▁implement	-6292
▁marijuana	-6293
▁marketing	-6294
▁minnesota	-6295
▁teammates	-6296
▁venezuela	-6297
▁appearance	-6298
▁conclusion	-6299
▁excitement	-6300
▁homophobic	-6301
▁introduced	-6302
▁management	-6303
▁struggling	-6304
▁thankfully	-6305
▁frustration	-6306
▁meaningless	-6307
▁threatening	-6308
▁overwhelming	-6309
▁communication	-6310
▁entertainment	-6311
▁accomplishment	-6312
▁understandable	-6313
/2	-6314
19	-6315
5.	-6316
67	-6317
?!?	-6318
any	-6319
bow	-6320
cal	-6321
cot	-6322
hit	-6323
iat	-6324
ito	-6325
rag	-6326
rep	-6327
sad	-6328
top	-6329
ulf	-6330
ups	-6331
vin	-6332
war	-6333
▁!!	-6334
▁45	-6335
▁nj	-6336
▁pd	-6337
ched	-6338
chup	-6339
cies	-6340
cles	-6341
core	-6342
ette	-6343
face	-6344
itut	-6345
made	-6346
onon	-6347
rial	-6348
stic	-6349
unny	-6350
ware	-6351
xing	-6352
▁arr	-6353
▁bpd	-6354
▁les	-6355
▁mat	-6356
▁nyc	-6357
▁pir	-6358
▁rug	-6359
▁sav	-6360
▁wik	-6361
fting	-6362
ifies	-6363
igned	-6364
rical	-6365
▁aged	-6366
▁bite	-6367
▁cali	-6368
▁cate	-6369
▁celt	-6370
▁clap	-6371
▁cock	-6372
▁crab	-6373
▁crop	-6374
▁debt	-6375
▁deny	-6376
▁dull	-6377
▁exha	-6378
▁gear	-6379
▁hint	-6380
▁homo	-6381
▁hots	-6382
▁intj	-6383
▁lame	-6384
▁mand	-6385
▁nick	-6386
▁ours	-6387
▁peak	-6388
▁quad	-6389
▁sadd	-6390
▁shre	-6391
▁temp	-6392
▁thus	-6393
▁vibe	-6394
▁wave	-6395
▁yard	-6396
▁zomb	-6397
alling	-6398
logist	-6399
mother	-6400
oooooo	-6401
ursday	-6402
▁accus	-6403
▁bleed	-6404
▁booze	-6405
▁clubs	-6406
▁crash	-6407
▁films	-6408
▁harsh	-6409
▁haunt	-6410
▁homes	-6411
▁rates	-6412
▁razor	-6413
▁river	-6414
▁saves	-6415
▁scrub	-6416
▁shith	-6417
▁stink	-6418
▁users	-6419
▁warri	-6420
mission	-6421
olences	-6422
▁aspect	-6423
▁biased	-6424
▁cancel	-6425
▁chains	-6426
▁county	-6427
▁crisis	-6428
▁dragon	-6429
▁eagles	-6430
▁empath	-6431
▁expert	-6432
▁histor	-6433
▁houses	-6434
▁humble	-6435
▁lineup	-6436
▁locked	-6437
▁myster	-6438
▁overre	-6439
▁primar	-6440
▁regist	-6441
▁scheme	-6442
▁scored	-6443
▁sequel	-6444
▁served	-6445
▁smooth	-6446
▁stated	-6447
▁sweaty	-6448
▁techno	-6449
▁traged	-6450
▁twenty	-6451
▁warned	-6452
▁blanket	-6453
▁condoms	-6454
▁continu	-6455
▁educate	-6456
▁fishing	-6457
▁intrigu	-6458
▁ketchup	-6459
▁pillows	-6460
▁prequel	-6461
▁recover	-6462
▁screams	-6463
▁seattle	-6464
▁serving	-6465
▁washing	-6466
▁weirdly	-6467
▁autistic	-6468
▁brothers	-6469
▁centrist	-6470
▁determin	-6471
▁discover	-6472
▁donation	-6473
▁feminist	-6474
▁improved	-6475
▁mistaken	-6476
▁provided	-6477
▁reaching	-6478
▁relative	-6479
▁required	-6480
▁sexually	-6481
▁shoulder	-6482
▁socially	-6483
▁sympathy	-6484
▁terribly	-6485
▁thursday	-6486
▁unlikely	-6487
▁candidate	-6488
▁discrimin	-6489
▁evolution	-6490
▁exclusive	-6491
▁favorites	-6492
▁narrative	-6493
▁opponents	-6494
▁reasoning	-6495
▁regularly	-6496
▁switching	-6497
▁worthless	-6498
▁equivalent	-6499
▁satisfying	-6500
▁suggesting	-6501
▁suggestion	-6502
▁coincidence	-6503
▁competitive	-6504
▁condolences	-6505
▁interaction	-6506
▁masculinity	-6507
▁circumstances	-6508
▁clarification	-6509
▁condescending	-6510
▁conversations	-6511
,,	-6512
gi	-6513
iw	-6514
ja	-6515
mg	-6516
ww	-6517
⠶⠶	-6518
-0|	-6519
dep	-6520
eee	-6521
ilt	-6522
itz	-6523
orp	-6524
pan	-6525
ril	-6526
rol	-6527
▁ay	-6528
▁gh	-6529
▁lg	-6530
▁os	-6531
▁♥️	-6532
coin	-6533
emot	-6534
erer	-6535
eria	-6536
fish	-6537
lder	-6538
lsea	-6539
make	-6540
nces	-6541
norm	-6542
olar	-6543
olic	-6544
team	-6545
tles	-6546
uate	-6547
uter	-6548
west	-6549
▁2-3	-6550
▁bod	-6551
▁bul	-6552
▁coy	-6553
▁dub	-6554
▁elo	-6555
▁hel	-6556
▁kat	-6557
▁mud	-6558
▁nba	-6559
▁poo	-6560
▁spa	-6561
▁thx	-6562
▁tig	-6563
▁tom	-6564
▁ups	-6565
▁wiz	-6566
aling	-6567
amous	-6568
edule	-6569
inger	-6570
ondon	-6571
ormed	-6572
osoph	-6573
piece	-6574
raged	-6575
ronic	-6576
ships	-6577
▁arch	-6578
▁asks	-6579
▁belt	-6580
▁cell	-6581
▁core	-6582
▁deer	-6583
▁dies	-6584
▁dope	-6585
▁duck	-6586
▁emoj	-6587
▁envy	-6588
▁espn	-6589
▁frid	-6590
▁gree	-6591
▁hack	-6592
▁item	-6593
▁mail	-6594
▁mins	-6595
▁neut	-6596
▁outs	-6597
▁pand	-6598
▁prot	-6599
▁purs	-6600
▁rapp	-6601
▁slam	-6602
▁slop	-6603
▁sout	-6604
▁stab	-6605
▁tamp	-6606
▁tape	-6607
▁task	-6608
▁tire	-6609
▁unne	-6610
astics	-6611
graphy	-6612
herent	-6613
mental	-6614
ordash	-6615
orting	-6616
soever	-6617
▁andro	-6618
▁ankle	-6619
▁bills	-6620
▁bites	-6621
▁boost	-6622
▁burns	-6623
▁chest	-6624
▁dates	-6625
▁drops	-6626
▁grass	-6627
▁incap	-6628
▁juice	-6629
▁knock	-6630
▁mercy	-6631
▁mouse	-6632
▁novel	-6633
▁puppy	-6634
▁roomm	-6635
▁shady	-6636
▁sites	-6637
▁slipp	-6638
▁souls	-6639
▁stays	-6640
▁thumb	-6641
▁unsub	-6642
▁vegas	-6643
▁wound	-6644
ainable	-6645
▁appeal	-6646
▁autism	-6647
▁clutch	-6648
▁corner	-6649
▁cowboy	-6650
▁deeper	-6651
▁deeply	-6652
▁edited	-6653
▁escape	-6654
▁events	-6655
▁facial	-6656
▁facing	-6657
▁fright	-6658
▁horses	-6659
▁inches	-6660
▁incons	-6661
▁invite	-6662
▁lakers	-6663
▁latest	-6664
▁legion	-6665
▁locker	-6666
▁london	-6667
▁method	-6668
▁nights	-6669
▁perpet	-6670
▁polish	-6671
▁proves	-6672
▁riding	-6673
▁scares	-6674
▁shovel	-6675
▁square	-6676
▁submit	-6677
▁territ	-6678
▁tweets	-6679
▁visual	-6680
▁volunt	-6681
++++++++	-6682
breaking	-6683
relation	-6684
▁advance	-6685
▁bothers	-6686
▁breathe	-6687
▁carried	-6688
▁causing	-6689
▁chelsea	-6690
▁cookies	-6691
▁cooking	-6692
▁courage	-6693
▁emotion	-6694
▁flowers	-6695
▁handled	-6696
▁intoler	-6697
▁offered	-6698
▁pistons	-6699
▁pleased	-6700
▁primary	-6701
▁regrets	-6702
▁sadness	-6703
▁spanish	-6704
▁tickets	-6705
▁unlucky	-6706
▁vanilla	-6707
▁weapons	-6708
▁choosing	-6709
▁crossing	-6710
▁doordash	-6711
▁gameplay	-6712
▁genocide	-6713
▁immature	-6714
▁incompet	-6715
▁maintain	-6716
▁mcdonald	-6717
▁metaphor	-6718
▁products	-6719
▁schedule	-6720
▁southern	-6721
▁thorough	-6722
▁unnecess	-6723
▁activists	-6724
▁answering	-6725
▁blatantly	-6726
▁celebrity	-6727
▁correctly	-6728
▁effective	-6729
▁enjoyable	-6730
▁exception	-6731
▁imagining	-6732
▁mentality	-6733
▁obsession	-6734
▁philosoph	-6735
▁receiving	-6736
▁regarding	-6737
▁transphob	-6738
▁upsetting	-6739
▁capitalist	-6740
▁ironically	-6741
▁mainstream	-6742
▁meaningful	-6743
▁percentage	-6744
▁recognized	-6745
▁subjective	-6746
▁supportive	-6747
▁whatsoever	-6748
▁brainwashed	-6749
▁differently	-6750
▁consistently	-6751
▁intelligence	-6752
▁disappointment	-6753
)_	-6754
40	-6755
6.	-6756
TM	-6757
_(	-6758
bu	-6759
ca	-6760
hr	-6761
lr	-6762
oe	-6763
▁😎	-6764
😡😡	-6765
)_/	-6766
500	-6767
:00	-6768
alf	-6769
bad	-6770
ecd	-6771
eem	-6772
fia	-6773
ham	-6774
hil	-6775
lph	-6776
oin	-6777
usi	-6778
▁39	-6779
▁95	-6780
▁ds	-6781
▁et	-6782
▁fi	-6783
▁od	-6784
▁ox	-6785
educ	-6786
eous	-6787
fast	-6788
hill	-6789
hole	-6790
inem	-6791
lied	-6792
llll	-6793
mate	-6794
mind	-6795
mine	-6796
nice	-6797
part	-6798
prof	-6799
qual	-6800
rant	-6801
rica	-6802
shed	-6803
udos	-6804
wait	-6805
▁ads	-6806
▁ali	-6807
▁bol	-6808
▁edm	-6809
▁fee	-6810
▁fla	-6811
▁gal	-6812
▁gaw	-6813
▁gee	-6814
▁gop	-6815
▁ine	-6816
▁lap	-6817
▁lil	-6818
▁luc	-6819
▁lun	-6820
▁mah	-6821
▁nfc	-6822
▁ohh	-6823
▁pil	-6824
▁tsa	-6825
▁ven	-6826
▁̄_(	-6827
asure	-6828
ceive	-6829
etime	-6830
kings	-6831
least	-6832
lfare	-6833
mense	-6834
olves	-6835
oured	-6836
ulate	-6837
▁acid	-6838
▁aint	-6839
▁asse	-6840
▁bars	-6841
▁boom	-6842
▁bros	-6843
▁clin	-6844
▁devs	-6845
▁dirt	-6846
▁earn	-6847
▁febr	-6848
▁gard	-6849
▁gigg	-6850
▁hats	-6851
▁lego	-6852
▁mask	-6853
▁menu	-6854
▁nove	-6855
▁ohhh	-6856
▁pity	-6857
▁plug	-6858
▁sket	-6859
▁sole	-6860
▁tact	-6861
▁triv	-6862
▁typo	-6863
▁ward	-6864
idency	-6865
mented	-6866
really	-6867
ultane	-6868
▁^^^^^	-6869
▁anecd	-6870
▁armor	-6871
▁audio	-6872
▁boots	-6873
▁built	-6874
▁chain	-6875
▁crown	-6876
▁eaten	-6877
▁elite	-6878
▁faced	-6879
▁holes	-6880
▁juicy	-6881
▁kudos	-6882
▁labor	-6883
▁leads	-6884
▁loses	-6885
▁mafia	-6886
▁oblig	-6887
▁plain	-6888
▁presc	-6889
▁rated	-6890
▁recre	-6891
▁rehab	-6892
▁robot	-6893
▁royal	-6894
▁scand	-6895
▁scott	-6896
▁shits	-6897
▁simpl	-6898
▁storm	-6899
▁stunt	-6900
▁theft	-6901
▁toler	-6902
▁vomit	-6903
ception	-6904
itation	-6905
▁abused	-6906
▁actors	-6907
▁adjust	-6908
▁assist	-6909
▁barrel	-6910
▁bodies	-6911
▁bummer	-6912
▁crappy	-6913
▁crypto	-6914
▁detect	-6915
▁empire	-6916
▁ethnic	-6917
▁fantas	-6918
▁global	-6919
▁integr	-6920
▁latter	-6921
▁remark	-6922
▁scores	-6923
▁senate	-6924
▁voters	-6925
politics	-6926
▁accused	-6927
▁airport	-6928
▁anticip	-6929
▁atleast	-6930
▁bedroom	-6931
▁charity	-6932
▁cheated	-6933
▁classes	-6934
▁clicked	-6935
▁closely	-6936
▁complex	-6937
▁couldnt	-6938
▁craving	-6939
▁enthusi	-6940
▁evening	-6941
▁failing	-6942
▁feature	-6943
▁flaming	-6944
▁funding	-6945
▁grandpa	-6946
▁immense	-6947
▁jerseys	-6948
▁jumping	-6949
▁messing	-6950
▁mocking	-6951
▁morally	-6952
▁network	-6953
▁penalty	-6954
▁pockets	-6955
▁precise	-6956
▁promote	-6957
▁remains	-6958
▁replied	-6959
▁scumbag	-6960
▁seeking	-6961
▁servers	-6962
▁shotgun	-6963
▁starter	-6964
▁survive	-6965
▁tragedy	-6966
▁trailer	-6967
▁victory	-6968
▁welfare	-6969
▁claiming	-6970
▁disabled	-6971
▁dramatic	-6972
▁economic	-6973
▁february	-6974
▁followed	-6975
▁hardcore	-6976
▁intended	-6977
▁interact	-6978
▁machines	-6979
▁nickname	-6980
▁november	-6981
▁opponent	-6982
▁patriots	-6983
▁payments	-6984
▁produced	-6985
▁shouting	-6986
▁strategy	-6987
▁strawman	-6988
▁symptoms	-6989
▁teenager	-6990
▁terminal	-6991
▁awareness	-6992
▁breathing	-6993
▁corrected	-6994
▁demograph	-6995
▁emergency	-6996
▁imaginary	-6997
▁incapable	-6998
▁minecraft	-6999
▁oblivious	-7000
▁positions	-7001
▁producers	-7002
▁relatives	-7003
▁responded	-7004
▁responses	-7005
▁simultane	-7006
▁superbowl	-7007
▁acceptable	-7008
▁controller	-7009
▁destroying	-7010
▁expression	-7011
▁highlights	-7012
▁officially	-7013
▁previously	-7014
▁projection	-7015
▁subscribed	-7016
▁surrounded	-7017
▁complicated	-7018
▁desperation	-7019
▁frightening	-7020
▁governments	-7021
▁suggestions	-7022
▁experiencing	-7023
▁manipulative	-7024
▁automatically	-7025
▁administration	-7026
▁recommendation	-7027
▁representation	-7028
*,	-7029
-7	-7030
14	-7031
3.	-7032
8.	-7033
?”	-7034
af	-7035
di	-7036
fu	-7037
wl	-7038
▁☺	-7039
▁❤	-7040
00.	-7041
ads	-7042
ami	-7043
anx	-7044
bet	-7045
ifu	-7046
lla	-7047
mal	-7048
rum	-7049
see	-7050
sen	-7051
sis	-7052
sss	-7053
tin	-7054
win	-7055
▁#2	-7056
▁ax	-7057
▁cc	-7058
▁cf	-7059
▁ec	-7060
▁eg	-7061
▁rb	-7062
4567	-7063
6543	-7064
aine	-7065
amer	-7066
amps	-7067
away	-7068
erve	-7069
guys	-7070
hell	-7071
high	-7072
igan	-7073
keys	-7074
kill	-7075
know	-7076
mond	-7077
paid	-7078
pons	-7079
pool	-7080
quar	-7081
shop	-7082
sure	-7083
then	-7084
▁17.	-7085
▁198	-7086
▁300	-7087
▁99%	-7088
▁arc	-7089
▁awe	-7090
▁haw	-7091
▁itt	-7092
▁jaw	-7093
▁lan	-7094
▁ove	-7095
▁rhy	-7096
▁roy	-7097
▁tum	-7098
⠛⠛⠛⠛	-7099
⣿⣿⣿⣿	-7100
archy	-7101
aurus	-7102
beard	-7103
irect	-7104
itals	-7105
never	-7106
oples	-7107
rophy	-7108
uable	-7109
▁1000	-7110
▁asia	-7111
▁atro	-7112
▁bone	-7113
▁buck	-7114
▁cave	-7115
▁cher	-7116
▁clim	-7117
▁cudd	-7118
▁dair	-7119
▁dial	-7120
▁eats	-7121
▁frag	-7122
▁fuel	-7123
▁fulf	-7124
▁icon	-7125
▁isol	-7126
▁mart	-7127
▁myth	-7128
▁ohio	-7129
▁pork	-7130
▁rank	-7131
▁sale	-7132
▁sane	-7133
▁sect	-7134
▁sons	-7135
▁sore	-7136
▁ster	-7137
▁sust	-7138
▁swed	-7139
▁tack	-7140
▁tail	-7141
▁tant	-7142
▁void	-7143
▁⠀⠀⠀⠀	-7144
hahaha	-7145
health	-7146
ltered	-7147
nesday	-7148
vision	-7149
▁10/10	-7150
▁arrog	-7151
▁bases	-7152
▁bones	-7153
▁brick	-7154
▁chase	-7155
▁clock	-7156
▁confl	-7157
▁craft	-7158
▁dated	-7159
▁fancy	-7160
▁fries	-7161
▁ideal	-7162
▁liver	-7163
▁noooo	-7164
▁opens	-7165
▁parag	-7166
▁pills	-7167
▁prize	-7168
▁roles	-7169
▁route	-7170
▁rural	-7171
▁shall	-7172
▁shill	-7173
▁shite	-7174
▁snake	-7175
▁syria	-7176
▁tasty	-7177
▁tires	-7178
▁twins	-7179
▁unint	-7180
▁wages	-7181
▁whale	-7182
▁witch	-7183
▁witty	-7184
▁yanke	-7185
parents	-7186
▁assass	-7187
▁beings	-7188
▁checks	-7189
▁classy	-7190
▁custom	-7191
▁depend	-7192
▁donuts	-7193
▁dumped	-7194
▁fought	-7195
▁gamers	-7196
▁grocer	-7197
▁hiding	-7198
▁lookin	-7199
▁margin	-7200
▁member	-7201
▁muscle	-7202
▁orders	-7203
▁passes	-7204
▁secure	-7205
▁sketch	-7206
▁spoken	-7207
▁stance	-7208
▁status	-7209
▁tagged	-7210
▁temper	-7211
▁titles	-7212
▁trashy	-7213
▁treats	-7214
▁vanity	-7215
▁waking	-7216
▁worded	-7217
aboutism	-7218
asonable	-7219
▁biology	-7220
▁bipolar	-7221
▁bullied	-7222
▁capable	-7223
▁command	-7224
▁crossed	-7225
▁dancing	-7226
▁deflect	-7227
▁describ	-7228
▁distant	-7229
▁excuses	-7230
▁guessed	-7231
▁italian	-7232
▁library	-7233
▁measure	-7234
▁mindset	-7235
▁streets	-7236
▁transit	-7237
▁trilogy	-7238
▁wingers	-7239
▁applying	-7240
▁appropri	-7241
▁computer	-7242
▁examples	-7243
▁exercise	-7244
▁existing	-7245
▁fascists	-7246
▁incident	-7247
▁insanely	-7248
▁occurred	-7249
▁particip	-7250
▁patients	-7251
▁pleasant	-7252
▁receiver	-7253
▁screwing	-7254
▁sensible	-7255
▁slippery	-7256
▁smelling	-7257
▁threaten	-7258
▁tripping	-7259
▁committed	-7260
▁essential	-7261
▁execution	-7262
▁interpret	-7263
▁malicious	-7264
▁presented	-7265
▁realizing	-7266
▁relations	-7267
▁sheltered	-7268
▁underwear	-7269
▁wednesday	-7270
▁complaints	-7271
▁controvers	-7272
▁frequently	-7273
▁impression	-7274
▁inevitable	-7275
▁journalist	-7276
▁mentioning	-7277
▁oppression	-7278
▁projecting	-7279
▁correlation	-7280
▁desperately	-7281
▁devastating	-7282
▁differences	-7283
▁encountered	-7284
▁grandmother	-7285
▁informative	-7286
▁infuriating	-7287
▁politically	-7288
▁republicans	-7289
▁alternatives	-7290
▁ridiculously	-7291
▁unironically	-7292
▁authoritarian	-7293
▁international	-7294
▁misunderstood	-7295
▁opportunities	-7296
!)	-7297
15	-7298
89	-7299
pg	-7300
uf	-7301
vy	-7302
xm	-7303
yr	-7304
▁😁	-7305
▁😢	-7306
?!"	-7307
ded	-7308
dog	-7309
een	-7310
ett	-7311
hom	-7312
obe	-7313
pot	-7314
pse	-7315
ras	-7316
rim	-7317
try	-7318
ula	-7319
ulu	-7320
uns	-7321
urr	-7322
urt	-7323
▁$4	-7324
▁38	-7325
▁:3	-7326
▁aa	-7327
▁ik	-7328
▁ip	-7329
▁mp	-7330
▁ms	-7331
▁og	-7332
▁pp	-7333
▁si	-7334
...”	-7335
caly	-7336
dney	-7337
enda	-7338
fire	-7339
geon	-7340
irts	-7341
lets	-7342
long	-7343
news	-7344
ogue	-7345
ombs	-7346
rary	-7347
rily	-7348
ttes	-7349
uded	-7350
when	-7351
▁2.5	-7352
▁:).	-7353
▁ber	-7354
▁dar	-7355
▁dlc	-7356
▁doc	-7357
▁dup	-7358
▁hyp	-7359
▁jab	-7360
▁sum	-7361
▁tad	-7362
▁voc	-7363
▁wil	-7364
▁yeh	-7365
ashes	-7366
eaked	-7367
indme	-7368
ivers	-7369
nical	-7370
nings	-7371
uding	-7372
umblr	-7373
▁amen	-7374
▁arse	-7375
▁blah	-7376
▁dece	-7377
▁fath	-7378
▁gill	-7379
▁hind	-7380
▁jell	-7381
▁mans	-7382
▁mavs	-7383
▁mint	-7384
▁mock	-7385
▁nood	-7386
▁obsc	-7387
▁oven	-7388
▁pour	-7389
▁resc	-7390
▁stan	-7391
▁trap	-7392
▁tube	-7393
▁tues	-7394
▁upgr	-7395
ailing	-7396
allica	-7397
isible	-7398
loaded	-7399
mbered	-7400
normal	-7401
othing	-7402
pelled	-7403
ulator	-7404
usions	-7405
worthy	-7406
▁2019.	-7407
▁achie	-7408
▁adore	-7409
▁armed	-7410
▁barri	-7411
▁beats	-7412
▁blade	-7413
▁bombs	-7414
▁chant	-7415
▁chart	-7416
▁cheer	-7417
▁chips	-7418
▁counc	-7419
▁cripp	-7420
▁cycle	-7421
▁dairy	-7422
▁depth	-7423
▁disgr	-7424
▁disli	-7425
▁escal	-7426
▁fella	-7427
▁flood	-7428
▁forth	-7429
▁hatch	-7430
▁horny	-7431
▁hyped	-7432
▁inner	-7433
▁items	-7434
▁label	-7435
▁owned	-7436
▁paint	-7437
▁phase	-7438
▁ranch	-7439
▁repro	-7440
▁rolls	-7441
▁shade	-7442
▁shark	-7443
▁sheep	-7444
▁spots	-7445
▁stage	-7446
▁uneth	-7447
▁valve	-7448
▁walls	-7449
▁whiny	-7450
attered	-7451
calypse	-7452
ounding	-7453
welcome	-7454
▁agency	-7455
▁agenda	-7456
▁boston	-7457
▁casual	-7458
▁choked	-7459
▁comics	-7460
▁define	-7461
▁expand	-7462
▁fights	-7463
▁flavor	-7464
▁height	-7465
▁insist	-7466
▁joined	-7467
▁kindly	-7468
▁lasted	-7469
▁lowest	-7470
▁metric	-7471
▁nicely	-7472
▁organs	-7473
▁outfit	-7474
▁overly	-7475
▁owning	-7476
▁partly	-7477
▁powers	-7478
▁preach	-7479
▁promot	-7480
▁queens	-7481
▁recipe	-7482
▁rewind	-7483
▁rumors	-7484
▁severe	-7485
▁sloppy	-7486
▁sneaky	-7487
▁snowfl	-7488
▁stoked	-7489
▁tumblr	-7490
▁upload	-7491
▁writer	-7492
angement	-7493
remindme	-7494
▁amounts	-7495
▁amusing	-7496
▁artists	-7497
▁backing	-7498
▁banging	-7499
▁caption	-7500
▁ceiling	-7501
▁concert	-7502
▁consens	-7503
▁cowards	-7504
▁decline	-7505
▁despise	-7506
▁dodgers	-7507
▁dumbest	-7508
▁endless	-7509
▁fulfill	-7510
▁hideous	-7511
▁parking	-7512
▁passive	-7513
▁pissing	-7514
▁prepare	-7515
▁profits	-7516
▁reverse	-7517
▁saddest	-7518
▁scoring	-7519
▁smashed	-7520
▁studies	-7521
▁targets	-7522
▁tuesday	-7523
▁announce	-7524
▁billions	-7525
▁childish	-7526
▁clueless	-7527
▁convince	-7528
▁creating	-7529
▁critical	-7530
▁delivery	-7531
▁director	-7532
▁gillette	-7533
▁grateful	-7534
▁handling	-7535
▁happiest	-7536
▁homeless	-7537
▁horrific	-7538
▁hundreds	-7539
▁nauseous	-7540
▁publicly	-7541
▁reckless	-7542
▁refusing	-7543
▁survival	-7544
▁teleport	-7545
▁timeline	-7546
▁touching	-7547
▁transfer	-7548
▁wherever	-7549
especially	-7550
▁admitting	-7551
▁alternate	-7552
▁copyright	-7553
▁coworkers	-7554
▁criticize	-7555
▁depending	-7556
▁guarantee	-7557
▁household	-7558
▁legendary	-7559
▁metallica	-7560
▁permanent	-7561
▁preferred	-7562
▁righteous	-7563
▁sentences	-7564
▁subscribe	-7565
▁territory	-7566
▁unethical	-7567
▁apocalypse	-7568
▁connection	-7569
▁continuing	-7570
▁controlled	-7571
▁convenient	-7572
▁correction	-7573
▁discussing	-7574
▁experiment	-7575
▁frustrated	-7576
▁highschool	-7577
▁outrageous	-7578
▁profession	-7579
▁refreshing	-7580
▁remembered	-7581
▁retirement	-7582
▁communicate	-7583
▁demonstrate	-7584
▁immigration	-7585
▁contributing	-7586
▁inconsistent	-7587
▁recreational	-7588
▁responsibility	-7589
▁simultaneously	-7590
'(	-7591
))	-7592
0.	-7593
0|	-7594
uk	-7595
▁☹	-7596
▁🙏	-7597
⣀⣀	-7598
ala	-7599
dad	-7600
fty	-7601
god	-7602
len	-7603
lor	-7604
lyn	-7605
nis	-7606
oti	-7607
pen	-7608
ran	-7609
ros	-7610
rup	-7611
vey	-7612
▁2,	-7613
▁3,	-7614
▁48	-7615
▁hs	-7616
▁kr	-7617
anta	-7618
aped	-7619
bell	-7620
bury	-7621
eing	-7622
fund	-7623
gent	-7624
mark	-7625
noon	-7626
only	-7627
osis	-7628
past	-7629
wall	-7630
zing	-7631
▁400	-7632
▁50%	-7633
▁80%	-7634
▁:-/	-7635
▁ace	-7636
▁bch	-7637
▁cab	-7638
▁cru	-7639
▁dor	-7640
▁ech	-7641
▁fer	-7642
▁fif	-7643
▁gag	-7644
▁gim	-7645
▁hay	-7646
▁lur	-7647
▁mmm	-7648
▁naw	-7649
▁ont	-7650
▁pap	-7651
▁por	-7652
▁pts	-7653
▁pud	-7654
▁pul	-7655
▁pup	-7656
▁soo	-7657
▁tid	-7658
▁vit	-7659
▁vul	-7660
▁zoo	-7661
?!?!?	-7662
abama	-7663
accur	-7664
aping	-7665
arios	-7666
aware	-7667
balls	-7668
cient	-7669
cling	-7670
erior	-7671
fight	-7672
funny	-7673
icial	-7674
ifact	-7675
ooked	-7676
paper	-7677
shell	-7678
shirt	-7679
sored	-7680
stick	-7681
works	-7682
ymous	-7683
▁2005	-7684
▁acce	-7685
▁baff	-7686
▁bart	-7687
▁bots	-7688
▁cubs	-7689
▁cure	-7690
▁duty	-7691
▁fees	-7692
▁flaw	-7693
▁flir	-7694
▁intp	-7695
▁mane	-7696
▁melb	-7697
▁melo	-7698
▁murd	-7699
▁nets	-7700
▁pean	-7701
▁pile	-7702
▁pods	-7703
▁poke	-7704
▁rack	-7705
▁ramb	-7706
▁rapt	-7707
▁rats	-7708
▁roof	-7709
▁sigh	-7710
▁thru	-7711
▁untr	-7712
▁vall	-7713
▁vast	-7714
▁vice	-7715
▁vine	-7716
▁visa	-7717
▁wrap	-7718
axxers	-7719
enance	-7720
ipedia	-7721
nament	-7722
oooosh	-7723
ouston	-7724
raging	-7725
▁advis	-7726
▁ahhhh	-7727
▁aller	-7728
▁april	-7729
▁awake	-7730
▁bacon	-7731
▁beans	-7732
▁boner	-7733
▁burst	-7734
▁chees	-7735
▁clone	-7736
▁deals	-7737
▁eight	-7738
▁flies	-7739
▁foods	-7740
▁fouls	-7741
▁fraud	-7742
▁furry	-7743
▁grave	-7744
▁kidna	-7745
▁kinky	-7746
▁lacks	-7747
▁motor	-7748
▁parli	-7749
▁promo	-7750
▁rival	-7751
▁shove	-7752
▁skate	-7753
▁sober	-7754
▁spicy	-7755
▁steak	-7756
▁tampa	-7757
▁tanks	-7758
▁teens	-7759
▁tends	-7760
▁wings	-7761
ichigan	-7762
inction	-7763
initely	-7764
ulating	-7765
▁africa	-7766
▁agents	-7767
▁attend	-7768
▁belief	-7769
▁bitter	-7770
▁browns	-7771
▁consum	-7772
▁coward	-7773
▁damned	-7774
▁defeat	-7775
▁device	-7776
▁earned	-7777
▁expans	-7778
▁fallen	-7779
▁forums	-7780
▁fourth	-7781
▁garlic	-7782
▁giants	-7783
▁hatred	-7784
▁headed	-7785
▁images	-7786
▁indian	-7787
▁launch	-7788
▁limits	-7789
▁mature	-7790
▁minded	-7791
▁misery	-7792
▁morals	-7793
▁nerves	-7794
▁offend	-7795
▁offers	-7796
▁ohhhhh	-7797
▁polite	-7798
▁priest	-7799
▁princi	-7800
▁robber	-7801
▁rocket	-7802
▁sneeze	-7803
▁speaks	-7804
▁string	-7805
▁studio	-7806
▁throat	-7807
▁ticket	-7808
▁wicked	-7809
▁wisdom	-7810
accurate	-7811
children	-7812
function	-7813
ribution	-7814
ssssssss	-7815
▁alabama	-7816
▁applied	-7817
▁asexual	-7818
▁atheist	-7819
▁bigoted	-7820
▁bitcoin	-7821
▁buddies	-7822
▁captain	-7823
▁compete	-7824
▁concent	-7825
▁concuss	-7826
▁costume	-7827
▁degener	-7828
▁deliber	-7829
▁digging	-7830
▁engaged	-7831
▁expired	-7832
▁figures	-7833
▁haircut	-7834
▁halfway	-7835
▁hopeful	-7836
▁jackass	-7837
▁lighter	-7838
▁linking	-7839
▁longest	-7840
▁lottery	-7841
▁mission	-7842
▁ontario	-7843
▁portray	-7844
▁prevent	-7845
▁seafood	-7846
▁shortly	-7847
▁sisters	-7848
▁speaker	-7849
▁swallow	-7850
▁tension	-7851
▁theater	-7852
▁turtles	-7853
▁unhappy	-7854
▁vaccine	-7855
▁worship	-7856
formation	-7857
▁addicted	-7858
▁allowing	-7859
▁blocking	-7860
▁buzzfeed	-7861
▁carrying	-7862
▁clearing	-7863
▁clothing	-7864
▁confirms	-7865
▁cultural	-7866
▁delusion	-7867
▁detailed	-7868
▁disgrace	-7869
▁doubtful	-7870
▁equality	-7871
▁eternity	-7872
▁flirting	-7873
▁hormones	-7874
▁inferior	-7875
▁japanese	-7876
▁profound	-7877
▁programs	-7878
▁psychiat	-7879
▁removing	-7880
▁repeated	-7881
▁respects	-7882
▁restrict	-7883
▁secretly	-7884
▁siblings	-7885
▁strongly	-7886
▁supports	-7887
▁treating	-7888
▁valuable	-7889
▁addictive	-7890
▁addressed	-7891
▁afternoon	-7892
▁announced	-7893
▁breakfast	-7894
▁complaint	-7895
▁continues	-7896
▁developed	-7897
▁forgotten	-7898
▁intrigued	-7899
▁objective	-7900
▁photoshop	-7901
▁providing	-7902
▁religions	-7903
▁repulsive	-7904
▁scenarios	-7905
▁sincerely	-7906
▁spreading	-7907
▁streaming	-7908
▁supporter	-7909
▁advocating	-7910
▁cigarettes	-7911
▁comprehend	-7912
▁concerning	-7913
▁conditions	-7914
▁directions	-7915
▁parliament	-7916
▁socialists	-7917
▁technology	-7918
▁washington	-7919
▁acknowledge	-7920
▁communities	-7921
▁consistency	-7922
▁description	-7923
▁destruction	-7924
▁distraction	-7925
▁inspiration	-7926
▁intelligent	-7927
▁masterpiece	-7928
▁realization	-7929
▁remembering	-7930
▁confirmation	-7931
▁constitution	-7932
▁conveniently	-7933
▁grandparents	-7934
▁misogynistic	-7935
▁disrespectful	-7936
▁embarrassment	-7937
▁heartbreaking	-7938
3,	-7939
]*	-7940
ml	-7941
wr	-7942
ya	-7943
yo	-7944
”,	-7945
▁👌	-7946
👏👏	-7947
💜💜	-7948
**.	-7949
-20	-7950
:30	-7951
aus	-7952
car	-7953
gie	-7954
gor	-7955
hib	-7956
ika	-7957
irk	-7958
itt	-7959
jac	-7960
leg	-7961
obv	-7962
pal	-7963
pay	-7964
pts	-7965
too	-7966
ugg	-7967
uuu	-7968
yyy	-7969
▁*"	-7970
▁34	-7971
▁8.	-7972
▁9.	-7973
▁;-	-7974
▁ai	-7975
▁ak	-7976
▁dj	-7977
▁ka	-7978
▁lu	-7979
▁py	-7980
▁ws	-7981
6565	-7982
amin	-7983
aton	-7984
char	-7985
chat	-7986
etly	-7987
gins	-7988
ighs	-7989
igma	-7990
ince	-7991
mill	-7992
orse	-7993
owed	-7994
pass	-7995
ptop	-7996
rain	-7997
rast	-7998
rend	-7999
sted	-8000
urbs	-8001
▁$20	-8002
▁10%	-8003
▁aoc	-8004
▁btc	-8005
▁cnn	-8006
▁cot	-8007
▁dim	-8008
▁foc	-8009
▁gov	-8010
▁hal	-8011
▁jet	-8012
▁joh	-8013
▁kfc	-8014
▁lib	-8015
▁nit	-8016
▁oce	-8017
▁sob	-8018
▁tob	-8019
▁tou	-8020
▁uhh	-8021
▁unw	-8022
▁wat	-8023
▁yer	-8024
▁‍♀️	-8025
acity	-8026
anity	-8027
etics	-8028
match	-8029
ourne	-8030
regon	-8031
rooms	-8032
tcoin	-8033
thern	-8034
ushed	-8035
▁5-10	-8036
▁anth	-8037
▁avat	-8038
▁bake	-8039
▁bass	-8040
▁bern	-8041
▁bits	-8042
▁blog	-8043
▁cuck	-8044
▁fanf	-8045
▁feas	-8046
▁flop	-8047
▁gawd	-8048
▁gobl	-8049
▁horn	-8050
▁impe	-8051
▁itll	-8052
▁melt	-8053
▁mmmm	-8054
▁nerf	-8055
▁nipp	-8056
▁noob	-8057
▁odds	-8058
▁pall	-8059
▁plag	-8060
▁pops	-8061
▁rick	-8062
▁soap	-8063
▁symb	-8064
▁thie	-8065
▁turk	-8066
▁unit	-8067
▁wipe	-8068
▁wore	-8069
accept	-8070
ceived	-8071
coming	-8072
consin	-8073
encies	-8074
ioning	-8075
itches	-8076
itical	-8077
lected	-8078
ormous	-8079
▁2016.	-8080
▁alien	-8081
▁antiv	-8082
▁aquar	-8083
▁areas	-8084
▁baked	-8085
▁banks	-8086
▁bingo	-8087
▁bucks	-8088
▁canon	-8089
▁cheet	-8090
▁choke	-8091
▁colon	-8092
▁couch	-8093
▁crust	-8094
▁cured	-8095
▁dared	-8096
▁diarr	-8097
▁drool	-8098
▁effic	-8099
▁elder	-8100
▁forum	-8101
▁greek	-8102
▁hawks	-8103
▁louis	-8104
▁mates	-8105
▁nails	-8106
▁naked	-8107
▁notic	-8108
▁ooooo	-8109
▁overs	-8110
▁props	-8111
▁radio	-8112
▁relap	-8113
▁renew	-8114
▁rings	-8115
▁scars	-8116
▁shook	-8117
▁slide	-8118
▁spare	-8119
▁stood	-8120
▁synon	-8121
▁uncon	-8122
▁unite	-8123
▁whist	-8124
▁woods	-8125
isexual	-8126
▁aliens	-8127
▁applic	-8128
▁asshat	-8129
▁aswell	-8130
▁backed	-8131
▁batter	-8132
▁behalf	-8133
▁binged	-8134
▁boxing	-8135
▁celtic	-8136
▁clouds	-8137
▁counts	-8138
▁denver	-8139
▁explos	-8140
▁firing	-8141
▁flames	-8142
▁gladly	-8143
▁greedy	-8144
▁implic	-8145
▁laptop	-8146
▁larger	-8147
▁laughs	-8148
▁marvel	-8149
▁medium	-8150
▁negoti	-8151
▁observ	-8152
▁openly	-8153
▁oregon	-8154
▁parody	-8155
▁permit	-8156
▁pirate	-8157
▁reckon	-8158
▁resign	-8159
▁roller	-8160
▁sample	-8161
▁smiles	-8162
▁solely	-8163
▁sticks	-8164
▁sticky	-8165
▁sunset	-8166
▁sydney	-8167
▁termin	-8168
▁theyre	-8169
▁tipped	-8170
▁tomato	-8171
▁toothp	-8172
▁tragic	-8173
▁trucks	-8174
▁valley	-8175
▁vision	-8176
▁worker	-8177
▁achieve	-8178
▁adopted	-8179
▁balloon	-8180
▁breakup	-8181
▁chronic	-8182
▁claimed	-8183
▁contain	-8184
▁creates	-8185
▁creator	-8186
▁decides	-8187
▁embrace	-8188
▁factors	-8189
▁fiction	-8190
▁fragile	-8191
▁heading	-8192
▁largely	-8193
▁legends	-8194
▁monkeys	-8195
▁needing	-8196
▁neutral	-8197
▁packers	-8198
▁peoples	-8199
▁pronoun	-8200
▁realist	-8201
▁reprodu	-8202
▁sidewal	-8203
▁someday	-8204
▁suckers	-8205
▁surreal	-8206
▁symptom	-8207
▁systems	-8208
▁teenage	-8209
▁tribute	-8210
▁updates	-8211
▁various	-8212
▁vicious	-8213
▁warming	-8214
itutional	-8215
▁bullying	-8216
▁chemical	-8217
▁clapping	-8218
▁cleaning	-8219
▁copypast	-8220
▁coworker	-8221
▁criteria	-8222
▁december	-8223
▁defender	-8224
▁downhill	-8225
▁dreaming	-8226
▁dumpster	-8227
▁grinding	-8228
▁imperial	-8229
▁includes	-8230
▁informed	-8231
▁moderate	-8232
▁momentum	-8233
▁mortgage	-8234
▁ordering	-8235
▁register	-8236
▁resolved	-8237
▁resource	-8238
▁sickness	-8239
▁steelers	-8240
▁superior	-8241
▁troubles	-8242
▁warriors	-8243
▁assaulted	-8244
▁centrists	-8245
▁construct	-8246
▁countless	-8247
▁disappear	-8248
▁disgusted	-8249
▁economics	-8250
▁efficient	-8251
▁fundament	-8252
▁interests	-8253
▁interrupt	-8254
▁lightning	-8255
▁oppressed	-8256
▁overreact	-8257
▁overwatch	-8258
▁paragraph	-8259
▁publicity	-8260
▁punishing	-8261
▁reactions	-8262
▁redditors	-8263
▁slightest	-8264
▁sociopath	-8265
▁stressful	-8266
▁structure	-8267
▁struggles	-8268
▁wisconsin	-8269
▁witnesses	-8270
▁beforehand	-8271
▁comforting	-8272
▁contradict	-8273
▁flashbacks	-8274
▁importance	-8275
▁irritating	-8276
▁practicing	-8277
▁registered	-8278
▁relatively	-8279
▁republican	-8280
▁scientists	-8281
▁shockingly	-8282
▁thoughtful	-8283
▁throughout	-8284
▁tournament	-8285
▁transition	-8286
▁approaching	-8287
▁beautifully	-8288
▁capitalists	-8289
▁combination	-8290
▁credibility	-8291
▁dysfunction	-8292
▁effectively	-8293
▁journalists	-8294
▁playthrough	-8295
▁predictable	-8296
▁hypocritical	-8297
▁libertarians	-8298
▁questionable	-8299
▁satisfaction	-8300
▁unbelievable	-8301
▁controversial	-8302
▁establishment	-8303
▁motherfucking	-8304
▁realistically	-8305
▁discrimination	-8306
*"	-8307
.'	-8308
/1	-8309
/4	-8310
09	-8311
22	-8312
8,	-8313
]'	-8314
]”	-8315
cx	-8316
|1	-8317
▁😆	-8318
▁😏	-8319
⣤⣤	-8320
200	-8321
600	-8322
aco	-8323
ano	-8324
bag	-8325
chu	-8326
eli	-8327
fre	-8328
fts	-8329
his	-8330
llo	-8331
mme	-8332
mom	-8333
mos	-8334
nat	-8335
oma	-8336
pha	-8337
rec	-8338
sha	-8339
tal	-8340
wel	-8341
▁##	-8342
▁1,	-8343
▁27	-8344
▁44	-8345
▁5.	-8346
▁6.	-8347
▁ct	-8348
▁db	-8349
▁dd	-8350
▁dv	-8351
▁ea	-8352
▁hc	-8353
▁mk	-8354
▁pn	-8355
▁rt	-8356
▁tx	-8357
aire	-8358
anax	-8359
argu	-8360
base	-8361
beat	-8362
bits	-8363
bone	-8364
bull	-8365
ccer	-8366
disc	-8367
esth	-8368
ethe	-8369
etry	-8370
icts	-8371
inge	-8372
itly	-8373
mies	-8374
ndum	-8375
pill	-8376
rate	-8377
rete	-8378
thod	-8379
tier	-8380
utor	-8381
year	-8382
▁150	-8383
▁2/3	-8384
▁20%	-8385
▁:'(	-8386
▁ang	-8387
▁ark	-8388
▁axe	-8389
▁bbc	-8390
▁dot	-8391
▁dxm	-8392
▁fau	-8393
▁hog	-8394
▁hut	-8395
▁inn	-8396
▁jar	-8397
▁mas	-8398
▁mls	-8399
▁qcx	-8400
▁slo	-8401
▁spl	-8402
▁ted	-8403
▁wel	-8404
▁yah	-8405
▁yee	-8406
❤️❤️	-8407
😭😭😭😭	-8408
]....	-8409
amber	-8410
anged	-8411
cings	-8412
eared	-8413
enses	-8414
going	-8415
ician	-8416
ingly	-8417
itute	-8418
jokes	-8419
leans	-8420
liber	-8421
lical	-8422
lords	-8423
power	-8424
ricts	-8425
senal	-8426
trigg	-8427
udder	-8428
urnit	-8429
words	-8430
|0-0|	-8431
▁2010	-8432
▁batt	-8433
▁benz	-8434
▁blur	-8435
▁cope	-8436
▁degr	-8437
▁drum	-8438
▁fond	-8439
▁glue	-8440
▁gull	-8441
▁hash	-8442
▁hulu	-8443
▁july	-8444
▁mayo	-8445
▁mini	-8446
▁nike	-8447
▁pant	-8448
▁penc	-8449
▁pole	-8450
▁pond	-8451
▁sack	-8452
▁stro	-8453
▁taco	-8454
▁tide	-8455
▁toys	-8456
▁twat	-8457
▁vegg	-8458
▁wack	-8459
▁whoo	-8460
▁zion	-8461
babies	-8462
ishing	-8463
metery	-8464
social	-8465
thanks	-8466
vering	-8467
▁alert	-8468
▁arbit	-8469
▁blizz	-8470
▁burgl	-8471
▁candy	-8472
▁cliff	-8473
▁coord	-8474
▁devil	-8475
▁dodge	-8476
▁drown	-8477
▁ducks	-8478
▁fence	-8479
▁flags	-8480
▁goose	-8481
▁harry	-8482
▁homie	-8483
▁icing	-8484
▁irish	-8485
▁jeans	-8486
▁joint	-8487
▁micro	-8488
▁natty	-8489
▁noted	-8490
▁paste	-8491
▁perth	-8492
▁prick	-8493
▁revol	-8494
▁ruins	-8495
▁sales	-8496
▁satan	-8497
▁sharp	-8498
▁shell	-8499
▁skull	-8500
▁slave	-8501
▁slime	-8502
▁snack	-8503
▁spurs	-8504
▁squir	-8505
▁stare	-8506
▁strip	-8507
▁sunny	-8508
▁tacos	-8509
▁tales	-8510
▁texts	-8511
▁trait	-8512
▁whine	-8513
actured	-8514
cusable	-8515
healthy	-8516
itivity	-8517
profess	-8518
rendous	-8519
▁accuse	-8520
▁advent	-8521
▁affili	-8522
▁annoys	-8523
▁antise	-8524
▁arrive	-8525
▁bacter	-8526
▁bounce	-8527
▁bumper	-8528
▁castle	-8529
▁counse	-8530
▁dammit	-8531
▁desire	-8532
▁endang	-8533
▁esteem	-8534
▁exclus	-8535
▁friday	-8536
▁goblin	-8537
▁grandf	-8538
▁guitar	-8539
▁hearts	-8540
▁helmet	-8541
▁jumped	-8542
▁losers	-8543
▁misses	-8544
▁morbid	-8545
▁orgasm	-8546
▁orient	-8547
▁pharma	-8548
▁placed	-8549
▁pocket	-8550
▁poetry	-8551
▁potter	-8552
▁racial	-8553
▁remake	-8554
▁repent	-8555
▁rolled	-8556
▁sabres	-8557
▁senses	-8558
▁settle	-8559
▁sexism	-8560
▁sorrow	-8561
▁sorted	-8562
▁spends	-8563
▁spring	-8564
▁tasted	-8565
▁tested	-8566
▁tobacc	-8567
▁typing	-8568
▁verbal	-8569
▁vulner	-8570
▁zombie	-8571
etheless	-8572
interest	-8573
▁arsenal	-8574
▁avoided	-8575
▁banning	-8576
▁blowing	-8577
▁bottles	-8578
▁broncos	-8579
▁caliber	-8580
▁closing	-8581
▁convict	-8582
▁coolest	-8583
▁council	-8584
▁counsel	-8585
▁damning	-8586
▁default	-8587
▁degrees	-8588
▁desktop	-8589
▁disgust	-8590
▁enlight	-8591
▁focused	-8592
▁footage	-8593
▁graphic	-8594
▁greatly	-8595
▁hateful	-8596
▁hipster	-8597
▁hobbies	-8598
▁initial	-8599
▁innings	-8600
▁invited	-8601
▁knocked	-8602
▁lacking	-8603
▁literal	-8604
▁magical	-8605
▁merrily	-8606
▁opposed	-8607
▁orleans	-8608
▁package	-8609
▁painted	-8610
▁payment	-8611
▁posters	-8612
▁proving	-8613
▁qualify	-8614
▁rainbow	-8615
▁rebound	-8616
▁refused	-8617
▁shaving	-8618
▁shining	-8619
▁stepped	-8620
▁suburbs	-8621
▁summary	-8622
▁tattoos	-8623
▁tearing	-8624
▁touched	-8625
▁vehicle	-8626
▁western	-8627
▁writers	-8628
▁yankees	-8629
obviously	-8630
▁arguably	-8631
▁arrogant	-8632
▁believed	-8633
▁bisexual	-8634
▁capacity	-8635
▁counting	-8636
▁democrat	-8637
▁demonize	-8638
▁destroys	-8639
▁download	-8640
▁feasible	-8641
▁features	-8642
▁forehead	-8643
▁hairline	-8644
▁incompat	-8645
▁inherent	-8646
▁internal	-8647
▁lifetime	-8648
▁magnific	-8649
▁midnight	-8650
▁mustache	-8651
▁offering	-8652
▁punching	-8653
▁purchase	-8654
▁scottish	-8655
▁sticking	-8656
▁survived	-8657
▁swimming	-8658
▁vehicles	-8659
▁withdraw	-8660
conspiracy	-8661
▁conscious	-8662
▁continued	-8663
▁contracts	-8664
▁graduated	-8665
▁increased	-8666
▁invisible	-8667
▁massively	-8668
▁meanwhile	-8669
▁melbourne	-8670
▁piercings	-8671
▁practices	-8672
▁qualified	-8673
▁recording	-8674
▁scrolling	-8675
▁searching	-8676
▁shitposts	-8677
▁strongest	-8678
▁tradition	-8679
▁unrelated	-8680
▁videogame	-8681
▁virginity	-8682
▁willingly	-8683
▁activities	-8684
▁australian	-8685
▁beneficial	-8686
▁clarifying	-8687
▁committing	-8688
▁conference	-8689
▁determined	-8690
▁horrendous	-8691
▁inaccurate	-8692
▁industrial	-8693
▁intolerant	-8694
▁performing	-8695
▁politician	-8696
▁profitable	-8697
▁referendum	-8698
▁represents	-8699
▁stereotype	-8700
▁suspicious	-8701
▁threatened	-8702
▁uninformed	-8703
▁appointment	-8704
▁challenging	-8705
▁defensively	-8706
▁demographic	-8707
▁encouraging	-8708
▁generations	-8709
▁inexcusable	-8710
▁intentional	-8711
▁millennials	-8712
▁nonetheless	-8713
▁shitposting	-8714
▁unnecessary	-8715
▁brainwashing	-8716
▁deliberately	-8717
▁intellectual	-8718
▁prostitution	-8719
▁unreasonable	-8720
▁whataboutism	-8721
▁professionals	-8722
87	-8723
9,	-8724
:-	-8725
bc	-8726
cc	-8727
fo	-8728
jw	-8729
lm	-8730
sn	-8731
za	-8732
‍🌈	-8733
▁💕	-8734
▁😄	-8735
▁🤦	-8736
🏳️	-8737
-12	-8738
.**	-8739
..?	-8740
]."	-8741
aps	-8742
azz	-8743
big	-8744
cci	-8745
eer	-8746
gon	-8747
had	-8748
ige	-8749
iqu	-8750
jab	-8751
lam	-8752
lap	-8753
mic	-8754
mur	-8755
nib	-8756
oia	-8757
oli	-8758
oll	-8759
oul	-8760
rer	-8761
rix	-8762
son	-8763
spe	-8764
▁$7	-8765
▁2?	-8766
▁6'	-8767
▁:|	-8768
▁cw	-8769
▁gn	-8770
▁gp	-8771
▁ig	-8772
▁iv	-8773
▁jv	-8774
▁sd	-8775
▁ub	-8776
▁yt	-8777
..."	-8778
...)	-8779
aint	-8780
airs	-8781
athe	-8782
bble	-8783
bomb	-8784
dded	-8785
does	-8786
elve	-8787
ench	-8788
ffff	-8789
from	-8790
hehe	-8791
ilia	-8792
ilit	-8793
isms	-8794
left	-8795
live	-8796
need	-8797
oric	-8798
osen	-8799
otal	-8800
quis	-8801
rous	-8802
same	-8803
sent	-8804
sett	-8805
sign	-8806
supp	-8807
than	-8808
town	-8809
uffy	-8810
wide	-8811
▁15.	-8812
▁21.	-8813
▁3.5	-8814
▁40%	-8815
▁600	-8816
▁70%	-8817
▁90'	-8818
▁apt	-8819
▁atl	-8820
▁bam	-8821
▁bee	-8822
▁chi	-8823
▁cis	-8824
▁dak	-8825
▁dna	-8826
▁eve	-8827
▁gau	-8828
▁gin	-8829
▁gtf	-8830
▁jac	-8831
▁lag	-8832
▁led	-8833
▁len	-8834
▁lin	-8835
▁moo	-8836
▁mrs	-8837
▁nas	-8838
▁nin	-8839
▁nug	-8840
▁pew	-8841
▁pug	-8842
▁rim	-8843
▁sno	-8844
▁soy	-8845
▁sty	-8846
▁tbf	-8847
▁toe	-8848
▁vic	-8849
▁wra	-8850
▁yrs	-8851
🏳️‍🌈	-8852
ached	-8853
acies	-8854
alist	-8855
amboo	-8856
amine	-8857
amond	-8858
arest	-8859
aunch	-8860
bucks	-8861
ceeds	-8862
class	-8863
cracy	-8864
ember	-8865
erson	-8866
esign	-8867
ingen	-8868
lando	-8869
onton	-8870
orney	-8871
pical	-8872
share	-8873
ssing	-8874
women	-8875
▁1200	-8876
▁2009	-8877
▁ally	-8878
▁beef	-8879
▁bore	-8880
▁brah	-8881
▁bush	-8882
▁cage	-8883
▁cens	-8884
▁cere	-8885
▁curb	-8886
▁darn	-8887
▁dice	-8888
▁fate	-8889
▁fork	-8890
▁gymn	-8891
▁hail	-8892
▁hawa	-8893
▁inch	-8894
▁isis	-8895
▁john	-8896
▁juul	-8897
▁libt	-8898
▁lust	-8899
▁mall	-8900
▁marx	-8901
▁mega	-8902
▁merc	-8903
▁nutr	-8904
▁oils	-8905
▁papa	-8906
▁prey	-8907
▁punk	-8908
▁recy	-8909
▁seal	-8910
▁sets	-8911
▁sham	-8912
▁shel	-8913
▁shif	-8914
▁shor	-8915
▁soda	-8916
▁soup	-8917
▁sued	-8918
▁suns	-8919
▁supr	-8920
▁tang	-8921
▁tast	-8922
▁thir	-8923
▁tied	-8924
234567	-8925
aaaaaa	-8926
comedy	-8927
ctions	-8928
eaking	-8929
gamous	-8930
insert	-8931
irable	-8932
ivered	-8933
little	-8934
making	-8935
orders	-8936
outing	-8937
uation	-8938
ulated	-8939
unless	-8940
▁acade	-8941
▁alleg	-8942
▁bangs	-8943
▁basis	-8944
▁blond	-8945
▁butts	-8946
▁capit	-8947
▁chili	-8948
▁comfy	-8949
▁cries	-8950
▁denom	-8951
▁disco	-8952
▁dislo	-8953
▁dozen	-8954
▁drove	-8955
▁emoji	-8956
▁filth	-8957
▁frick	-8958
▁fried	-8959
▁glory	-8960
▁grief	-8961
▁grows	-8962
▁gucci	-8963
▁heels	-8964
▁hobby	-8965
▁invas	-8966
▁italy	-8967
▁kiddo	-8968
▁lands	-8969
▁loans	-8970
▁lynch	-8971
▁manuf	-8972
▁mario	-8973
▁ought	-8974
▁peeps	-8975
▁pharm	-8976
▁plank	-8977
▁poker	-8978
▁prank	-8979
▁rapid	-8980
▁restr	-8981
▁roast	-8982
▁rumor	-8983
▁salad	-8984
▁scoot	-8985
▁seven	-8986
▁shake	-8987
▁shine	-8988
▁slash	-8989
▁smack	-8990
▁sniff	-8991
▁spine	-8992
▁toast	-8993
▁towns	-8994
▁typed	-8995
▁ultra	-8996
▁veter	-8997
▁weigh	-8998
▁xanax	-8999
▁youth	-9000
chester	-9001
essions	-9002
umbling	-9003
▁athlet	-9004
▁backst	-9005
▁baller	-9006
▁bamboo	-9007
▁begins	-9008
▁breast	-9009
▁burden	-9010
▁ceases	-9011
▁centre	-9012
▁chosen	-9013
▁collab	-9014
▁columb	-9015
▁commie	-9016
▁compil	-9017
▁dakota	-9018
▁disreg	-9019
▁equate	-9020
▁fixing	-9021
▁forces	-9022
▁funded	-9023
▁furnit	-9024
▁gather	-9025
▁glitch	-9026
▁gloves	-9027
▁habits	-9028
▁humili	-9029
▁hypoth	-9030
▁incent	-9031
▁judges	-9032
▁laying	-9033
▁legacy	-9034
▁mainly	-9035
▁majest	-9036
▁nurses	-9037
▁pedest	-9038
▁pepper	-9039
▁poking	-9040
▁proved	-9041
▁raping	-9042
▁selfie	-9043
▁shaped	-9044
▁shield	-9045
▁shoots	-9046
▁silent	-9047
▁singer	-9048
▁skyrim	-9049
▁solves	-9050
▁sooooo	-9051
▁spouse	-9052
▁suburb	-9053
▁subway	-9054
▁survey	-9055
▁symbol	-9056
▁trophy	-9057
▁twelve	-9058
▁unable	-9059
▁uncond	-9060
▁uncont	-9061
▁unsure	-9062
▁values	-9063
▁voices	-9064
▁wizard	-9065
▁wolves	-9066
friendly	-9067
▁ancient	-9068
▁breaker	-9069
▁cameras	-9070
▁chamber	-9071
▁changer	-9072
▁conform	-9073
▁cousins	-9074
▁cynical	-9075
▁declare	-9076
▁defence	-9077
▁delayed	-9078
▁dentist	-9079
▁designs	-9080
▁destiny	-9081
▁diamond	-9082
▁digital	-9083
▁divided	-9084
▁dragons	-9085
▁eastern	-9086
▁endorse	-9087
▁entered	-9088
▁experts	-9089
▁explode	-9090
▁hahahah	-9091
▁happily	-9092
▁highway	-9093
▁interse	-9094
▁kicking	-9095
▁letters	-9096
▁needles	-9097
▁orlando	-9098
▁overlap	-9099
▁panther	-9100
▁premise	-9101
▁punched	-9102
▁quietly	-9103
▁quoting	-9104
▁rampant	-9105
▁raptors	-9106
▁reached	-9107
▁receive	-9108
▁routine	-9109
▁shaking	-9110
▁shaming	-9111
▁shooter	-9112
▁silence	-9113
▁spiders	-9114
▁spoiler	-9115
▁stabbed	-9116
▁tantrum	-9117
▁testing	-9118
▁traumat	-9119
▁univers	-9120
▁unsubsc	-9121
▁viewers	-9122
▁vikings	-9123
▁watches	-9124
▁weirder	-9125
ingenuous	-9126
▁allergic	-9127
▁analysis	-9128
▁answered	-9129
▁attorney	-9130
▁bacteria	-9131
▁barriers	-9132
▁basement	-9133
▁browsing	-9134
▁chargers	-9135
▁coverage	-9136
▁covering	-9137
▁credible	-9138
▁dialogue	-9139
▁diarrhea	-9140
▁district	-9141
▁dominant	-9142
▁drafting	-9143
▁dragging	-9144
▁dressing	-9145
▁edmonton	-9146
▁enormous	-9147
▁feedback	-9148
▁festival	-9149
▁funniest	-9150
▁gatekeep	-9151
▁headache	-9152
▁instruct	-9153
▁interven	-9154
▁marginal	-9155
▁motivate	-9156
▁murderer	-9157
▁northern	-9158
▁opposing	-9159
▁optimism	-9160
▁paranoia	-9161
▁randomly	-9162
▁redditor	-9163
▁reliable	-9164
▁reposted	-9165
▁roommate	-9166
▁shipping	-9167
▁snorting	-9168
▁sweetest	-9169
▁thankful	-9170
▁tracking	-9171
▁trusting	-9172
▁turnover	-9173
▁abilities	-9174
▁accidents	-9175
▁agreement	-9176
▁atrocious	-9177
▁commented	-9178
▁delivered	-9179
▁eachother	-9180
▁ethnicity	-9181
▁furniture	-9182
▁instincts	-9183
▁justified	-9184
▁liability	-9185
▁memorable	-9186
▁nevermind	-9187
▁overthink	-9188
▁ownership	-9189
▁parenting	-9190
▁pedophile	-9191
▁powerplay	-9192
▁protected	-9193
▁september	-9194
▁sexuality	-9195
▁shoulders	-9196
▁teenagers	-9197
▁traveling	-9198
▁accurately	-9199
▁believable	-9200
▁candidates	-9201
▁commitment	-9202
▁confirming	-9203
▁contribute	-9204
▁degenerate	-9205
▁electrical	-9206
▁empathetic	-9207
▁enthusiasm	-9208
▁gymnastics	-9209
▁intentions	-9210
▁leadership	-9211
▁opposition	-9212
▁oppressive	-9213
▁presidency	-9214
▁production	-9215
▁remarkably	-9216
▁resolution	-9217
▁respectful	-9218
▁statistics	-9219
▁supposedly	-9220
▁thoroughly	-9221
▁toothpaste	-9222
▁unemployed	-9223
▁advertising	-9224
▁colonialism	-9225
▁conclusions	-9226
▁development	-9227
▁magnificent	-9228
▁orientation	-9229
▁restaurants	-9230
▁traditional	-9231
▁underweight	-9232
▁disingenuous	-9233
▁prescription	-9234
▁psychiatrist	-9235
▁surprisingly	-9236
▁comprehension	-9237
▁interpretation	-9238
▁misinformation	-9239
.,	-9240
85	-9241
<3	-9242
jj	-9243
mr	-9244
mu	-9245
ng	-9246
’,	-9247
▁͡	-9248
▁🤢	-9249
🔥🔥	-9250
😩😩	-9251
]..	-9252
afe	-9253
aho	-9254
aid	-9255
amm	-9256
ara	-9257
axy	-9258
bud	-9259
cou	-9260
def	-9261
ews	-9262
fam	-9263
fig	-9264
hin	-9265
hon	-9266
hoo	-9267
iii	-9268
isa	-9269
iti	-9270
jar	-9271
job	-9272
kee	-9273
ldr	-9274
lee	-9275
max	-9276
mil	-9277
nth	-9278
rie	-9279
sex	-9280
ste	-9281
sub	-9282
tit	-9283
tte	-9284
uce	-9285
urf	-9286
vet	-9287
wed	-9288
wee	-9289
wow	-9290
▁47	-9291
▁>"	-9292
▁bp	-9293
▁lv	-9294
▁pk	-9295
▁ul	-9296
▁vr	-9297
▁☺️	-9298
____	-9299
agel	-9300
anas	-9301
anti	-9302
bish	-9303
burn	-9304
cels	-9305
cers	-9306
cher	-9307
deal	-9308
dles	-9309
enix	-9310
ewor	-9311
gues	-9312
happ	-9313
help	-9314
igsl	-9315
inos	-9316
ippi	-9317
ista	-9318
kind	-9319
mble	-9320
oked	-9321
oner	-9322
opol	-9323
otch	-9324
quet	-9325
robe	-9326
ruit	-9327
show	-9328
vard	-9329
zone	-9330
▁2.0	-9331
▁202	-9332
▁90%	-9333
▁aug	-9334
▁bin	-9335
▁bru	-9336
▁cad	-9337
▁dea	-9338
▁dms	-9339
▁dre	-9340
▁duh	-9341
▁fud	-9342
▁gdp	-9343
▁gta	-9344
▁hiv	-9345
▁kot	-9346
▁lpt	-9347
▁mps	-9348
▁mug	-9349
▁ndp	-9350
▁neo	-9351
▁nra	-9352
▁paw	-9353
▁sod	-9354
▁sor	-9355
▁tab	-9356
▁tap	-9357
▁tds	-9358
▁tie	-9359
▁tir	-9360
▁ufc	-9361
▁vod	-9362
▁wwe	-9363
🏼‍♀️	-9364
😂😂😂😂	-9365
aaaay	-9366
achel	-9367
aires	-9368
ander	-9369
asant	-9370
burgh	-9371
cials	-9372
dance	-9373
eeeee	-9374
eting	-9375
front	-9376
ggars	-9377
gment	-9378
grown	-9379
hawks	-9380
iably	-9381
irite	-9382
isons	-9383
lless	-9384
melon	-9385
memes	-9386
ppers	-9387
proof	-9388
pting	-9389
rence	-9390
table	-9391
whate	-9392
world	-9393
|0-1|	-9394
▁2015	-9395
▁anon	-9396
▁bare	-9397
▁bois	-9398
▁bold	-9399
▁bork	-9400
▁braz	-9401
▁bugs	-9402
▁bust	-9403
▁cath	-9404
▁cert	-9405
▁claw	-9406
▁cuts	-9407
▁deck	-9408
▁dork	-9409
▁echo	-9410
▁ecst	-9411
▁ensl	-9412
▁fold	-9413
▁folk	-9414
▁frog	-9415
▁gems	-9416
▁gest	-9417
▁glow	-9418
▁gray	-9419
▁grip	-9420
▁gtfo	-9421
▁hazy	-9422
▁hipp	-9423
▁impr	-9424
▁lgbt	-9425
▁ling	-9426
▁mice	-9427
▁mont	-9428
▁neur	-9429
▁nude	-9430
▁pear	-9431
▁phen	-9432
▁ptsd	-9433
▁quot	-9434
▁rely	-9435
▁rice	-9436
▁rofl	-9437
▁seve	-9438
▁spon	-9439
▁tale	-9440
▁tick	-9441
▁trey	-9442
▁twin	-9443
▁unlo	-9444
▁vend	-9445
▁viet	-9446
advert	-9447
anging	-9448
arring	-9449
couver	-9450
hhhhhh	-9451
igious	-9452
ilarly	-9453
itized	-9454
ooklyn	-9455
orated	-9456
papers	-9457
points	-9458
riggin	-9459
stupid	-9460
▁aimed	-9461
▁ancap	-9462
▁asian	-9463
▁award	-9464
▁bagel	-9465
▁bliss	-9466
▁booth	-9467
▁brush	-9468
▁chaos	-9469
▁chess	-9470
▁convo	-9471
▁cough	-9472
▁dealt	-9473
▁decre	-9474
▁ditch	-9475
▁donut	-9476
▁dysph	-9477
▁eager	-9478
▁fever	-9479
▁float	-9480
▁fugly	-9481
▁gains	-9482
▁genes	-9483
▁goods	-9484
▁grace	-9485
▁grasp	-9486
▁guest	-9487
▁hacks	-9488
▁hahah	-9489
▁handy	-9490
▁hangs	-9491
▁hesit	-9492
▁holds	-9493
▁holly	-9494
▁hurry	-9495
▁inher	-9496
▁innov	-9497
▁irres	-9498
▁jelly	-9499
▁lanes	-9500
▁leaks	-9501
▁lemon	-9502
▁lists	-9503
▁liter	-9504
▁metro	-9505
▁momma	-9506
▁munch	-9507
▁nicer	-9508
▁numer	-9509
▁obese	-9510
▁ohhhh	-9511
▁outdo	-9512
▁panel	-9513
▁penny	-9514
▁persu	-9515
▁pinch	-9516
▁pulls	-9517
▁redee	-9518
▁revel	-9519
▁rocks	-9520
▁shaft	-9521
▁ships	-9522
▁simps	-9523
▁skept	-9524
▁slurs	-9525
▁smith	-9526
▁socks	-9527
▁sorta	-9528
▁spark	-9529
▁spect	-9530
▁spoon	-9531
▁spray	-9532
▁stack	-9533
▁swipe	-9534
▁tuned	-9535
▁venge	-9536
▁waist	-9537
▁wease	-9538
▁wives	-9539
▁woosh	-9540
▁wrath	-9541
▁wreck	-9542
▁youve	-9543
anxiety	-9544
because	-9545
calling	-9546
endered	-9547
igslist	-9548
issippi	-9549
lifting	-9550
looking	-9551
nothing	-9552
urities	-9553
▁agrees	-9554
▁aiming	-9555
▁avatar	-9556
▁banana	-9557
▁banged	-9558
▁belive	-9559
▁cannon	-9560
▁carbon	-9561
▁chicks	-9562
▁chubby	-9563
▁compli	-9564
▁conver	-9565
▁cooked	-9566
▁covers	-9567
▁creeps	-9568
▁crimin	-9569
▁devils	-9570
▁discou	-9571
▁dishes	-9572
▁enjoys	-9573
▁evange	-9574
▁extent	-9575
▁extrem	-9576
▁fanboy	-9577
▁finals	-9578
▁finest	-9579
▁formal	-9580
▁france	-9581
▁freaky	-9582
▁freeze	-9583
▁fridge	-9584
▁fucken	-9585
▁galaxy	-9586
▁hmmmmm	-9587
▁hurric	-9588
▁inevit	-9589
▁infant	-9590
▁intens	-9591
▁invent	-9592
▁kinder	-9593
▁knocks	-9594
▁manner	-9595
▁merely	-9596
▁naming	-9597
▁noodle	-9598
▁nothin	-9599
▁orthod	-9600
▁overdo	-9601
▁padres	-9602
▁patter	-9603
▁pencil	-9604
▁pillow	-9605
▁popped	-9606
▁powder	-9607
▁prayer	-9608
▁proced	-9609
▁propos	-9610
▁prosec	-9611
▁pupper	-9612
▁rescue	-9613
▁resent	-9614
▁safely	-9615
▁savage	-9616
▁shakes	-9617
▁signal	-9618
▁snacks	-9619
▁stable	-9620
▁strict	-9621
▁tories	-9622
▁twitch	-9623
▁unfair	-9624
▁wheels	-9625
▁writes	-9626
--------	-9627
........	-9628
emotions	-9629
everyone	-9630
whatever	-9631
▁abusing	-9632
▁actress	-9633
▁amirite	-9634
▁aquaria	-9635
▁bigotry	-9636
▁canucks	-9637
▁cheater	-9638
▁cheetos	-9639
▁cleared	-9640
▁coaches	-9641
▁cowboys	-9642
▁crushed	-9643
▁dismiss	-9644
▁display	-9645
▁drafted	-9646
▁dynamic	-9647
▁elderly	-9648
▁ethical	-9649
▁exposed	-9650
▁factual	-9651
▁fitting	-9652
▁friggin	-9653
▁generic	-9654
▁granted	-9655
▁grocery	-9656
▁harvard	-9657
▁hormone	-9658
▁housing	-9659
▁houston	-9660
▁kneecap	-9661
▁knights	-9662
▁liberty	-9663
▁loyalty	-9664
▁measles	-9665
▁musical	-9666
▁nations	-9667
▁obscure	-9668
▁oppress	-9669
▁pricing	-9670
▁proport	-9671
▁propose	-9672
▁rangers	-9673
▁rapists	-9674
▁robbery	-9675
▁rubbish	-9676
▁savings	-9677
▁shatter	-9678
▁shudder	-9679
▁signals	-9680
▁singing	-9681
▁sketchy	-9682
▁slaught	-9683
▁smiling	-9684
▁spotted	-9685
▁stacked	-9686
▁stagger	-9687
▁submiss	-9688
▁sweetie	-9689
▁tricked	-9690
▁trinity	-9691
▁visited	-9692
▁wealthy	-9693
🦀🦀🦀🦀🦀🦀🦀🦀	-9694
▁artifact	-9695
▁blasting	-9696
▁blizzard	-9697
▁contains	-9698
▁cuddling	-9699
▁debating	-9700
▁deciding	-9701
▁defeated	-9702
▁distress	-9703
▁draining	-9704
▁employee	-9705
▁executed	-9706
▁freezing	-9707
▁generous	-9708
▁ghosting	-9709
▁governor	-9710
▁gullible	-9711
▁hangover	-9712
▁indicate	-9713
▁insulted	-9714
▁isolated	-9715
▁knocking	-9716
▁leftists	-9717
▁michigan	-9718
▁overcome	-9719
▁potatoes	-9720
▁presents	-9721
▁quarters	-9722
▁severely	-9723
▁shameful	-9724
▁shithead	-9725
▁shooters	-9726
▁shopping	-9727
▁shouldnt	-9728
▁snapchat	-9729
▁soulless	-9730
▁stalking	-9731
▁stressed	-9732
▁suprised	-9733
▁toxicity	-9734
▁treasure	-9735
▁triggers	-9736
▁uncommon	-9737
▁visiting	-9738
▁wardrobe	-9739
acceptable	-9740
ifications	-9741
▁accepting	-9742
▁amendment	-9743
▁animation	-9744
▁bathrooms	-9745
▁bothering	-9746
▁broadcast	-9747
▁competent	-9748
▁consuming	-9749
▁copypasta	-9750
▁crossover	-9751
▁discussed	-9752
▁disregard	-9753
▁diversity	-9754
▁expansion	-9755
▁headlines	-9756
▁hollywood	-9757
▁hospitals	-9758
▁immensely	-9759
▁infection	-9760
▁initially	-9761
▁inspiring	-9762
▁intention	-9763
▁introduce	-9764
▁irrespons	-9765
▁islanders	-9766
▁magically	-9767
▁mandatory	-9768
▁mechanics	-9769
▁neckbeard	-9770
▁nicknames	-9771
▁occasions	-9772
▁placement	-9773
▁promotion	-9774
▁residents	-9775
▁separated	-9776
▁similarly	-9777
▁superstar	-9778
▁supported	-9779
▁suspected	-9780
▁unhealthy	-9781
▁vaccinate	-9782
▁vancouver	-9783
▁volunteer	-9784
▁wikipedia	-9785
▁additional	-9786
▁astounding	-9787
▁consistent	-9788
▁contacting	-9789
▁convention	-9790
▁correcting	-9791
▁craigslist	-9792
▁delightful	-9793
▁describing	-9794
▁hysterical	-9795
▁motherfuck	-9796
▁references	-9797
▁reflection	-9798
▁transphobe	-9799
▁validation	-9800
▁vegetables	-9801
▁watermelon	-9802
▁withdrawal	-9803
▁yourselves	-9804
professional	-9805
▁accusations	-9806
▁enforcement	-9807
▁established	-9808
▁investigate	-9809
▁maintenance	-9810
▁mississippi	-9811
▁observation	-9812
▁referencing	-9813
▁replacement	-9814
▁sensational	-9815
▁underground	-9816
▁withdrawals	-9817
▁construction	-9818
▁insecurities	-9819
▁manipulation	-9820
▁performances	-9821
▁unemployment	-9822
▁confrontation	-9823
▁consideration	-9824
9999999999999999	-9825
😤😤😤😤😤😤😤😤😤😤😤😤😤😤😤😤	-9826
)?	-9827
,"	-9828
1,	-9829
26	-9830
95	-9831
::	-9832
]’	-9833
fg	-9834
hy	-9835
▁🎶	-9836
▁👀	-9837
▁😒	-9838
▁😔	-9839
▁😬	-9840
▁🤗	-9841
(?)	-9842
]?!	-9843
]??	-9844
awg	-9845
bly	-9846
cam	-9847
cel	-9848
cod	-9849
dar	-9850
ddd	-9851
emy	-9852
eur	-9853
eye	-9854
ffe	-9855
fil	-9856
fir	-9857
gir	-9858
guy	-9859
hol	-9860
ifs	-9861
ila	-9862
iot	-9863
jud	-9864
lot	-9865
mma	-9866
nab	-9867
nah	-9868
ock	-9869
olo	-9870
ris	-9871
run	-9872
say	-9873
tra	-9874
zer	-9875
zes	-9876
▁00	-9877
▁1!	-9878
▁33	-9879
▁36	-9880
▁3:	-9881
▁41	-9882
▁43	-9883
▁52	-9884
▁7.	-9885
▁??	-9886
▁bm	-9887
▁dn	-9888
▁fw	-9889
▁gb	-9890
▁gy	-9891
▁ix	-9892
▁ja	-9893
▁jk	-9894
▁kh	-9895
▁ln	-9896
▁nz	-9897
▁tp	-9898
▁yr	-9899
achu	-9900
ails	-9901
also	-9902
anny	-9903
anyl	-9904
arer	-9905
bido	-9906
bred	-9907
bust	-9908
butt	-9909
cake	-9910
eged	-9911
gart	-9912
gram	-9913
hort	-9914
ianc	-9915
iano	-9916
iban	-9917
iful	-9918
irky	-9919
ithm	-9920
ived	-9921
kins	-9922
lers	-9923
mean	-9924
mson	-9925
next	-9926
ober	-9927
ocol	-9928
oped	-9929
open	-9930
park	-9931
pies	-9932
poly	-9933
pple	-9934
quer	-9935
rier	-9936
rors	-9937
sets	-9938
uced	-9939
uffs	-9940
uild	-9941
ummy	-9942
want	-9943
writ	-9944
zled	-9945
▁###	-9946
▁1-2	-9947
▁1/2	-9948
▁10.	-9949
▁20,	-9950
▁20.	-9951
▁25%	-9952
▁3-4	-9953
▁350	-9954
▁800	-9955
▁???	-9956
▁afc	-9957
▁bak	-9958
▁bbq	-9959
▁bid	-9960
▁cfb	-9961
▁cum	-9962
▁das	-9963
▁fml	-9964
▁fps	-9965
▁gem	-9966
▁jfc	-9967
▁kay	-9968
▁lux	-9969
▁mel	-9970
▁mtv	-9971
▁nag	-9972
▁ofc	-9973
▁okc	-9974
▁pff	-9975
▁pho	-9976
▁riv	-9977
▁ski	-9978
▁spi	-9979
▁tek	-9980
▁tik	-9981
▁ubi	-9982
▁wax	-9983
▁wha	-9984
▁wth	-9985
🤣🤣🤣🤣	-9986
aches	-9987
angle	-9988
antis	-9989
apore	-9990
atisf	-9991
atism	-9992
brain	-9993
cough	-9994
dated	-9995
erent	-9996
erved	-9997
essim	-9998
geons	-9999
heard	-10000
ipper	-10001
ishop	-10002
istan	-10003
lenol	-10004
lette	-10005
llion	-10006
looks	-10007
nibal	-10008
orary	-10009
orgia	-10010
party	-10011
plate	-10012
rency	-10013
super	-10014
toxic	-10015
track	-10016
ulous	-10017
umped	-10018
vesty	-10019
weird	-10020
xture	-10021
▁!!!!	-10022
▁$300	-10023
▁2000	-10024
▁2014	-10025
▁acqu	-10026
▁ahah	-10027
▁aids	-10028
▁alas	-10029
▁apps	-10030
▁aver	-10031
▁azul	-10032
▁bapt	-10033
▁barn	-10034
▁bean	-10035
▁boun	-10036
▁bulk	-10037
▁calc	-10038
▁carb	-10039
▁caut	-10040
▁clam	-10041
▁cric	-10042
▁cruz	-10043
▁dawg	-10044
▁defl	-10045
▁dild	-10046
▁dime	-10047
▁ding	-10048
▁duel	-10049
▁durr	-10050
▁fent	-10051
▁flin	-10052
▁fren	-10053
▁funk	-10054
▁glut	-10055
▁guts	-10056
▁hips	-10057
▁inso	-10058
▁keys	-10059
▁kong	-10060
▁leth	-10061
▁lift	-10062
▁loan	-10063
▁loot	-10064
▁maps	-10065
▁meow	-10066
▁moan	-10067
▁oooo	-10068
▁pard	-10069
▁perk	-10070
▁peta	-10071
▁poli	-10072
▁pose	-10073
▁prec	-10074
▁puzz	-10075
▁reee	-10076
▁reun	-10077
▁rhet	-10078
▁rose	-10079
▁sams	-10080
▁scra	-10081
▁seme	-10082
▁shin	-10083
▁snug	-10084
▁tldr	-10085
▁toes	-10086
▁tops	-10087
▁unis	-10088
▁unle	-10089
▁vamp	-10090
▁wooo	-10091
▁yuck	-10092
876543	-10093
acture	-10094
almost	-10095
arious	-10096
around	-10097
aughty	-10098
broken	-10099
canada	-10100
except	-10101
fellow	-10102
garten	-10103
import	-10104
liness	-10105
llowed	-10106
romise	-10107
thread	-10108
▁2009.	-10109
▁2019!	-10110
▁affir	-10111
▁aired	-10112
▁algor	-10113
▁burnt	-10114
▁categ	-10115
▁cents	-10116
▁choir	-10117
▁chunk	-10118
▁cigar	-10119
▁cling	-10120
▁cunts	-10121
▁dolph	-10122
▁erect	-10123
▁ether	-10124
▁exhib	-10125
▁expos	-10126
▁felon	-10127
▁fianc	-10128
▁fools	-10129
▁gimme	-10130
▁goats	-10131
▁goofy	-10132
▁heath	-10133
▁lifes	-10134
▁locks	-10135
▁lover	-10136
▁mains	-10137
▁manga	-10138
▁mania	-10139
▁miami	-10140
▁nerve	-10141
▁occup	-10142
▁ocean	-10143
▁ooooh	-10144
▁packs	-10145
▁pages	-10146
▁pains	-10147
▁parad	-10148
▁pengu	-10149
▁pound	-10150
▁prone	-10151
▁punct	-10152
▁recon	-10153
▁reign	-10154
▁rides	-10155
▁rogue	-10156
▁rugby	-10157
▁ruled	-10158
▁saint	-10159
▁scape	-10160
▁shops	-10161
▁slope	-10162
▁spite	-10163
▁spoke	-10164
▁stans	-10165
▁stoic	-10166
▁suits	-10167
▁swept	-10168
▁theat	-10169
▁theor	-10170
▁tower	-10171
▁trips	-10172
▁waifu	-10173
▁wears	-10174
▁winds	-10175
actions	-10176
blowing	-10177
ensible	-10178
quality	-10179
woooosh	-10180
working	-10181
▁admire	-10182
▁assess	-10183
▁beaten	-10184
▁behave	-10185
▁blamed	-10186
▁blocks	-10187
▁boiled	-10188
▁borrow	-10189
▁broner	-10190
▁campus	-10191
▁carrot	-10192
▁cheeks	-10193
▁chills	-10194
▁coffin	-10195
▁cooler	-10196
▁crotch	-10197
▁cuddle	-10198
▁dispro	-10199
▁doomed	-10200
▁dystop	-10201
▁emails	-10202
▁fabric	-10203
▁finale	-10204
▁firmly	-10205
▁forbid	-10206
▁grader	-10207
▁greasy	-10208
▁haired	-10209
▁honour	-10210
▁hoodie	-10211
▁inject	-10212
▁jungle	-10213
▁libido	-10214
▁lining	-10215
▁listed	-10216
▁litter	-10217
▁loaded	-10218
▁lowkey	-10219
▁mayhem	-10220
▁mildly	-10221
▁minion	-10222
▁molest	-10223
▁monkey	-10224
▁nerfed	-10225
▁nostal	-10226
▁oilers	-10227
▁onions	-10228
▁outlaw	-10229
▁packed	-10230
▁papers	-10231
▁paraly	-10232
▁pastor	-10233
▁peaked	-10234
▁pessim	-10235
▁pilots	-10236
▁plates	-10237
▁poured	-10238
▁pursue	-10239
▁quirky	-10240
▁rabbit	-10241
▁rapper	-10242
▁refund	-10243
▁replay	-10244
▁retard	-10245
▁rhymes	-10246
▁robbed	-10247
▁sacred	-10248
▁sanity	-10249
▁scents	-10250
▁shaved	-10251
▁shirts	-10252
▁slower	-10253
▁snatch	-10254
▁steals	-10255
▁struck	-10256
▁suspic	-10257
▁syrian	-10258
▁tastes	-10259
▁tennis	-10260
▁theirs	-10261
▁traits	-10262
▁unbear	-10263
▁vegans	-10264
▁weaker	-10265
▁weekly	-10266
▁wildly	-10267
▁woulda	-10268
achuting	-10269
argument	-10270
iversary	-10271
izations	-10272
▁accents	-10273
▁affects	-10274
▁anarchy	-10275
▁applies	-10276
▁artific	-10277
▁awfully	-10278
▁battery	-10279
▁battles	-10280
▁begging	-10281
▁borders	-10282
▁bowling	-10283
▁buttons	-10284
▁capture	-10285
▁circles	-10286
▁closure	-10287
▁compens	-10288
▁confuse	-10289
▁consult	-10290
▁corners	-10291
▁coyotes	-10292
▁cracked	-10293
▁cringed	-10294
▁crooked	-10295
▁daycare	-10296
▁dishone	-10297
▁diverse	-10298
▁easiest	-10299
▁eternal	-10300
▁exagger	-10301
▁fallacy	-10302
▁fallout	-10303
▁formula	-10304
▁frankly	-10305
▁gaining	-10306
▁genetic	-10307
▁georgia	-10308
▁hostile	-10309
▁induced	-10310
▁licking	-10311
▁listing	-10312
▁madness	-10313
▁mexican	-10314
▁muscles	-10315
▁naughty	-10316
▁neglect	-10317
▁newborn	-10318
▁nipples	-10319
▁october	-10320
▁pairing	-10321
▁panties	-10322
▁popping	-10323
▁premier	-10324
▁rebuild	-10325
▁refuses	-10326
▁relapse	-10327
▁relying	-10328
▁reports	-10329
▁retired	-10330
▁rockets	-10331
▁rounder	-10332
▁scandal	-10333
▁selfies	-10334
▁shoulda	-10335
▁skyline	-10336
▁spelled	-10337
▁supreme	-10338
▁sweater	-10339
▁sympath	-10340
▁tactics	-10341
▁taliban	-10342
▁tobacco	-10343
▁traitor	-10344
▁trapped	-10345
▁travels	-10346
▁trivial	-10347
▁tylenol	-10348
▁upgrade	-10349
▁veggies	-10350
▁villain	-10351
▁wishful	-10352
education	-10353
important	-10354
religious	-10355
triggered	-10356
▁activity	-10357
▁approval	-10358
▁balanced	-10359
▁betrayed	-10360
▁cannibal	-10361
▁charming	-10362
▁cheaters	-10363
▁chuckled	-10364
▁colorado	-10365
▁concerns	-10366
▁concrete	-10367
▁creation	-10368
▁decrease	-10369
▁dislikes	-10370
▁divorced	-10371
▁exploded	-10372
▁fentanyl	-10373
▁forwards	-10374
▁googling	-10375
▁graphics	-10376
▁guardian	-10377
▁haunting	-10378
▁hysteria	-10379
▁imprison	-10380
▁intimacy	-10381
▁jealousy	-10382
▁landlord	-10383
▁likeable	-10384
▁lynching	-10385
▁morality	-10386
▁orthodox	-10387
▁pedestri	-10388
▁pharmacy	-10389
▁phenomen	-10390
▁phrasing	-10391
▁projects	-10392
▁reacting	-10393
▁realizes	-10394
▁replaced	-10395
▁requires	-10396
▁revealed	-10397
▁scamming	-10398
▁shitting	-10399
▁sidewalk	-10400
▁simpsons	-10401
▁spamming	-10402
▁spinning	-10403
▁subscrib	-10404
▁travesty	-10405
▁trillion	-10406
▁tweeting	-10407
▁unsatisf	-10408
everything	-10409
▁activated	-10410
▁affecting	-10411
▁algorithm	-10412
▁apologist	-10413
▁associate	-10414
▁attempted	-10415
▁behaviors	-10416
▁brutality	-10417
▁childfree	-10418
▁collusion	-10419
▁complains	-10420
▁consensus	-10421
▁crippling	-10422
▁demanding	-10423
▁dominance	-10424
▁everyones	-10425
▁excessive	-10426
▁exploding	-10427
▁explosion	-10428
▁followers	-10429
▁fortunate	-10430
▁harassing	-10431
▁installed	-10432
▁introvert	-10433
▁judgement	-10434
▁languages	-10435
▁laughable	-10436
▁mountains	-10437
▁necessity	-10438
▁newspaper	-10439
▁notorious	-10440
▁obligated	-10441
▁operation	-10442
▁perceived	-10443
▁precisely	-10444
▁pregnancy	-10445
▁primarily	-10446
▁purposely	-10447
▁reduction	-10448
▁remainers	-10449
▁resources	-10450
▁secondary	-10451
▁singapore	-10452
▁skeptical	-10453
▁spiritual	-10454
▁starbucks	-10455
▁strangely	-10456
▁translate	-10457
▁vengeance	-10458
▁verifying	-10459
friendlybot	-10460
▁accusation	-10461
▁bamboozled	-10462
▁borderline	-10463
▁classmates	-10464
▁counseling	-10465
▁developing	-10466
▁fanfiction	-10467
▁homophobia	-10468
▁indication	-10469
▁inequality	-10470
▁inevitably	-10471
▁insightful	-10472
▁internally	-10473
▁manchester	-10474
▁manipulate	-10475
▁membership	-10476
▁millennial	-10477
▁minorities	-10478
▁originally	-10479
▁philosophy	-10480
▁positivity	-10481
▁priorities	-10482
▁protesting	-10483
▁referenced	-10484
▁rightfully	-10485
▁triggering	-10486
▁ultimately	-10487
▁unbearable	-10488
▁uncontroll	-10489
▁visibility	-10490
▁vulnerable	-10491
▁anniversary	-10492
▁antivaxxers	-10493
▁apologizing	-10494
▁arrangement	-10495
▁citizenship	-10496
▁commercials	-10497
▁connections	-10498
▁criticizing	-10499
▁documenting	-10500
▁entertained	-10501
▁exclusively	-10502
▁expectation	-10503
▁forgiveness	-10504
▁fortunately	-10505
▁heartbroken	-10506
▁incompetent	-10507
▁individuals	-10508
▁involvement	-10509
▁medications	-10510
▁practically	-10511
▁recommended	-10512
▁regulations	-10513
▁selfishness	-10514
▁understands	-10515
▁unrealistic	-10516
▁antisemitism	-10517
▁commentaries	-10518
▁congratulate	-10519
▁conservatism	-10520
▁contradicted	-10521
▁incompatible	-10522
▁kindergarten	-10523
▁motherfucker	-10524
▁successfully	-10525
▁unacceptable	-10526
▁vaccinations	-10527
▁psychological	-10528
happyfriendlybot	-10529
"*	-10530
):	-10531
*?	-10532
/7	-10533
05	-10534
13	-10535
2,	-10536
6?	-10537
:(	-10538
cg	-10539
fr	-10540
hs	-10541
ju	-10542
pc	-10543
si	-10544
vv	-10545
xx	-10546
’.	-10547
▁⠀	-10548
▁🎵	-10549
▁🔥	-10550
▁🙃	-10551
▁🙌	-10552
▁🤮	-10553
⠀⢀	-10554
⠀⢠	-10555
😡🤬	-10556
🙏🙏	-10557
-70	-10558
:-|	-10559
apt	-10560
avy	-10561
aze	-10562
boo	-10563
bra	-10564
cur	-10565
gag	-10566
gal	-10567
ggy	-10568
him	-10569
hor	-10570
iam	-10571
igo	-10572
imp	-10573
ims	-10574
ini	-10575
isl	-10576
lad	-10577
lah	-10578
mah	-10579
obi	-10580
och	-10581
ora	-10582
owa	-10583
pat	-10584
rah	-10585
rrr	-10586
sey	-10587
tar	-10588
uld	-10589
une	-10590
vas	-10591
zed	-10592
▁.5	-10593
▁0%	-10594
▁56	-10595
▁69	-10596
▁75	-10597
▁::	-10598
▁cd	-10599
▁ez	-10600
▁iw	-10601
▁js	-10602
▁ld	-10603
▁mf	-10604
▁nb	-10605
▁oo	-10606
▁ov	-10607
▁vp	-10608
▁wc	-10609
▁ze	-10610
▁͡°	-10611
"...	-10612
$$$$	-10613
-0-0	-10614
]!!!	-10615
^^^^	-10616
aper	-10617
aren	-10618
arts	-10619
aska	-10620
assy	-10621
baby	-10622
bled	-10623
boot	-10624
call	-10625
carn	-10626
coll	-10627
eaks	-10628
edge	-10629
fail	-10630
flow	-10631
foot	-10632
full	-10633
gate	-10634
gies	-10635
gred	-10636
holy	-10637
icky	-10638
ilot	-10639
inst	-10640
isan	-10641
jack	-10642
kids	-10643
maid	-10644
mant	-10645
meda	-10646
mone	-10647
much	-10648
okay	-10649
olds	-10650
olog	-10651
oyes	-10652
phis	-10653
pick	-10654
pron	-10655
raft	-10656
reci	-10657
reen	-10658
roid	-10659
shad	-10660
tale	-10661
teen	-10662
tled	-10663
udic	-10664
udud	-10665
umpt	-10666
unks	-10667
vior	-10668
▁1.0	-10669
▁155	-10670
▁2-0	-10671
▁250	-10672
▁3-0	-10673
▁30.	-10674
▁95%	-10675
▁ama	-10676
▁ame	-10677
▁bah	-10678
▁cgi	-10679
▁coz	-10680
▁dlo	-10681
▁dmc	-10682
▁dps	-10683
▁dyn	-10684
▁fid	-10685
▁geo	-10686
▁git	-10687
▁gud	-10688
▁icy	-10689
▁ira	-10690
▁iud	-10691
▁jok	-10692
▁lik	-10693
▁mcd	-10694
▁mit	-10695
▁nye	-10696
▁opi	-10697
▁osc	-10698
▁owo	-10699
▁pag	-10700
▁pov	-10701
▁pvp	-10702
▁shy	-10703
▁sip	-10704
▁sjw	-10705
▁thy	-10706
▁tis	-10707
▁vig	-10708
▁wut	-10709
activ	-10710
after	-10711
allel	-10712
anian	-10713
armed	-10714
arter	-10715
asses	-10716
atics	-10717
atomy	-10718
based	-10719
berry	-10720
blood	-10721
build	-10722
bumps	-10723
could	-10724
doing	-10725
erals	-10726
fruit	-10727
ghett	-10728
ghter	-10729
hands	-10730
heads	-10731
imony	-10732
inked	-10733
ipers	-10734
itome	-10735
itzer	-10736
iving	-10737
layer	-10738
loved	-10739
makes	-10740
matic	-10741
olina	-10742
range	-10743
rants	-10744
shine	-10745
sight	-10746
thats	-10747
thole	-10748
uffle	-10749
unked	-10750
|1-1|	-10751
▁acne	-10752
▁adul	-10753
▁ahem	-10754
▁alto	-10755
▁alts	-10756
▁amas	-10757
▁arab	-10758
▁arts	-10759
▁bama	-10760
▁bant	-10761
▁bash	-10762
▁bent	-10763
▁beta	-10764
▁bloo	-10765
▁boil	-10766
▁bour	-10767
▁brag	-10768
▁brew	-10769
▁bunk	-10770
▁caps	-10771
▁chon	-10772
▁coat	-10773
▁coma	-10774
▁craz	-10775
▁cups	-10776
▁deaf	-10777
▁dele	-10778
▁doom	-10779
▁dunk	-10780
▁ehhh	-10781
▁enzy	-10782
▁fade	-10783
▁fare	-10784
▁feat	-10785
▁fuuu	-10786
▁gore	-10787
▁grit	-10788
▁hart	-10789
▁hehe	-10790
▁hong	-10791
▁hung	-10792
▁infj	-10793
▁intr	-10794
▁iowa	-10795
▁jazz	-10796
▁keem	-10797
▁keen	-10798
▁kidd	-10799
▁lect	-10800
▁lesb	-10801
▁libs	-10802
▁lucr	-10803
▁mdma	-10804
▁mile	-10805
▁mole	-10806
▁neph	-10807
▁noed	-10808
▁nost	-10809
▁nuke	-10810
▁obst	-10811
▁ostr	-10812
▁otta	-10813
▁palm	-10814
▁pedo	-10815
▁ping	-10816
▁pulp	-10817
▁pupp	-10818
▁ribs	-10819
▁riot	-10820
▁sequ	-10821
▁shag	-10822
▁shat	-10823
▁shoe	-10824
▁sins	-10825
▁sire	-10826
▁slog	-10827
▁soph	-10828
▁sovi	-10829
▁spar	-10830
▁sper	-10831
▁thib	-10832
▁tier	-10833
▁ties	-10834
▁tran	-10835
▁trop	-10836
▁tune	-10837
▁ummm	-10838
▁unbi	-10839
▁vari	-10840
▁vase	-10841
▁vaxx	-10842
▁vert	-10843
▁warn	-10844
▁weep	-10845
▁wiki	-10846
▁worn	-10847
▁yall	-10848
1|1|0|	-10849
before	-10850
bility	-10851
binary	-10852
eapple	-10853
etical	-10854
family	-10855
gatory	-10856
icable	-10857
icated	-10858
iguous	-10859
inates	-10860
intell	-10861
ippers	-10862
irical	-10863
izable	-10864
lahoma	-10865
morbid	-10866
ontane	-10867
orpion	-10868
ounded	-10869
phones	-10870
priced	-10871
resent	-10872
should	-10873
thouse	-10874
uccess	-10875
urious	-10876
utions	-10877
veland	-10878
worker	-10879
▁.....	-10880
▁2017.	-10881
▁aight	-10882
▁alarm	-10883
▁aloof	-10884
▁amaze	-10885
▁amput	-10886
▁apost	-10887
▁arena	-10888
▁backf	-10889
▁bands	-10890
▁barbe	-10891
▁batch	-10892
▁bever	-10893
▁bloom	-10894
▁booty	-10895
▁bravo	-10896
▁brink	-10897
▁broom	-10898
▁bunny	-10899
▁cameo	-10900
▁cargo	-10901
▁chrom	-10902
▁cinem	-10903
▁cuter	-10904
▁cyber	-10905
▁dinos	-10906
▁dutch	-10907
▁embar	-10908
▁enact	-10909
▁entry	-10910
▁fewer	-10911
▁fluid	-10912
▁frown	-10913
▁funds	-10914
▁fuuuu	-10915
▁gangs	-10916
▁genre	-10917
▁glued	-10918
▁grant	-10919
▁greet	-10920
▁heret	-10921
▁hills	-10922
▁hoped	-10923
▁idaho	-10924
▁incon	-10925
▁indul	-10926
▁jewel	-10927
▁jones	-10928
▁kicks	-10929
▁laser	-10930
▁livin	-10931
▁ludic	-10932
▁meets	-10933
▁melod	-10934
▁negat	-10935
▁ninja	-10936
▁ounce	-10937
▁overd	-10938
▁pairs	-10939
▁pause	-10940
▁piano	-10941
▁picky	-10942
▁pitts	-10943
▁polio	-10944
▁poops	-10945
▁prest	-10946
▁proph	-10947
▁prude	-10948
▁rabid	-10949
▁rainy	-10950
▁ranks	-10951
▁reall	-10952
▁relie	-10953
▁saudi	-10954
▁sects	-10955
▁sheet	-10956
▁spawn	-10957
▁stain	-10958
▁swamp	-10959
▁syrup	-10960
▁taxed	-10961
▁tools	-10962
▁totes	-10963
▁tryna	-10964
▁tyran	-10965
▁uncer	-10966
▁unfam	-10967
▁urges	-10968
▁usage	-10969
▁versa	-10970
▁vocab	-10971
▁wrest	-10972
▁⠀⠀⠀⠀⠀	-10973
bywords	-10974
ciously	-10975
ensions	-10976
entious	-10977
eworthy	-10978
gnitive	-10979
iiiiika	-10980
istence	-10981
natural	-10982
opolies	-10983
pelling	-10984
ruption	-10985
seeable	-10986
someone	-10987
thought	-10988
uctions	-10989
vention	-10990
walking	-10991
▁$1,000	-10992
▁10,000	-10993
▁angels	-10994
▁appreh	-10995
▁attrib	-10996
▁beside	-10997
▁bishop	-10998
▁blonde	-10999
▁boomer	-11000
▁brazen	-11001
▁brazil	-11002
▁bricks	-11003
▁bucket	-11004
▁bugged	-11005
▁cheeky	-11006
▁crunch	-11007
▁deaths	-11008
▁dental	-11009
▁discon	-11010
▁disson	-11011
▁dodger	-11012
▁donald	-11013
▁entity	-11014
▁exceed	-11015
▁explic	-11016
▁fathom	-11017
▁flower	-11018
▁fluffy	-11019
▁fooled	-11020
▁freaks	-11021
▁freely	-11022
▁garage	-11023
▁gluten	-11024
▁grades	-11025
▁guards	-11026
▁halluc	-11027
▁hazard	-11028
▁heroin	-11029
▁iconic	-11030
▁indict	-11031
▁ingred	-11032
▁insert	-11033
▁insuff	-11034
▁jacket	-11035
▁junior	-11036
▁legisl	-11037
▁length	-11038
▁lesser	-11039
▁lovers	-11040
▁luxury	-11041
▁madden	-11042
▁matrix	-11043
▁mighty	-11044
▁mumble	-11045
▁mutant	-11046
▁oppose	-11047
▁outlet	-11048
▁palace	-11049
▁plague	-11050
▁polyam	-11051
▁prizes	-11052
▁qualif	-11053
▁quotes	-11054
▁reaper	-11055
▁resort	-11056
▁revers	-11057
▁revive	-11058
▁robots	-11059
▁rooted	-11060
▁ruling	-11061
▁scotch	-11062
▁select	-11063
▁sheets	-11064
▁skewed	-11065
▁smelly	-11066
▁statue	-11067
▁stigma	-11068
▁stores	-11069
▁stroke	-11070
▁supply	-11071
▁suprem	-11072
▁sweden	-11073
▁temple	-11074
▁thrash	-11075
▁tigers	-11076
▁trains	-11077
▁trendy	-11078
▁trivia	-11079
▁tunnel	-11080
▁turtle	-11081
▁upside	-11082
▁wished	-11083
▁❤️❤️❤️	-11084
ashville	-11085
cemetery	-11086
downvote	-11087
murdered	-11088
ordinary	-11089
recating	-11090
▁assists	-11091
▁beggars	-11092
▁brexite	-11093
▁britain	-11094
▁bullies	-11095
▁casinos	-11096
▁catered	-11097
▁chasing	-11098
▁choking	-11099
▁comedic	-11100
▁compass	-11101
▁cruelty	-11102
▁cycling	-11103
▁deliver	-11104
▁denying	-11105
▁desired	-11106
▁doubled	-11107
▁dunking	-11108
▁dynasty	-11109
▁earning	-11110
▁editing	-11111
▁efforts	-11112
▁epitome	-11113
▁evident	-11114
▁expense	-11115
▁eyebrow	-11116
▁farmers	-11117
▁farther	-11118
▁finland	-11119
▁fleeing	-11120
▁freakin	-11121
▁grossed	-11122
▁guitars	-11123
▁honored	-11124
▁israeli	-11125
▁jerking	-11126
▁kingdom	-11127
▁kissing	-11128
▁lawsuit	-11129
▁leftist	-11130
▁lessons	-11131
▁manages	-11132
▁midwest	-11133
▁motorcy	-11134
▁mystery	-11135
▁nagging	-11136
▁normies	-11137
▁operate	-11138
▁origins	-11139
▁overeat	-11140
▁persona	-11141
▁phoenix	-11142
▁pitcher	-11143
▁pointed	-11144
▁portion	-11145
▁pouring	-11146
▁presume	-11147
▁psyched	-11148
▁radical	-11149
▁ratings	-11150
▁reaches	-11151
▁receipt	-11152
▁rethink	-11153
▁revoked	-11154
▁romance	-11155
▁secular	-11156
▁seekers	-11157
▁session	-11158
▁settled	-11159
▁shorter	-11160
▁sidebar	-11161
▁sliding	-11162
▁smarter	-11163
▁stalked	-11164
▁stealth	-11165
▁strikes	-11166
▁swedish	-11167
▁teaming	-11168
▁thieves	-11169
▁thirsty	-11170
▁trusted	-11171
▁twisted	-11172
▁unclear	-11173
▁unheard	-11174
▁unwatch	-11175
▁vietnam	-11176
▁village	-11177
▁warrant	-11178
▁whereas	-11179
▁workout	-11180
▁wouldve	-11181
▁yesssss	-11182
▁|1|1|0|	-11183
▁activist	-11184
▁advisors	-11185
▁agencies	-11186
▁agreeing	-11187
▁anecdote	-11188
▁approved	-11189
▁atheists	-11190
▁avoiding	-11191
▁brigaded	-11192
▁brooklyn	-11193
▁brownies	-11194
▁carolina	-11195
▁censored	-11196
▁chapters	-11197
▁chickens	-11198
▁closeted	-11199
▁collapse	-11200
▁contacts	-11201
▁cringing	-11202
▁damaging	-11203
▁darkness	-11204
▁defining	-11205
▁deleting	-11206
▁directed	-11207
▁discount	-11208
▁distaste	-11209
▁ecstatic	-11210
▁figuring	-11211
▁floating	-11212
▁freshman	-11213
▁funerals	-11214
▁gaslight	-11215
▁graduate	-11216
▁illegals	-11217
▁imperson	-11218
▁laughter	-11219
▁laziness	-11220
▁meetings	-11221
▁misinter	-11222
▁missions	-11223
▁monsters	-11224
▁numerous	-11225
▁outraged	-11226
▁outright	-11227
▁panicked	-11228
▁peaceful	-11229
▁petition	-11230
▁pipeline	-11231
▁pleasing	-11232
▁populism	-11233
▁predator	-11234
▁proposal	-11235
▁recorded	-11236
▁redesign	-11237
▁reincarn	-11238
▁returned	-11239
▁riddance	-11240
▁roasting	-11241
▁scorpion	-11242
▁scripted	-11243
▁semester	-11244
▁shootout	-11245
▁sneaking	-11246
▁soldiers	-11247
▁spaghett	-11248
▁spontane	-11249
▁stadiums	-11250
▁substant	-11251
▁suggests	-11252
▁transfor	-11253
▁unbiased	-11254
▁unicorns	-11255
▁upvoting	-11256
▁vanished	-11257
▁versions	-11258
▁villains	-11259
▁adventure	-11260
▁advertise	-11261
▁ambiguous	-11262
▁anarchism	-11263
▁andromeda	-11264
▁arbitrary	-11265
▁assistant	-11266
▁authority	-11267
▁chemicals	-11268
▁chiiiiika	-11269
▁cigarette	-11270
▁commenter	-11271
▁counselor	-11272
▁crybabies	-11273
▁defenders	-11274
▁delighted	-11275
▁developer	-11276
▁discourse	-11277
▁donations	-11278
▁elections	-11279
▁eliminate	-11280
▁exhausted	-11281
▁fantasize	-11282
▁goodnight	-11283
▁immigrant	-11284
▁incentive	-11285
▁initiated	-11286
▁liverpool	-11287
▁locations	-11288
▁lucrative	-11289
▁nominated	-11290
▁officials	-11291
▁picturing	-11292
▁pineapple	-11293
▁practical	-11294
▁qualities	-11295
▁repeating	-11296
▁reproduce	-11297
▁rewarding	-11298
▁selection	-11299
▁shootings	-11300
▁simulator	-11301
▁slaughter	-11302
▁snowflake	-11303
▁startling	-11304
▁storyline	-11305
▁strangest	-11306
▁substance	-11307
▁suggested	-11308
▁surprises	-11309
▁suspended	-11310
▁tolerance	-11311
▁uncertain	-11312
▁vegetable	-11313
▁violating	-11314
▁worldwide	-11315
interesting	-11316
questioning	-11317
▁addressing	-11318
▁associated	-11319
▁biological	-11320
▁circlejerk	-11321
▁commentary	-11322
▁comparable	-11323
▁compromise	-11324
▁concussion	-11325
▁creativity	-11326
▁distracted	-11327
▁domination	-11328
▁exploiting	-11329
▁foundation	-11330
▁goosebumps	-11331
▁historical	-11332
▁initiative	-11333
▁innovative	-11334
▁masturbate	-11335
▁moderation	-11336
▁motivation	-11337
▁negatively	-11338
▁negativity	-11339
▁overpriced	-11340
▁overweight	-11341
▁pedophilia	-11342
▁pleasantly	-11343
▁possession	-11344
▁pressuring	-11345
▁proportion	-11346
▁repeatedly	-11347
▁respecting	-11348
▁scientific	-11349
▁submission	-11350
▁synonymous	-11351
▁unfamiliar	-11352
▁witnessing	-11353
▁corporation	-11354
▁discovering	-11355
▁efficiently	-11356
▁elimination	-11357
▁identifying	-11358
▁ingredients	-11359
▁interrupted	-11360
▁misinformed	-11361
▁objectively	-11362
▁permanently	-11363
▁pretentious	-11364
▁recognition	-11365
▁respectable	-11366
▁speculation	-11367
▁statistical	-11368
▁subscribers	-11369
▁terminology	-11370
▁unsubscribe	-11371
▁unwatchable	-11372
▁corporations	-11373
▁distribution	-11374
▁intimidating	-11375
▁manufactured	-11376
▁narcissistic	-11377
▁notification	-11378
▁overreacting	-11379
▁presidential	-11380
▁psychologist	-11381
▁restrictions	-11382
▁transactions	-11383
▁encouragement	-11384
▁extraordinary	-11385
▁irresponsible	-11386
▁justification	-11387
murderedbywords	-11388
▁generalization	-11389
▁implementation	-11390
▁representative	-11391
▁transportation	-11392
▁unprofessional	-11393
hhhhhhhhhhhhhhhh	-11394
▁counterargument	-11395
-6	-11396
-8	-11397
-:	-11398
1)	-11399
1?	-11400
28	-11401
60	-11402
97	-11403
fp	-11404
gt	-11405
hp	-11406
hz	-11407
kb	-11408
ko	-11409
mc	-11410
tv	-11411
zi	-11412
▁́	-11413
▁͜	-11414
▁€	-11415
▁😐	-11416
▁😤	-11417
💦👏	-11418
!!"	-11419
/50	-11420
]?"	-11421
add	-11422
alm	-11423
asg	-11424
ata	-11425
cla	-11426
del	-11427
die	-11428
eat	-11429
erb	-11430
exc	-11431
fab	-11432
ffs	-11433
fin	-11434
fly	-11435
fur	-11436
gia	-11437
got	-11438
gra	-11439
gur	-11440
hel	-11441
ico	-11442
isu	-11443
kea	-11444
kid	-11445
mag	-11446
oni	-11447
oos	-11448
pod	-11449
pre	-11450
rds	-11451
sta	-11452
tee	-11453
tom	-11454
tur	-11455
two	-11456
vag	-11457
vis	-11458
wtf	-11459
www	-11460
xis	-11461
zel	-11462
▁"*	-11463
▁$5	-11464
▁+1	-11465
▁2-	-11466
▁49	-11467
▁5'	-11468
▁72	-11469
▁76	-11470
▁85	-11471
▁:[	-11472
▁:’	-11473
▁cp	-11474
▁fc	-11475
▁ga	-11476
▁gw	-11477
▁hp	-11478
▁kp	-11479
▁ks	-11480
▁ls	-11481
▁mm	-11482
▁mn	-11483
▁ou	-11484
▁oy	-11485
▁pw	-11486
▁tu	-11487
▁uw	-11488
▁va	-11489
▁☹️	-11490
▁👍🏻	-11491
▁😭😭	-11492
****	-11493
aled	-11494
ames	-11495
anky	-11496
ayed	-11497
bath	-11498
both	-11499
camp	-11500
case	-11501
cott	-11502
cuss	-11503
dead	-11504
edul	-11505
erie	-11506
eros	-11507
erts	-11508
ffin	-11509
film	-11510
gggg	-11511
ggle	-11512
ghhh	-11513
goat	-11514
grou	-11515
hate	-11516
idas	-11517
iege	-11518
ifer	-11519
iltr	-11520
ingu	-11521
inth	-11522
inum	-11523
iscu	-11524
isma	-11525
jang	-11526
kest	-11527
kies	-11528
lose	-11529
meal	-11530
mmmm	-11531
move	-11532
nity	-11533
ooks	-11534
opia	-11535
oria	-11536
orie	-11537
ours	-11538
pack	-11539
pent	-11540
phas	-11541
poor	-11542
push	-11543
riga	-11544
rill	-11545
rise	-11546
rums	-11547
sarc	-11548
soft	-11549
sses	-11550
tage	-11551
tell	-11552
test	-11553
thed	-11554
true	-11555
vada	-11556
vite	-11557
weet	-11558
will	-11559
wink	-11560
wish	-11561
ythe	-11562
▁$10	-11563
▁$15	-11564
▁35.	-11565
▁;-)	-11566
▁amd	-11567
▁ami	-11568
▁amy	-11569
▁asc	-11570
▁bmw	-11571
▁bog	-11572
▁coc	-11573
▁cyb	-11574
▁dia	-11575
▁dmt	-11576
▁dnc	-11577
▁dsj	-11578
▁dye	-11579
▁erm	-11580
▁exs	-11581
▁fog	-11582
▁gms	-11583
▁hud	-11584
▁hyd	-11585
▁ikr	-11586
▁ish	-11587
▁iso	-11588
▁jur	-11589
▁kab	-11590
▁ken	-11591
▁lat	-11592
▁lod	-11593
▁mim	-11594
▁mlm	-11595
▁nae	-11596
▁nex	-11597
▁nie	-11598
▁npc	-11599
▁oat	-11600
▁ole	-11601
▁ops	-11602
▁ord	-11603
▁pak	-11604
▁pau	-11605
▁pdf	-11606
▁pik	-11607
▁pkk	-11608
▁pms	-11609
▁pnw	-11610
▁rit	-11611
▁rlm	-11612
▁sar	-11613
▁spr	-11614
▁tee	-11615
▁tes	-11616
▁tfw	-11617
▁tha	-11618
▁vil	-11619
▁wif	-11620
abuse	-11621
acito	-11622
aines	-11623
aline	-11624
amisu	-11625
ansas	-11626
artan	-11627
arthe	-11628
asgow	-11629
athed	-11630
berty	-11631
bling	-11632
chand	-11633
ching	-11634
eaker	-11635
forms	-11636
getic	-11637
ggers	-11638
guise	-11639
haaaa	-11640
hello	-11641
icies	-11642
ijing	-11643
inals	-11644
itism	-11645
level	-11646
lfast	-11647
maker	-11648
money	-11649
oning	-11650
ormon	-11651
otect	-11652
otomy	-11653
ouses	-11654
overs	-11655
place	-11656
plain	-11657
plant	-11658
ports	-11659
quent	-11660
rator	-11661
since	-11662
sssss	-11663
still	-11664
sting	-11665
takes	-11666
their	-11667
thers	-11668
those	-11669
ucing	-11670
umble	-11671
ungus	-11672
unken	-11673
uuuck	-11674
vably	-11675
voted	-11676
water	-11677
worth	-11678
yssey	-11679
▁.500	-11680
▁1970	-11681
▁1996	-11682
▁2008	-11683
▁2011	-11684
▁2012	-11685
▁abst	-11686
▁apes	-11687
▁aven	-11688
▁avoc	-11689
▁bail	-11690
▁bans	-11691
▁bees	-11692
▁belg	-11693
▁blas	-11694
▁conj	-11695
▁cord	-11696
▁cray	-11697
▁curs	-11698
▁dads	-11699
▁dive	-11700
▁doin	-11701
▁dome	-11702
▁dood	-11703
▁euth	-11704
▁exes	-11705
▁eyel	-11706
▁fame	-11707
▁fist	-11708
▁fled	-11709
▁fuss	-11710
▁fwiw	-11711
▁guid	-11712
▁hust	-11713
▁ikea	-11714
▁knot	-11715
▁leaf	-11716
▁liga	-11717
▁limp	-11718
▁liqu	-11719
▁lung	-11720
▁mlms	-11721
▁mush	-11722
▁nasa	-11723
▁ncaa	-11724
▁nint	-11725
▁olig	-11726
▁paul	-11727
▁peep	-11728
▁pens	-11729
▁pope	-11730
▁puff	-11731
▁rags	-11732
▁rand	-11733
▁rect	-11734
▁robo	-11735
▁rome	-11736
▁saus	-11737
▁sedu	-11738
▁seed	-11739
▁shun	-11740
▁slot	-11741
▁snoo	-11742
▁stup	-11743
▁sync	-11744
▁ther	-11745
▁trim	-11746
▁vids	-11747
▁weeb	-11748
▁whom	-11749
▁wolf	-11750
▁worm	-11751
abouts	-11752
acists	-11753
active	-11754
advice	-11755
cation	-11756
checks	-11757
ducing	-11758
earing	-11759
edited	-11760
flower	-11761
hinged	-11762
hockey	-11763
humane	-11764
ickers	-11765
ilized	-11766
ingles	-11767
iotics	-11768
itated	-11769
lander	-11770
libert	-11771
lished	-11772
mentia	-11773
minent	-11774
modern	-11775
omfort	-11776
orters	-11777
ortion	-11778
otraph	-11779
ounter	-11780
rators	-11781
shield	-11782
taking	-11783
tening	-11784
ternal	-11785
urning	-11786
▁100%.	-11787
▁2018.	-11788
▁2020.	-11789
▁50/50	-11790
▁aaaaa	-11791
▁allig	-11792
▁angel	-11793
▁ashes	-11794
▁asper	-11795
▁asses	-11796
▁babys	-11797
▁began	-11798
▁binge	-11799
▁bison	-11800
▁bland	-11801
▁blank	-11802
▁brawl	-11803
▁cabin	-11804
▁canny	-11805
▁cocon	-11806
▁coins	-11807
▁conce	-11808
▁curls	-11809
▁curly	-11810
▁debat	-11811
▁debut	-11812
▁deeds	-11813
▁demol	-11814
▁disad	-11815
▁dodgy	-11816
▁drain	-11817
▁drank	-11818
▁essay	-11819
▁excel	-11820
▁facet	-11821
▁fails	-11822
▁faked	-11823
▁feeds	-11824
▁forms	-11825
▁gamer	-11826
▁gospe	-11827
▁groan	-11828
▁grump	-11829
▁heals	-11830
▁hmmmm	-11831
▁hoard	-11832
▁imgur	-11833
▁indie	-11834
▁inept	-11835
▁innoc	-11836
▁inval	-11837
▁isles	-11838
▁jumps	-11839
▁knobs	-11840
▁lakes	-11841
▁leans	-11842
▁lemme	-11843
▁lingo	-11844
▁magaz	-11845
▁meals	-11846
▁mills	-11847
▁modes	-11848
▁nihil	-11849
▁noone	-11850
▁nukes	-11851
▁onion	-11852
▁overt	-11853
▁pedal	-11854
▁peers	-11855
▁pelic	-11856
▁posse	-11857
▁rapes	-11858
▁ratio	-11859
▁reeks	-11860
▁rider	-11861
▁risks	-11862
▁santa	-11863
▁sends	-11864
▁sheer	-11865
▁shhhh	-11866
▁shiny	-11867
▁shred	-11868
▁sided	-11869
▁siege	-11870
▁skype	-11871
▁slack	-11872
▁sonic	-11873
▁sperm	-11874
▁stale	-11875
▁sting	-11876
▁swast	-11877
▁swift	-11878
▁swiss	-11879
▁sworn	-11880
▁tiddy	-11881
▁titan	-11882
▁tread	-11883
▁tutor	-11884
▁unple	-11885
▁unsol	-11886
▁veins	-11887
▁verge	-11888
▁vests	-11889
▁walks	-11890
▁yards	-11891
▁🤷🏼‍♀️	-11892
artheid	-11893
average	-11894
capital	-11895
checked	-11896
cluding	-11897
empting	-11898
ifiable	-11899
inguish	-11900
itative	-11901
iterate	-11902
lements	-11903
mbering	-11904
olicism	-11905
osexual	-11906
protect	-11907
venient	-11908
warming	-11909
western	-11910
▁affirm	-11911
▁albums	-11912
▁allows	-11913
▁almond	-11914
▁argued	-11915
▁assemb	-11916
▁assert	-11917
▁august	-11918
▁bachel	-11919
▁barber	-11920
▁basics	-11921
▁blindf	-11922
▁brands	-11923
▁bronze	-11924
▁buried	-11925
▁burner	-11926
▁candle	-11927
▁chairs	-11928
▁chants	-11929
▁cheats	-11930
▁clicks	-11931
▁cohort	-11932
▁condom	-11933
▁coyote	-11934
▁deadly	-11935
▁dealer	-11936
▁defect	-11937
▁doubts	-11938
▁drones	-11939
▁editor	-11940
▁emojis	-11941
▁escort	-11942
▁expose	-11943
▁fiance	-11944
▁fiancé	-11945
▁fields	-11946
▁filler	-11947
▁filter	-11948
▁gained	-11949
▁giggle	-11950
▁goalie	-11951
▁greens	-11952
▁harmed	-11953
▁heated	-11954
▁hitler	-11955
▁horrid	-11956
▁judged	-11957
▁keeper	-11958
▁layers	-11959
▁leaked	-11960
▁learnt	-11961
▁liable	-11962
▁lizard	-11963
▁louder	-11964
▁maniac	-11965
▁manila	-11966
▁misrep	-11967
▁multit	-11968
▁needle	-11969
▁oldest	-11970
▁onward	-11971
▁ottawa	-11972
▁overse	-11973
▁oxford	-11974
▁paraph	-11975
▁patron	-11976
▁peanut	-11977
▁pickup	-11978
▁pisses	-11979
▁pliers	-11980
▁portal	-11981
▁praxis	-11982
▁preced	-11983
▁prosth	-11984
▁prover	-11985
▁ration	-11986
▁reduce	-11987
▁refers	-11988
▁reload	-11989
▁render	-11990
▁resemb	-11991
▁resume	-11992
▁retain	-11993
▁ritual	-11994
▁rivals	-11995
▁scorer	-11996
▁scrubs	-11997
▁scythe	-11998
▁shamed	-11999
▁shhhhh	-12000
▁soccer	-12001
▁sovere	-12002
▁staged	-12003
▁stamps	-12004
▁strive	-12005
▁sucker	-12006
▁suffoc	-12007
▁summed	-12008
▁tekken	-12009
▁texted	-12010
▁themed	-12011
▁towing	-12012
▁tricky	-12013
▁triple	-12014
▁unsafe	-12015
▁untrue	-12016
▁updoot	-12017
▁vendor	-12018
▁voiced	-12019
▁witten	-12020
▁wounds	-12021
▁yessir	-12022
ammatory	-12023
educated	-12024
ongering	-12025
orporate	-12026
riptions	-12027
semitism	-12028
terrible	-12029
▁accuses	-12030
▁admired	-12031
▁affairs	-12032
▁alleged	-12033
▁amongst	-12034
▁anatomy	-12035
▁apology	-12036
▁approve	-12037
▁athlete	-12038
▁audible	-12039
▁audibly	-12040
▁bashing	-12041
▁bearing	-12042
▁beijing	-12043
▁belfast	-12044
▁beloved	-12045
▁blindly	-12046
▁blunder	-12047
▁bonding	-12048
▁cheered	-12049
▁chungus	-12050
▁clarify	-12051
▁cleaner	-12052
▁clemson	-12053
▁clipped	-12054
▁closest	-12055
▁commies	-12056
▁confess	-12057
▁conflic	-12058
▁consume	-12059
▁cottage	-12060
▁cracker	-12061
▁creeped	-12062
▁crosses	-12063
▁damages	-12064
▁deluded	-12065
▁demoral	-12066
▁devices	-12067
▁dispens	-12068
▁dragged	-12069
▁drunken	-12070
▁endgame	-12071
▁enslave	-12072
▁exhibit	-12073
▁explore	-12074
▁fanbase	-12075
▁fathers	-12076
▁fighter	-12077
▁follows	-12078
▁funeral	-12079
▁furries	-12080
▁gagging	-12081
▁genders	-12082
▁ghosted	-12083
▁giggled	-12084
▁grounds	-12085
▁habitat	-12086
▁hamster	-12087
▁harmful	-12088
▁hatchet	-12089
▁idiotic	-12090
▁illegit	-12091
▁impacts	-12092
▁impeach	-12093
▁implies	-12094
▁inexper	-12095
▁infiltr	-12096
▁insider	-12097
▁invaded	-12098
▁jewelry	-12099
▁lawyers	-12100
▁lunatic	-12101
▁markets	-12102
▁minimal	-12103
▁minions	-12104
▁mondays	-12105
▁monitor	-12106
▁monthly	-12107
▁motives	-12108
▁nursing	-12109
▁odyssey	-12110
▁offices	-12111
▁outlets	-12112
▁outlive	-12113
▁overest	-12114
▁pacific	-12115
▁pallets	-12116
▁peanuts	-12117
▁physics	-12118
▁pikachu	-12119
▁planned	-12120
▁premium	-12121
▁prisons	-12122
▁puberty	-12123
▁raising	-12124
▁relaxed	-12125
▁removal	-12126
▁revenue	-12127
▁reviews	-12128
▁rocking	-12129
▁rotting	-12130
▁scammed	-12131
▁schedul	-12132
▁scooter	-12133
▁screens	-12134
▁segment	-12135
▁sibling	-12136
▁simpler	-12137
▁sincere	-12138
▁skipped	-12139
▁smelled	-12140
▁soldier	-12141
▁spartan	-12142
▁spotify	-12143
▁stating	-12144
▁sticker	-12145
▁streaml	-12146
▁suffers	-12147
▁texting	-12148
▁thunder	-12149
▁tipping	-12150
▁tourist	-12151
▁trained	-12152
▁turkish	-12153
▁veteran	-12154
▁vitamin	-12155
▁wayyyyy	-12156
▁whiskey	-12157
▁wiggins	-12158
▁wizards	-12159
▁wording	-12160
▁zombies	-12161
ooooooooo	-12162
seriously	-12163
something	-12164
statement	-12165
▁adoption	-12166
▁advanced	-12167
▁assassin	-12168
▁assigned	-12169
▁athletic	-12170
▁attached	-12171
▁believer	-12172
▁blackout	-12173
▁blessing	-12174
▁captured	-12175
▁category	-12176
▁chainsaw	-12177
▁channels	-12178
▁charisma	-12179
▁checkers	-12180
▁cheering	-12181
▁conflict	-12182
▁confuses	-12183
▁contempt	-12184
▁contrary	-12185
▁contrast	-12186
▁controls	-12187
▁credited	-12188
▁crushing	-12189
▁deadline	-12190
▁dementia	-12191
▁designer	-12192
▁diabetic	-12193
▁dirtiest	-12194
▁diseases	-12195
▁disguise	-12196
▁domestic	-12197
▁dominate	-12198
▁employed	-12199
▁employer	-12200
▁enforced	-12201
▁expenses	-12202
▁feminine	-12203
▁fleeting	-12204
▁flooding	-12205
▁gigantic	-12206
▁guidance	-12207
▁halftime	-12208
▁hamsters	-12209
▁hartford	-12210
▁homework	-12211
▁imported	-12212
▁inflated	-12213
▁inhumane	-12214
▁invested	-12215
▁irration	-12216
▁lighting	-12217
▁majestic	-12218
▁managers	-12219
▁matching	-12220
▁meantime	-12221
▁mentions	-12222
▁migraine	-12223
▁mushroom	-12224
▁occasion	-12225
▁ordinary	-12226
▁outcomes	-12227
▁outdated	-12228
▁overdose	-12229
▁overpaid	-12230
▁pakistan	-12231
▁parallel	-12232
▁partisan	-12233
▁patterns	-12234
▁physique	-12235
▁platinum	-12236
▁pleading	-12237
▁policies	-12238
▁presence	-12239
▁pressing	-12240
▁prestige	-12241
▁princess	-12242
▁promised	-12243
▁proposed	-12244
▁protocol	-12245
▁provides	-12246
▁punished	-12247
▁quadriga	-12248
▁rambling	-12249
▁rotation	-12250
▁scumbags	-12251
▁seahawks	-12252
▁sessions	-12253
▁shoutout	-12254
▁singular	-12255
▁sinister	-12256
▁smallest	-12257
▁spoilers	-12258
▁spouting	-12259
▁squirrel	-12260
▁starters	-12261
▁stepping	-12262
▁sunshine	-12263
▁template	-12264
▁thrilled	-12265
▁tiramisu	-12266
▁unhinged	-12267
▁veganism	-12268
▁virginia	-12269
▁vomiting	-12270
▁waitress	-12271
▁weakness	-12272
▁websites	-12273
▁weekends	-12274
▁weirdest	-12275
ationships	-12276
otraphouse	-12277
unexpected	-12278
ustainable	-12279
▁acknowled	-12280
▁affection	-12281
▁apartheid	-12282
▁appealing	-12283
▁backstory	-12284
▁bartender	-12285
▁brigading	-12286
▁childcare	-12287
▁cinematic	-12288
▁clarified	-12289
▁converted	-12290
▁convicted	-12291
▁definetly	-12292
▁dependent	-12293
▁detective	-12294
▁districts	-12295
▁educating	-12296
▁empathize	-12297
▁enlighten	-12298
▁evidently	-12299
▁exploited	-12300
▁fireworks	-12301
▁flashback	-12302
▁gentlemen	-12303
▁healthier	-12304
▁hypocrite	-12305
▁immediate	-12306
▁improving	-12307
▁integrity	-12308
▁intervene	-12309
▁involving	-12310
▁kidnapped	-12311
▁legalized	-12312
▁migraines	-12313
▁mistaking	-12314
▁murdering	-12315
▁murderous	-12316
▁nashville	-12317
▁nonbinary	-12318
▁nostalgia	-12319
▁operating	-12320
▁organized	-12321
▁overlords	-12322
▁pandering	-12323
▁partially	-12324
▁permitted	-12325
▁platforms	-12326
▁principle	-12327
▁proactive	-12328
▁procedure	-12329
▁processes	-12330
▁profanity	-12331
▁promising	-12332
▁promoting	-12333
▁pronounce	-12334
▁proposing	-12335
▁quotation	-12336
▁rationale	-12337
▁rejection	-12338
▁renewable	-12339
▁returning	-12340
▁roommates	-12341
▁satirical	-12342
▁scapegoat	-12343
▁shoveling	-12344
▁showering	-12345
▁signaling	-12346
▁specified	-12347
▁surgeries	-12348
▁technical	-12349
▁terrorism	-12350
▁throwback	-12351
▁toothless	-12352
▁universal	-12353
▁untrained	-12354
▁willfully	-12355
▁witnessed	-12356
advertently	-12357
deprecating	-12358
▁admittedly	-12359
▁aggression	-12360
▁announcers	-12361
▁artificial	-12362
▁attempting	-12363
▁boundaries	-12364
▁compassion	-12365
▁compelling	-12366
▁continuous	-12367
▁corruption	-12368
▁definitive	-12369
▁deflecting	-12370
▁developers	-12371
▁discomfort	-12372
▁dissonance	-12373
▁expressing	-12374
▁foreigners	-12375
▁forgetting	-12376
▁functional	-12377
▁illiterate	-12378
▁inherently	-12379
▁interviews	-12380
▁intimidate	-12381
▁liberalism	-12382
▁loneliness	-12383
▁moderators	-12384
▁monogamous	-12385
▁mysterious	-12386
▁noticeable	-12387
▁pedophiles	-12388
▁pittsburgh	-12389
▁presidents	-12390
▁psychology	-12391
▁rebuilding	-12392
▁simplistic	-12393
▁snowflakes	-12394
▁staggering	-12395
▁structured	-12396
▁submissive	-12397
▁sufficient	-12398
▁suspicions	-12399
▁transplant	-12400
▁unpleasant	-12401
▁worthwhile	-12402
876543234567	-12403
▁allegations	-12404
▁catholicism	-12405
▁commentator	-12406
▁controlling	-12407
▁endangering	-12408
▁engineering	-12409
▁evangelical	-12410
▁fundamental	-12411
▁gatekeeping	-12412
▁imperialism	-12413
▁institution	-12414
▁intensifies	-12415
▁limitations	-12416
▁mindblowing	-12417
▁multiplayer	-12418
▁narcissists	-12419
▁nervousness	-12420
▁participate	-12421
▁potentially	-12422
▁problematic	-12423
▁punctuation	-12424
▁roundabouts	-12425
▁slaughtered	-12426
▁temperature	-12427
▁transphobia	-12428
▁wonderfully	-12429
▁accomplished	-12430
▁announcement	-12431
▁appreciation	-12432
▁compilations	-12433
▁contribution	-12434
▁hahahahahaha	-12435
▁heartwarming	-12436
▁hypothetical	-12437
▁implications	-12438
▁incompetence	-12439
▁intervention	-12440
▁irrationally	-12441
▁overestimate	-12442
▁overthinking	-12443
▁psychopathic	-12444
▁temperatures	-12445
▁unbelievably	-12446
▁statistically	-12447
▁unconditional	-12448
uuuuuuuuuuuuuuuu	-12449
▁representatives	-12450
▁unintentionally	-12451
"!	-12452
")	-12453
'?	-12454
./	-12455
/5	-12456
08	-12457
16	-12458
27	-12459
42	-12460
49	-12461
6!	-12462
76	-12463
df	-12464
fi	-12465
gc	-12466
gd	-12467
hd	-12468
iq	-12469
kn	-12470
mn	-12471
ni	-12472
pi	-12473
uj	-12474
vm	-12475
wo	-12476
|2	-12477
▁💖	-12478
▁😇	-12479
▁😘	-12480
▁😞	-12481
▁😫	-12482
▁😳	-12483
☁️	-12484
✔️	-12485
⠃⠀	-12486
⠉⠉	-12487
⠘⣿	-12488
⣶⣶	-12489
⣾⡟	-12490
🇺🇸	-12491
👌👌	-12492
💀💀	-12493
!**	-12494
*."	-12495
---	-12496
25.	-12497
50.	-12498
TM️	-12499
^^^	-12500
aik	-12501
ali	-12502
azy	-12503
bie	-12504
bij	-12505
bob	-12506
bpd	-12507
ctr	-12508
dam	-12509
deb	-12510
des	-12511
dig	-12512
dri	-12513
esy	-12514
exp	-12515
gat	-12516
gay	-12517
hap	-12518
imi	-12519
inf	-12520
isd	-12521
iso	-12522
iwi	-12523
jpe	-12524
mot	-12525
mou	-12526
mun	-12527
mus	-12528
nap	-12529
nty	-12530
ocu	-12531
opt	-12532
pox	-12533
pri	-12534
psi	-12535
rig	-12536
roc	-12537
sle	-12538
squ	-12539
tes	-12540
tex	-12541
tip	-12542
tri	-12543
tsy	-12544
uge	-12545
ura	-12546
vic	-12547
whi	-12548
▁$9	-12549
▁1:	-12550
▁32	-12551
▁37	-12552
▁59	-12553
▁5?	-12554
▁7,	-12555
▁81	-12556
▁df	-12557
▁ee	-12558
▁ff	-12559
▁ic	-12560
▁ji	-12561
▁ky	-12562
▁lb	-12563
▁ll	-12564
▁pg	-12565
▁qm	-12566
▁qw	-12567
▁ti	-12568
▁tk	-12569
▁ts	-12570
▁uc	-12571
▁xp	-12572
▁‘0	-12573
▁😎😎	-12574
⣿⣿⣿	-12575
1000	-12576
?...	-12577
aden	-12578
agna	-12579
agno	-12580
alds	-12581
ales	-12582
aman	-12583
amen	-12584
amph	-12585
anal	-12586
arms	-12587
asia	-12588
asms	-12589
asso	-12590
bait	-12591
bird	-12592
blem	-12593
bral	-12594
cker	-12595
comp	-12596
cony	-12597
cult	-12598
dank	-12599
dems	-12600
dogs	-12601
emic	-12602
endo	-12603
evil	-12604
feel	-12605
fers	-12606
flop	-12607
four	-12608
gain	-12609
gals	-12610
gets	-12611
ghth	-12612
give	-12613
hard	-12614
hawk	-12615
held	-12616
holm	-12617
home	-12618
hugs	-12619
iden	-12620
idey	-12621
iian	-12622
inal	-12623
inee	-12624
ints	-12625
iser	-12626
isit	-12627
itan	-12628
itos	-12629
izer	-12630
lady	-12631
loca	-12632
lton	-12633
lymp	-12634
mass	-12635
mest	-12636
naut	-12637
ocur	-12638
oden	-12639
offs	-12640
onic	-12641
osit	-12642
page	-12643
phan	-12644
pton	-12645
rael	-12646
rics	-12647
sels	-12648
seum	-12649
snow	-12650
sody	-12651
take	-12652
tech	-12653
tens	-12654
tree	-12655
tttt	-12656
tube	-12657
uber	-12658
uble	-12659
ugal	-12660
umme	-12661
wife	-12662
zzly	-12663
zzzz	-12664
▁$0.	-12665
▁-30	-12666
▁1.5	-12667
▁1/3	-12668
▁105	-12669
▁10:	-12670
▁10?	-12671
▁12.	-12672
▁14.	-12673
▁15%	-12674
▁15+	-12675
▁19.	-12676
▁2.6	-12677
▁3-5	-12678
▁3.0	-12679
▁7-0	-12680
▁9.5	-12681
▁:)!	-12682
▁;-;	-12683
▁^^/	-12684
▁abo	-12685
▁ahl	-12686
▁aid	-12687
▁aka	-12688
▁asf	-12689
▁asg	-12690
▁aye	-12691
▁bou	-12692
▁bun	-12693
▁cay	-12694
▁cia	-12695
▁cob	-12696
▁cus	-12697
▁ddr	-12698
▁dil	-12699
▁dnd	-12700
▁dom	-12701
▁dop	-12702
▁dud	-12703
▁dug	-12704
▁dui	-12705
▁dvd	-12706
▁elf	-12707
▁fry	-12708
▁gaz	-12709
▁gnt	-12710
▁gur	-12711
▁heh	-12712
▁ima	-12713
▁inh	-12714
▁irr	-12715
▁lvl	-12716
▁mlk	-12717
▁mtg	-12718
▁nud	-12719
▁oak	-12720
▁ocd	-12721
▁pix	-12722
▁poe	-12723
▁pou	-12724
▁qbs	-12725
▁ren	-12726
▁ric	-12727
▁sfw	-12728
▁spy	-12729
▁srs	-12730
▁ssd	-12731
▁tlc	-12732
▁tsm	-12733
▁uno	-12734
▁vap	-12735
▁vel	-12736
▁vet	-12737
▁vpr	-12738
▁woe	-12739
▁xox	-12740
▁yaw	-12741
⠶⠶⠶⠶	-12742
🏻‍♂️	-12743
💦👏💦👏	-12744
😡🤬😡🤬	-12745
alism	-12746
allah	-12747
anded	-12748
arris	-12749
asion	-12750
bbing	-12751
berta	-12752
black	-12753
block	-12754
boner	-12755
borne	-12756
brush	-12757
cated	-12758
chill	-12759
cibly	-12760
cover	-12761
death	-12762
depth	-12763
downs	-12764
drama	-12765
drugs	-12766
endar	-12767
enter	-12768
entic	-12769
erers	-12770
ernal	-12771
ested	-12772
favor	-12773
gebob	-12774
gover	-12775
icans	-12776
idity	-12777
iency	-12778
ignty	-12779
ioned	-12780
isive	-12781
ittle	-12782
kicks	-12783
lotte	-12784
meirl	-12785
mitic	-12786
nerdy	-12787
olved	-12788
ophen	-12789
osome	-12790
otine	-12791
peror	-12792
quels	-12793
stalk	-12794
texas	-12795
thood	-12796
times	-12797
train	-12798
urger	-12799
utive	-12800
vance	-12801
verts	-12802
wagon	-12803
wayed	-12804
wrong	-12805
xteen	-12806
zzers	-12807
▁$700	-12808
▁(...	-12809
▁1.85	-12810
▁1/10	-12811
▁2001	-12812
▁2002	-12813
▁5:00	-12814
▁9/10	-12815
▁^^^*	-12816
▁^^^^	-12817
▁____	-12818
▁aram	-12819
▁ayyy	-12820
▁bald	-12821
▁bind	-12822
▁boop	-12823
▁botw	-12824
▁brat	-12825
▁cafe	-12826
▁colo	-12827
▁cron	-12828
▁cycl	-12829
▁dayz	-12830
▁dess	-12831
▁dile	-12832
▁elev	-12833
▁ench	-12834
▁entp	-12835
▁etsy	-12836
▁faul	-12837
▁favs	-12838
▁fict	-12839
▁fisc	-12840
▁flav	-12841
▁foil	-12842
▁fors	-12843
▁gifs	-12844
▁glee	-12845
▁grim	-12846
▁grin	-12847
▁habs	-12848
▁hier	-12849
▁hike	-12850
▁hive	-12851
▁idio	-12852
▁idol	-12853
▁indo	-12854
▁june	-12855
▁khan	-12856
▁kiwi	-12857
▁lact	-12858
▁laop	-12859
▁lawn	-12860
▁leak	-12861
▁lore	-12862
▁luci	-12863
▁lyft	-12864
▁minn	-12865
▁mish	-12866
▁moth	-12867
▁mull	-12868
▁omfg	-12869
▁pale	-12870
▁palp	-12871
▁pine	-12872
▁pubs	-12873
▁rhap	-12874
▁rtts	-12875
▁rust	-12876
▁ruth	-12877
▁scoo	-12878
▁shak	-12879
▁soak	-12880
▁sony	-12881
▁sque	-12882
▁stem	-12883
▁stew	-12884
▁stim	-12885
▁stir	-12886
▁tart	-12887
▁thes	-12888
▁thot	-12889
▁trae	-12890
▁tuck	-12891
▁uhhh	-12892
▁unfo	-12893
▁updo	-12894
▁wana	-12895
▁wand	-12896
▁wink	-12897
▁winn	-12898
▁woof	-12899
▁yawn	-12900
▁zeal	-12901
▁zoom	-12902
▁😂😂😂😂	-12903
⠁⠀⠀⠀⠀	-12904
:-|:-|	-12905
aaaand	-12906
ainted	-12907
alized	-12908
athers	-12909
better	-12910
boards	-12911
colour	-12912
cringe	-12913
diepie	-12914
direct	-12915
eating	-12916
erably	-12917
escape	-12918
ferent	-12919
ffeine	-12920
freude	-12921
fucked	-12922
fundme	-12923
heaven	-12924
hemian	-12925
iculty	-12926
illion	-12927
imited	-12928
inkies	-12929
inking	-12930
ission	-12931
itutes	-12932
jacent	-12933
licity	-12934
lights	-12935
master	-12936
ointed	-12937
opened	-12938
osable	-12939
passed	-12940
perate	-12941
piring	-12942
police	-12943
poster	-12944
ptions	-12945
racist	-12946
scream	-12947
shaped	-12948
snowfl	-12949
stated	-12950
titles	-12951
ussels	-12952
ustome	-12953
uuuuuu	-12954
weaker	-12955
▁!!!!!	-12956
▁$1000	-12957
▁^(...	-12958
▁abhor	-12959
▁adapt	-12960
▁aesth	-12961
▁afaik	-12962
▁ahaha	-12963
▁alpha	-12964
▁alter	-12965
▁angle	-12966
▁arsed	-12967
▁aspie	-12968
▁autob	-12969
▁autop	-12970
▁backs	-12971
▁badge	-12972
▁bantz	-12973
▁beers	-12974
▁biker	-12975
▁blitz	-12976
▁blunt	-12977
▁boooo	-12978
▁brief	-12979
▁cable	-12980
▁cider	-12981
▁climb	-12982
▁clips	-12983
▁clums	-12984
▁comin	-12985
▁condo	-12986
▁crass	-12987
▁creme	-12988
▁crumb	-12989
▁curry	-12990
▁debit	-12991
▁decry	-12992
▁distr	-12993
▁dough	-12994
▁dried	-12995
▁dwell	-12996
▁emasc	-12997
▁emigr	-12998
▁envoy	-12999
▁exerc	-13000
▁farts	-13001
▁fatal	-13002
▁fauna	-13003
▁fifth	-13004
▁filed	-13005
▁fixes	-13006
▁flaws	-13007
▁flirt	-13008
▁foden	-13009
▁forks	-13010
▁gauge	-13011
▁goooo	-13012
▁gummy	-13013
▁hairs	-13014
▁hbomb	-13015
▁hears	-13016
▁hints	-13017
▁homic	-13018
▁islam	-13019
▁jerks	-13020
▁kawhi	-13021
▁lease	-13022
▁leash	-13023
▁loads	-13024
▁lobby	-13025
▁lucas	-13026
▁mango	-13027
▁marks	-13028
▁maxim	-13029
▁mayor	-13030
▁meats	-13031
▁mines	-13032
▁monet	-13033
▁moose	-13034
▁motto	-13035
▁nobel	-13036
▁noped	-13037
▁norms	-13038
▁nudes	-13039
▁olymp	-13040
▁pagan	-13041
▁pamph	-13042
▁parry	-13043
▁payer	-13044
▁penet	-13045
▁pepsi	-13046
▁plast	-13047
▁poems	-13048
▁pwbpd	-13049
▁queue	-13050
▁races	-13051
▁realm	-13052
▁reass	-13053
▁recru	-13054
▁remar	-13055
▁retro	-13056
▁retwe	-13057
▁risky	-13058
▁rocky	-13059
▁rooms	-13060
▁salon	-13061
▁sassy	-13062
▁schiz	-13063
▁scope	-13064
▁seoul	-13065
▁shrek	-13066
▁slump	-13067
▁smear	-13068
▁smite	-13069
▁snark	-13070
▁spons	-13071
▁squat	-13072
▁stead	-13073
▁stoop	-13074
▁swall	-13075
▁tacky	-13076
▁teddy	-13077
▁thibs	-13078
▁trave	-13079
▁trial	-13080
▁trunk	-13081
▁tummy	-13082
▁uhhhh	-13083
▁unbal	-13084
▁unity	-13085
▁unsee	-13086
▁urban	-13087
▁verse	-13088
▁vigil	-13089
▁vodka	-13090
▁volvo	-13091
▁voter	-13092
▁warms	-13093
▁weebs	-13094
▁welsh	-13095
▁whack	-13096
▁whooh	-13097
▁worce	-13098
▁yanks	-13099
▁yells	-13100
▁yknow	-13101
▁yummy	-13102
!!!!!!!	-13103
alcohol	-13104
astroph	-13105
balling	-13106
busters	-13107
emption	-13108
eration	-13109
forward	-13110
gentina	-13111
hhhhhhh	-13112
hitting	-13113
icapped	-13114
ication	-13115
irectly	-13116
isation	-13117
jerking	-13118
licking	-13119
loading	-13120
locaust	-13121
nautica	-13122
ophobic	-13123
percuss	-13124
pointed	-13125
ramatic	-13126
ructure	-13127
support	-13128
ulsions	-13129
ultured	-13130
valuate	-13131
version	-13132
▁......	-13133
▁aaaand	-13134
▁ambien	-13135
▁anyhow	-13136
▁apollo	-13137
▁apples	-13138
▁armour	-13139
▁arrows	-13140
▁artery	-13141
▁assure	-13142
▁athens	-13143
▁baking	-13144
▁banner	-13145
▁barbec	-13146
▁barley	-13147
▁barren	-13148
▁behold	-13149
▁benzos	-13150
▁boards	-13151
▁busted	-13152
▁censor	-13153
▁charts	-13154
▁cheesy	-13155
▁cherry	-13156
▁closet	-13157
▁cockat	-13158
▁compos	-13159
▁concur	-13160
▁cotton	-13161
▁crafts	-13162
▁cramps	-13163
▁cycles	-13164
▁daught	-13165
▁demons	-13166
▁deploy	-13167
▁digest	-13168
▁dipped	-13169
▁divert	-13170
▁downed	-13171
▁dublin	-13172
▁emblem	-13173
▁enzyme	-13174
▁errors	-13175
▁export	-13176
▁falcon	-13177
▁felony	-13178
▁formed	-13179
▁frenzy	-13180
▁garden	-13181
▁gnarly	-13182
▁goober	-13183
▁goofed	-13184
▁gotchu	-13185
▁hotter	-13186
▁humour	-13187
▁hustle	-13188
▁incest	-13189
▁incont	-13190
▁insens	-13191
▁justno	-13192
▁kicker	-13193
▁kidnap	-13194
▁kissed	-13195
▁kisses	-13196
▁labell	-13197
▁ladder	-13198
▁lashes	-13199
▁lawful	-13200
▁lighth	-13201
▁lockup	-13202
▁madrid	-13203
▁makers	-13204
▁manbij	-13205
▁marked	-13206
▁merito	-13207
▁miscar	-13208
▁models	-13209
▁motive	-13210
▁museum	-13211
▁nearby	-13212
▁noises	-13213
▁obtain	-13214
▁orphan	-13215
▁ostrac	-13216
▁packet	-13217
▁paints	-13218
▁parlor	-13219
▁parrot	-13220
▁passen	-13221
▁paypal	-13222
▁petite	-13223
▁philly	-13224
▁pizzas	-13225
▁posing	-13226
▁pricks	-13227
▁prince	-13228
▁prompt	-13229
▁provin	-13230
▁puddle	-13231
▁puking	-13232
▁pumped	-13233
▁punjab	-13234
▁pupils	-13235
▁purely	-13236
▁quarry	-13237
▁reconc	-13238
▁refuge	-13239
▁region	-13240
▁repair	-13241
▁royale	-13242
▁runner	-13243
▁seeker	-13244
▁sewing	-13245
▁shocks	-13246
▁skiing	-13247
▁sleepy	-13248
▁smokes	-13249
▁soviet	-13250
▁spidey	-13251
▁stinks	-13252
▁swayed	-13253
▁threes	-13254
▁throne	-13255
▁topics	-13256
▁towers	-13257
▁tracks	-13258
▁transg	-13259
▁tribes	-13260
▁truths	-13261
▁undocu	-13262
▁uninst	-13263
▁unlock	-13264
▁upward	-13265
▁valued	-13266
▁vaping	-13267
▁viewed	-13268
▁virtue	-13269
▁wannab	-13270
▁weasel	-13271
▁whisky	-13272
▁whores	-13273
▁wooosh	-13274
▁wrecks	-13275
▁wrench	-13276
▁youtub	-13277
▁zoomed	-13278
65656565	-13279
attering	-13280
ceptions	-13281
entional	-13282
existent	-13283
fighting	-13284
ibiotics	-13285
ifferent	-13286
itutions	-13287
letstalk	-13288
onononon	-13289
ressants	-13290
sentence	-13291
settling	-13292
shadowed	-13293
standard	-13294
standing	-13295
stically	-13296
▁alberta	-13297
▁altcoin	-13298
▁android	-13299
▁avocado	-13300
▁baffled	-13301
▁balcony	-13302
▁banking	-13303
▁baptism	-13304
▁bedtime	-13305
▁bloated	-13306
▁boiling	-13307
▁boomers	-13308
▁bounced	-13309
▁bourbon	-13310
▁burglar	-13311
▁busting	-13312
▁calmest	-13313
▁capitol	-13314
▁catches	-13315
▁celtics	-13316
▁chaotic	-13317
▁chapter	-13318
▁clarity	-13319
▁coaster	-13320
▁cocaine	-13321
▁coconut	-13322
▁conjure	-13323
▁conquer	-13324
▁crafted	-13325
▁crashed	-13326
▁creeper	-13327
▁cricket	-13328
▁cursive	-13329
▁darling	-13330
▁daytime	-13331
▁desires	-13332
▁dictate	-13333
▁dilemma	-13334
▁dipshit	-13335
▁dispute	-13336
▁doritos	-13337
▁drugged	-13338
▁enemies	-13339
▁expects	-13340
▁farming	-13341
▁fasting	-13342
▁flavors	-13343
▁flights	-13344
▁flushed	-13345
▁foolish	-13346
▁freaked	-13347
▁fridays	-13348
▁furious	-13349
▁fuuuuck	-13350
▁gesture	-13351
▁griffin	-13352
▁grizzly	-13353
▁handful	-13354
▁hostage	-13355
▁ideolog	-13356
▁illustr	-13357
▁implied	-13358
▁infield	-13359
▁infrast	-13360
▁janitor	-13361
▁joining	-13362
▁kittens	-13363
▁lactose	-13364
▁largest	-13365
▁lasagna	-13366
▁libtard	-13367
▁listens	-13368
▁locking	-13369
▁lyrical	-13370
▁marxism	-13371
▁memphis	-13372
▁mermaid	-13373
▁munchak	-13374
▁oatmeal	-13375
▁offence	-13376
▁offends	-13377
▁offside	-13378
▁outdoor	-13379
▁outlook	-13380
▁paraphr	-13381
▁peppers	-13382
▁periods	-13383
▁phrased	-13384
▁pigeons	-13385
▁pillars	-13386
▁priests	-13387
▁puppies	-13388
▁ranking	-13389
▁recipro	-13390
▁recycle	-13391
▁rejects	-13392
▁relates	-13393
▁reposts	-13394
▁revisit	-13395
▁rewards	-13396
▁rosters	-13397
▁rushing	-13398
▁samsung	-13399
▁schaden	-13400
▁secrets	-13401
▁showers	-13402
▁shuffle	-13403
▁sixteen	-13404
▁snapped	-13405
▁snipers	-13406
▁snuggle	-13407
▁soluble	-13408
▁sourced	-13409
▁spirits	-13410
▁staring	-13411
▁stuffed	-13412
▁stunned	-13413
▁sundays	-13414
▁switzer	-13415
▁talents	-13416
▁tendies	-13417
▁thereof	-13418
▁touches	-13419
▁treason	-13420
▁unfunny	-13421
▁untouch	-13422
▁variety	-13423
▁warrior	-13424
▁whipped	-13425
⠛⠛⠛⠛⠛⠛⠛⠛	-13426
🏳️‍🌈🏳️‍🌈	-13427
awareness	-13428
corporate	-13429
ibilities	-13430
literally	-13431
ocurrency	-13432
qualified	-13433
screaming	-13434
▁abnormal	-13435
▁accessed	-13436
▁assembly	-13437
▁auctions	-13438
▁backstop	-13439
▁bankrupt	-13440
▁baseless	-13441
▁bleeding	-13442
▁blockade	-13443
▁bohemian	-13444
▁brazzers	-13445
▁breeding	-13446
▁brutally	-13447
▁burglars	-13448
▁caffeine	-13449
▁calendar	-13450
▁canceled	-13451
▁carriage	-13452
▁centered	-13453
▁chilling	-13454
▁clearest	-13455
▁clicking	-13456
▁comedian	-13457
▁commited	-13458
▁competit	-13459
▁concentr	-13460
▁concepts	-13461
▁concerts	-13462
▁consoles	-13463
▁craziest	-13464
▁cultures	-13465
▁destruct	-13466
▁disliked	-13467
▁disprove	-13468
▁dopamine	-13469
▁dynamite	-13470
▁dystopia	-13471
▁embarass	-13472
▁erection	-13473
▁expelled	-13474
▁extended	-13475
▁fabulous	-13476
▁fighters	-13477
▁flipping	-13478
▁focusing	-13479
▁forcibly	-13480
▁fracture	-13481
▁goalpost	-13482
▁gofundme	-13483
▁hawaiian	-13484
▁hesitate	-13485
▁hometown	-13486
▁hovering	-13487
▁humility	-13488
▁hungover	-13489
▁insanity	-13490
▁intimate	-13491
▁invasive	-13492
▁invented	-13493
▁kneejerk	-13494
▁legalize	-13495
▁mutually	-13496
▁nicotine	-13497
▁nominate	-13498
▁offender	-13499
▁oklahoma	-13500
▁oligarch	-13501
▁organize	-13502
▁outfield	-13503
▁piercing	-13504
▁policing	-13505
▁preserve	-13506
▁prisoner	-13507
▁proceeds	-13508
▁quitting	-13509
▁rankings	-13510
▁recourse	-13511
▁recovers	-13512
▁regarded	-13513
▁reliably	-13514
▁reserved	-13515
▁resulted	-13516
▁reversed	-13517
▁rewarded	-13518
▁rhapsody	-13519
▁rhetoric	-13520
▁rockstar	-13521
▁roleplay	-13522
▁seconded	-13523
▁sequence	-13524
▁shelters	-13525
▁shilling	-13526
▁shotguns	-13527
▁shredded	-13528
▁sideways	-13529
▁smashing	-13530
▁software	-13531
▁speeches	-13532
▁starring	-13533
▁subhuman	-13534
▁suburban	-13535
▁swearing	-13536
▁terrific	-13537
▁thriving	-13538
▁timeless	-13539
▁toughest	-13540
▁traction	-13541
▁trailers	-13542
▁treyarch	-13543
▁triangle	-13544
▁tricking	-13545
▁upcoming	-13546
▁upgraded	-13547
▁uploaded	-13548
▁weighted	-13549
▁abhorrent	-13550
▁abortions	-13551
▁adulthood	-13552
▁announces	-13553
▁anonymous	-13554
▁applauded	-13555
▁apprehend	-13556
▁argentina	-13557
▁arresting	-13558
▁blackmail	-13559
▁buildings	-13560
▁caressing	-13561
▁cleveland	-13562
▁cognitive	-13563
▁collapsed	-13564
▁commentor	-13565
▁competing	-13566
▁completed	-13567
▁connected	-13568
▁contested	-13569
▁crosspost	-13570
▁daredevil	-13571
▁daughters	-13572
▁dedicated	-13573
▁describes	-13574
▁desirable	-13575
▁determine	-13576
▁disadvant	-13577
▁displayed	-13578
▁disturbed	-13579
▁documents	-13580
▁douchebag	-13581
▁embracing	-13582
▁extremist	-13583
▁fantasies	-13584
▁fashioned	-13585
▁fictional	-13586
▁groceries	-13587
▁heartbeat	-13588
▁holocaust	-13589
▁horseshit	-13590
▁illegally	-13591
▁illnesses	-13592
▁internets	-13593
▁irritated	-13594
▁ludicrous	-13595
▁miserably	-13596
▁movements	-13597
▁offenders	-13598
▁overgrown	-13599
▁personnel	-13600
▁pewdiepie	-13601
▁poisoning	-13602
▁portrayal	-13603
▁preschool	-13604
▁preseason	-13605
▁priceless	-13606
▁primaries	-13607
▁professor	-13608
▁prospects	-13609
▁purchased	-13610
▁qualifier	-13611
▁ramblings	-13612
▁relevance	-13613
▁replacing	-13614
▁reposting	-13615
▁residency	-13616
▁rotations	-13617
▁runescape	-13618
▁sanctions	-13619
▁satisfied	-13620
▁shattered	-13621
▁solutions	-13622
▁spongebob	-13623
▁statistic	-13624
▁straights	-13625
▁strategic	-13626
▁subtitles	-13627
▁succeeded	-13628
▁targeting	-13629
▁testimony	-13630
▁thesaurus	-13631
▁tormented	-13632
▁unlimited	-13633
▁unwelcome	-13634
▁uplifting	-13635
▁viability	-13636
▁violently	-13637
▁whichever	-13638
▁yardstick	-13639
libertarian	-13640
percussions	-13641
▁activision	-13642
▁attributed	-13643
▁babysitter	-13644
▁businesses	-13645
▁catastroph	-13646
▁coincident	-13647
▁collapsing	-13648
▁communists	-13649
▁confronted	-13650
▁conviction	-13651
▁courageous	-13652
▁criticises	-13653
▁criticisms	-13654
▁culturally	-13655
▁difficulty	-13656
▁dislocated	-13657
▁documented	-13658
▁downloaded	-13659
▁effortless	-13660
▁extinction	-13661
▁fascinated	-13662
▁graduation	-13663
▁heartbreak	-13664
▁homosexual	-13665
▁imprisoned	-13666
▁indicative	-13667
▁indirectly	-13668
▁infinitely	-13669
▁insecurity	-13670
▁irrational	-13671
▁meditation	-13672
▁motorcycle	-13673
▁originated	-13674
▁perception	-13675
▁photograph	-13676
▁presenting	-13677
▁productive	-13678
▁prostitute	-13679
▁reasonably	-13680
▁recovering	-13681
▁redemption	-13682
▁reevaluate	-13683
▁rewatching	-13684
▁sandwiches	-13685
▁specialist	-13686
▁speechless	-13687
▁standpoint	-13688
▁subnautica	-13689
▁unbalanced	-13690
▁uncultured	-13691
▁vegetarian	-13692
▁whitehouse	-13693
!!!!!!!!!!!!	-13694
comedyheaven	-13695
hahahahahaha	-13696
▁accountable	-13697
▁appreciates	-13698
▁assessments	-13699
▁assumptions	-13700
▁billionaire	-13701
▁compliments	-13702
▁conflicting	-13703
▁contractors	-13704
▁contradicts	-13705
▁contributed	-13706
▁controllers	-13707
▁convictions	-13708
▁derangement	-13709
▁distinction	-13710
▁distinguish	-13711
▁entitlement	-13712
▁familiarity	-13713
▁forgettable	-13714
▁fulfillment	-13715
▁generalized	-13716
▁grandfather	-13717
▁handicapped	-13718
▁intolerance	-13719
▁introducing	-13720
▁meritocracy	-13721
▁millionaire	-13722
▁nutritional	-13723
▁parachuting	-13724
▁pedestrians	-13725
▁pessimistic	-13726
▁progression	-13727
▁recognizing	-13728
▁singularity	-13729
▁sovereignty	-13730
▁stimulating	-13731
▁sustainable	-13732
▁switzerland	-13733
▁transphobic	-13734
▁traumatized	-13735
▁trustworthy	-13736
▁uncertainty	-13737
▁unimportant	-13738
▁anticipation	-13739
▁appointments	-13740
▁dictatorship	-13741
▁disagreement	-13742
▁favorability	-13743
▁grandfathers	-13744
▁improvements	-13745
▁institutions	-13746
▁instructions	-13747
▁insufferable	-13748
▁misrepresent	-13749
▁overreaction	-13750
▁philosophies	-13751
▁progressives	-13752
▁purposefully	-13753
▁requirements	-13754
▁undocumented	-13755
▁unsatisfying	-13756
▁appropriation	-13757
▁circlejerking	-13758
▁consciousness	-13759
▁documentaries	-13760
▁schadenfreude	-13761
▁screenshotted	-13762
▁unnecessarily	-13763
▁constitutional	-13764
▁cryptocurrency	-13765
▁infrastructure	-13766
▁intellectually	-13767
▁professionally	-13768
▁uncontrollably	-13769
▁understatement	-13770
++++++++++++++++	-13771
▁accomplishments	-13772
▁straightforward	-13773
*:	-13774
,”	-13775
/-	-13776
17	-13777
3!	-13778
35	-13779
38	-13780
66	-13781
7%	-13782
8%	-13783
9%	-13784
>>	-13785
](	-13786
dh	-13787
dn	-13788
eu	-13789
gf	-13790
ji	-13791
jr	-13792
sk	-13793
vc	-13794
zo	-13795
▁`	-13796
▁„	-13797
▁💜	-13798
▁😀	-13799
▁😜	-13800
▁😣	-13801
▁😥	-13802
▁😩	-13803
▁😪	-13804
▁😮	-13805
▁🤪	-13806
👌🏼	-13807
💅🏻	-13808
🔪🔪	-13809
🙏🏼	-13810
!?!	-13811
-11	-13812
-25	-13813
-72	-13814
/20	-13815
10.	-13816
11.	-13817
480	-13818
912	-13819
:45	-13820
?!*	-13821
]).	-13822
aam	-13823
aba	-13824
aga	-13825
aha	-13826
aku	-13827
asi	-13828
atz	-13829
ava	-13830
bas	-13831
bes	-13832
bey	-13833
cas	-13834
cri	-13835
dup	-13836
eap	-13837
emo	-13838
far	-13839
fem	-13840
fff	-13841
gas	-13842
goo	-13843
gyn	-13844
hoe	-13845
ias	-13846
idi	-13847
isn	-13848
jpg	-13849
lie	-13850
lim	-13851
los	-13852
mao	-13853
mph	-13854
msh	-13855
muh	-13856
nba	-13857
nit	-13858
nnn	-13859
nut	-13860
orc	-13861
oto	-13862
pad	-13863
pin	-13864
rob	-13865
sci	-13866
shi	-13867
sit	-13868
sno	-13869
tan	-13870
tor	-13871
ttt	-13872
udo	-13873
ugh	-13874
uka	-13875
usc	-13876
uto	-13877
vax	-13878
vol	-13879
wom	-13880
ysy	-13881
zos	-13882
zzy	-13883
▁$8	-13884
▁(:	-13885
▁->	-13886
▁1%	-13887
▁1?	-13888
▁28	-13889
▁2:	-13890
▁42	-13891
▁5-	-13892
▁54	-13893
▁55	-13894
▁62	-13895
▁65	-13896
▁8+	-13897
▁:>	-13898
▁;;	-13899
▁=/	-13900
▁?!	-13901
▁aj	-13902
▁bj	-13903
▁cm	-13904
▁ft	-13905
▁mb	-13906
▁mh	-13907
▁nk	-13908
▁nm	-13909
▁nt	-13910
▁rp	-13911
▁rv	-13912
▁sg	-13913
▁ud	-13914
▁xo	-13915
▁yu	-13916
▁͜ʖ	-13917
!!!"	-13918
/10.	-13919
4343	-13920
]???	-13921
aaah	-13922
acts	-13923
amas	-13924
anes	-13925
anim	-13926
answ	-13927
anth	-13928
aser	-13929
assi	-13930
atti	-13931
aver	-13932
azep	-13933
bast	-13934
beal	-13935
belt	-13936
bows	-13937
chal	-13938
club	-13939
crow	-13940
ctic	-13941
dddd	-13942
deon	-13943
edit	-13944
edly	-13945
enta	-13946
eres	-13947
esus	-13948
eury	-13949
fall	-13950
fant	-13951
fash	-13952
feld	-13953
fits	-13954
gang	-13955
grav	-13956
gurt	-13957
hake	-13958
hire	-13959
hope	-13960
horn	-13961
iana	-13962
iche	-13963
icle	-13964
imag	-13965
imat	-13966
imer	-13967
imil	-13968
inav	-13969
inci	-13970
indt	-13971
infl	-13972
ipeg	-13973
iper	-13974
iris	-13975
ishy	-13976
isse	-13977
itas	-13978
last	-13979
lazy	-13980
lexa	-13981
lick	-13982
lies	-13983
math	-13984
mets	-13985
mint	-13986
mont	-13987
nail	-13988
ndle	-13989
nish	-13990
obic	-13991
oids	-13992
olin	-13993
onna	-13994
ooky	-13995
oral	-13996
orig	-13997
ouri	-13998
pear	-13999
phab	-14000
plan	-14001
ques	-14002
quit	-14003
rape	-14004
rays	-14005
recy	-14006
reet	-14007
rich	-14008
rito	-14009
rive	-14010
ropo	-14011
ropy	-14012
rued	-14013
sant	-14014
semi	-14015
sigh	-14016
skin	-14017
stay	-14018
talk	-14019
tent	-14020
term	-14021
tham	-14022
tuce	-14023
twas	-14024
ulsi	-14025
unds	-14026
uran	-14027
urpr	-14028
vile	-14029
wake	-14030
wash	-14031
wave	-14032
zero	-14033
”...	-14034
▁(((	-14035
▁(20	-14036
▁(26	-14037
▁)-:	-14038
▁**2	-14039
▁**6	-14040
▁**8	-14041
▁-15	-14042
▁-40	-14043
▁.05	-14044
▁00:	-14045
▁101	-14046
▁12,	-14047
▁13,	-14048
▁18,	-14049
▁18.	-14050
▁240	-14051
▁4-3	-14052
▁4-5	-14053
▁4.3	-14054
▁40+	-14055
▁40.	-14056
▁450	-14057
▁60%	-14058
▁70’	-14059
▁99.	-14060
▁:))	-14061
▁:’(	-14062
▁acl	-14063
▁afl	-14064
▁aks	-14065
▁ape	-14066
▁arn	-14067
▁awa	-14068
▁ayy	-14069
▁bib	-14070
▁bis	-14071
▁blu	-14072
▁bop	-14073
▁cbd	-14074
▁cbs	-14075
▁cfa	-14076
▁chr	-14077
▁dbs	-14078
▁dfs	-14079
▁diy	-14080
▁dox	-14081
▁eld	-14082
▁eps	-14083
▁etl	-14084
▁eup	-14085
▁fpt	-14086
▁fru	-14087
▁gam	-14088
▁gdt	-14089
▁gks	-14090
▁gum	-14091
▁han	-14092
▁hee	-14093
▁hrt	-14094
▁jax	-14095
▁jee	-14096
▁kin	-14097
▁kkk	-14098
▁lam	-14099
▁lbs	-14100
▁lgd	-14101
▁lul	-14102
▁mcc	-14103
▁mes	-14104
▁mia	-14105
▁mkx	-14106
▁mlb	-14107
▁mnf	-14108
▁mop	-14109
▁nec	-14110
▁neu	-14111
▁nim	-14112
▁nod	-14113
▁ome	-14114
▁osu	-14115
▁owl	-14116
▁pel	-14117
▁phd	-14118
▁ppd	-14119
▁psn	-14120
▁pta	-14121
▁rav	-14122
▁rdr	-14123
▁rng	-14124
▁rou	-14125
▁sah	-14126
▁sis	-14127
▁soc	-14128
▁sos	-14129
▁sox	-14130
▁sri	-14131
▁sti	-14132
▁tau	-14133
▁tin	-14134
▁tro	-14135
▁tub	-14136
▁uga	-14137
▁uwu	-14138
▁vpn	-14139
▁wes	-14140
▁wid	-14141
▁wta	-14142
▁yaa	-14143
▁zip	-14144
▁👏👏👏	-14145
🏻‍♀️	-14146
!?!?!	-14147
accid	-14148
alent	-14149
alone	-14150
anges	-14151
anime	-14152
anked	-14153
anova	-14154
arity	-14155
artic	-14156
aying	-14157
azing	-14158
bingo	-14159
boten	-14160
bound	-14161
breat	-14162
cakes	-14163
cedes	-14164
chair	-14165
crack	-14166
crazy	-14167
dding	-14168
eezed	-14169
eness	-14170
epalm	-14171
eries	-14172
error	-14173
erted	-14174
erves	-14175
essed	-14176
faith	-14177
femin	-14178
fffff	-14179
ffiti	-14180
first	-14181
flies	-14182
gdala	-14183
gence	-14184
giene	-14185
gings	-14186
girls	-14187
grabs	-14188
holes	-14189
ibles	-14190
icles	-14191
idest	-14192
idian	-14193
imely	-14194
ingle	-14195
inkle	-14196
ippin	-14197
iques	-14198
issue	-14199
itage	-14200
itect	-14201
kates	-14202
kinda	-14203
lance	-14204
leive	-14205
leton	-14206
lexia	-14207
lifts	-14208
lists	-14209
lough	-14210
lower	-14211
magic	-14212
media	-14213
memor	-14214
might	-14215
mniac	-14216
morpg	-14217
mount	-14218
nable	-14219
naiss	-14220
named	-14221
needs	-14222
ntlet	-14223
offic	-14224
oopin	-14225
ordan	-14226
ortal	-14227
otist	-14228
oturf	-14229
ource	-14230
owned	-14231
plays	-14232
poken	-14233
ppled	-14234
prets	-14235
rying	-14236
scape	-14237
score	-14238
shock	-14239
smile	-14240
stamp	-14241
stery	-14242
stone	-14243
stool	-14244
stros	-14245
tedly	-14246
thest	-14247
troll	-14248
uffed	-14249
ulary	-14250
urama	-14251
usher	-14252
utter	-14253
value	-14254
visor	-14255
ylist	-14256
zzare	-14257
▁100.	-14258
▁1500	-14259
▁1990	-14260
▁1995	-14261
▁2004	-14262
▁2021	-14263
▁24/7	-14264
▁abom	-14265
▁acab	-14266
▁adam	-14267
▁adhd	-14268
▁airc	-14269
▁akin	-14270
▁alcs	-14271
▁appe	-14272
▁asmr	-14273
▁astr	-14274
▁aval	-14275
▁bats	-14276
▁beam	-14277
▁beds	-14278
▁bend	-14279
▁bins	-14280
▁bolt	-14281
▁bree	-14282
▁buns	-14283
▁cape	-14284
▁chad	-14285
▁chim	-14286
▁chud	-14287
▁cine	-14288
▁coer	-14289
▁cone	-14290
▁copa	-14291
▁cozy	-14292
▁crus	-14293
▁damm	-14294
▁dank	-14295
▁dart	-14296
▁daze	-14297
▁depl	-14298
▁dign	-14299
▁dong	-14300
▁dorm	-14301
▁doug	-14302
▁dour	-14303
▁drew	-14304
▁dwar	-14305
▁ejac	-14306
▁enfp	-14307
▁ergo	-14308
▁exmo	-14309
▁expo	-14310
▁fals	-14311
▁fave	-14312
▁feds	-14313
▁flew	-14314
▁fran	-14315
▁fudd	-14316
▁fuzz	-14317
▁gall	-14318
▁gase	-14319
▁gast	-14320
▁glor	-14321
▁goth	-14322
▁gour	-14323
▁groo	-14324
▁hamb	-14325
▁hoot	-14326
▁hows	-14327
▁hurr	-14328
▁hybr	-14329
▁imho	-14330
▁jama	-14331
▁jest	-14332
▁joys	-14333
▁jsut	-14334
▁kent	-14335
▁labs	-14336
▁lads	-14337
▁leap	-14338
▁lion	-14339
▁lith	-14340
▁lola	-14341
▁lous	-14342
▁mamm	-14343
▁mars	-14344
▁mary	-14345
▁matt	-14346
▁mics	-14347
▁mold	-14348
▁moss	-14349
▁mour	-14350
▁mums	-14351
▁mute	-14352
▁navy	-14353
▁nine	-14354
▁nour	-14355
▁obes	-14356
▁offs	-14357
▁oily	-14358
▁omit	-14359
▁pace	-14360
▁pals	-14361
▁parr	-14362
▁peed	-14363
▁peel	-14364
▁pfft	-14365
▁pies	-14366
▁pigs	-14367
▁poin	-14368
▁pony	-14369
▁puns	-14370
▁punt	-14371
▁pyth	-14372
▁rail	-14373
▁reap	-14374
▁reel	-14375
▁rile	-14376
▁rite	-14377
▁roam	-14378
▁rode	-14379
▁rods	-14380
▁rope	-14381
▁ross	-14382
▁rows	-14383
▁sask	-14384
▁seas	-14385
▁sein	-14386
▁seiz	-14387
▁shed	-14388
▁sits	-14389
▁slim	-14390
▁slip	-14391
▁slum	-14392
▁sock	-14393
▁soil	-14394
▁stap	-14395
▁stub	-14396
▁surf	-14397
▁thai	-14398
▁tims	-14399
▁tmor	-14400
▁tofu	-14401
▁toll	-14402
▁torb	-14403
▁tore	-14404
▁tosh	-14405
▁twit	-14406
▁unif	-14407
▁unto	-14408
▁urge	-14409
▁vacu	-14410
▁vein	-14411
▁whip	-14412
▁wifi	-14413
▁wimp	-14414
▁yhea	-14415
▁yoga	-14416
??????	-14417
].....	-14418
acious	-14419
actual	-14420
agnose	-14421
ancing	-14422
asures	-14423
atonic	-14424
azepam	-14425
banded	-14426
betrot	-14427
boiled	-14428
caster	-14429
castle	-14430
chrome	-14431
comend	-14432
commit	-14433
cratic	-14434
create	-14435
dicked	-14436
ditary	-14437
driver	-14438
ealing	-14439
enials	-14440
entine	-14441
erokee	-14442
eurysm	-14443
excuse	-14444
funded	-14445
hammer	-14446
handed	-14447
helper	-14448
hemism	-14449
icited	-14450
idward	-14451
ienced	-14452
ington	-14453
inside	-14454
isimil	-14455
israel	-14456
itally	-14457
ivated	-14458
lihood	-14459
loving	-14460
nobody	-14461
ophren	-14462
ousing	-14463
owered	-14464
potism	-14465
racuse	-14466
rality	-14467
remend	-14468
remove	-14469
rights	-14470
school	-14471
second	-14472
select	-14473
soccer	-14474
ssssss	-14475
stairs	-14476
sticks	-14477
trophy	-14478
trying	-14479
umbing	-14480
vagant	-14481
vation	-14482
walker	-14483
worked	-14484
▁2014.	-14485
▁48-72	-14486
▁aaand	-14487
▁acted	-14488
▁acute	-14489
▁adder	-14490
▁adren	-14491
▁alexa	-14492
▁ambit	-14493
▁astro	-14494
▁barge	-14495
▁benzo	-14496
▁bipod	-14497
▁blanc	-14498
▁boats	-14499
▁boxes	-14500
▁brace	-14501
▁bribe	-14502
▁bride	-14503
▁buses	-14504
▁canes	-14505
▁canoe	-14506
▁charm	-14507
▁cheek	-14508
▁chops	-14509
▁codes	-14510
▁comps	-14511
▁coups	-14512
▁crawl	-14513
▁crows	-14514
▁cuffs	-14515
▁curve	-14516
▁daaaa	-14517
▁danke	-14518
▁detri	-14519
▁deuce	-14520
▁dildo	-14521
▁doses	-14522
▁downs	-14523
▁drift	-14524
▁dubai	-14525
▁dusty	-14526
▁eatin	-14527
▁edits	-14528
▁egreg	-14529
▁epcot	-14530
▁estim	-14531
▁fatty	-14532
▁femsh	-14533
▁fetus	-14534
▁fiend	-14535
▁fishy	-14536
▁flick	-14537
▁flipp	-14538
▁floss	-14539
▁forts	-14540
▁girly	-14541
▁goalt	-14542
▁grabs	-14543
▁grain	-14544
▁gravy	-14545
▁hagar	-14546
▁hairy	-14547
▁hapha	-14548
▁hecka	-14549
▁hires	-14550
▁hoooo	-14551
▁impre	-14552
▁incoh	-14553
▁indec	-14554
▁indef	-14555
▁inhab	-14556
▁insta	-14557
▁iwobi	-14558
▁joins	-14559
▁kotor	-14560
▁kratz	-14561
▁lance	-14562
▁lasts	-14563
▁layer	-14564
▁leban	-14565
▁lefty	-14566
▁liars	-14567
▁lindt	-14568
▁linux	-14569
▁lmaoo	-14570
▁loool	-14571
▁loooo	-14572
▁maker	-14573
▁males	-14574
▁marin	-14575
▁medal	-14576
▁melts	-14577
▁merry	-14578
▁mocha	-14579
▁mocks	-14580
▁muddy	-14581
▁needy	-14582
▁newly	-14583
▁noses	-14584
▁obser	-14585
▁occam	-14586
▁opera	-14587
▁outed	-14588
▁palms	-14589
▁param	-14590
▁paris	-14591
▁piggy	-14592
▁pinky	-14593
▁plugs	-14594
▁pming	-14595
▁polar	-14596
▁polls	-14597
▁popes	-14598
▁poses	-14599
▁pubes	-14600
▁quant	-14601
▁queer	-14602
▁quits	-14603
▁quran	-14604
▁raven	-14605
▁razer	-14606
▁reapp	-14607
▁reich	-14608
▁relic	-14609
▁remix	-14610
▁reput	-14611
▁rescu	-14612
▁resur	-14613
▁robin	-14614
▁roses	-14615
▁sammy	-14616
▁savor	-14617
▁scarf	-14618
▁scoop	-14619
▁sicko	-14620
▁smirk	-14621
▁snipe	-14622
▁snoot	-14623
▁snore	-14624
▁snuck	-14625
▁sodas	-14626
▁soggy	-14627
▁solar	-14628
▁spain	-14629
▁spear	-14630
▁spill	-14631
▁stark	-14632
▁steer	-14633
▁stomp	-14634
▁teemo	-14635
▁tense	-14636
▁tests	-14637
▁thief	-14638
▁thots	-14639
▁tiger	-14640
▁trees	-14641
▁tribe	-14642
▁troop	-14643
▁tsund	-14644
▁tulsi	-14645
▁turbo	-14646
▁unden	-14647
▁unmas	-14648
▁unreg	-14649
▁vocal	-14650
▁wales	-14651
▁whiff	-14652
▁wider	-14653
▁woken	-14654
▁zones	-14655
?!?!?!?	-14656
breaker	-14657
brother	-14658
certing	-14659
claimed	-14660
classic	-14661
coaster	-14662
conspir	-14663
counter	-14664
deleted	-14665
denying	-14666
entials	-14667
forever	-14668
gencies	-14669
general	-14670
ickpill	-14671
ictions	-14672
kidding	-14673
leeping	-14674
loughed	-14675
manence	-14676
manship	-14677
onnaise	-14678
osaurus	-14679
outside	-14680
playing	-14681
rainian	-14682
ressing	-14683
science	-14684
serious	-14685
starter	-14686
vaxxers	-14687
washing	-14688
▁aboard	-14689
▁absent	-14690
▁admits	-14691
▁aggrav	-14692
▁alaska	-14693
▁alphab	-14694
▁amazes	-14695
▁angles	-14696
▁append	-14697
▁arcade	-14698
▁assaul	-14699
▁assets	-14700
▁assign	-14701
▁badger	-14702
▁bangin	-14703
▁banter	-14704
▁beasts	-14705
▁begone	-14706
▁berlin	-14707
▁beware	-14708
▁biases	-14709
▁blasph	-14710
▁bleach	-14711
▁bogged	-14712
▁bolton	-14713
▁bosses	-14714
▁braces	-14715
▁brains	-14716
▁buffal	-14717
▁buffer	-14718
▁bummed	-14719
▁bundle	-14720
▁burial	-14721
▁bushes	-14722
▁carpet	-14723
▁casino	-14724
▁chaser	-14725
▁chrome	-14726
▁chunks	-14727
▁clench	-14728
▁client	-14729
▁clinic	-14730
▁clumsy	-14731
▁conced	-14732
▁cookie	-14733
▁coupon	-14734
▁crocod	-14735
▁crowds	-14736
▁cucked	-14737
▁cyborg	-14738
▁dances	-14739
▁decept	-14740
▁defore	-14741
▁demise	-14742
▁denial	-14743
▁desens	-14744
▁devoid	-14745
▁diablo	-14746
▁digits	-14747
▁dispar	-14748
▁diving	-14749
▁doxing	-14750
▁dupont	-14751
▁duties	-14752
▁emphas	-14753
▁endors	-14754
▁ensure	-14755
▁errone	-14756
▁extend	-14757
▁fandom	-14758
▁faults	-14759
▁fester	-14760
▁filmed	-14761
▁fiscal	-14762
▁frames	-14763
▁frosty	-14764
▁fuckkk	-14765
▁funnel	-14766
▁fuuuck	-14767
▁gifted	-14768
▁glance	-14769
▁gospel	-14770
▁granny	-14771
▁greece	-14772
▁guides	-14773
▁hawaii	-14774
▁heater	-14775
▁hitbox	-14776
▁hooked	-14777
▁hooker	-14778
▁ifunny	-14779
▁immers	-14780
▁immidi	-14781
▁incase	-14782
▁indent	-14783
▁instru	-14784
▁invade	-14785
▁jitter	-14786
▁jordan	-14787
▁kiddos	-14788
▁learns	-14789
▁licens	-14790
▁licker	-14791
▁logged	-14792
▁malice	-14793
▁margar	-14794
▁massac	-14795
▁meeeee	-14796
▁misspe	-14797
▁misuse	-14798
▁mmorpg	-14799
▁modded	-14800
▁mortar	-14801
▁motion	-14802
▁napoli	-14803
▁narrow	-14804
▁nephew	-14805
▁nooooo	-14806
▁nuance	-14807
▁orgies	-14808
▁oscars	-14809
▁pallet	-14810
▁panels	-14811
▁pardon	-14812
▁paused	-14813
▁petrol	-14814
▁pickle	-14815
▁pistol	-14816
▁plants	-14817
▁prejud	-14818
▁presum	-14819
▁priced	-14820
▁racing	-14821
▁radfem	-14822
▁reader	-14823
▁regime	-14824
▁relive	-14825
▁remast	-14826
▁reserv	-14827
▁rested	-14828
▁resusc	-14829
▁rubber	-14830
▁rushed	-14831
▁scraps	-14832
▁senior	-14833
▁serves	-14834
▁sirens	-14835
▁slaves	-14836
▁slogan	-14837
▁slowed	-14838
▁smoker	-14839
▁snarky	-14840
▁somone	-14841
▁sorcer	-14842
▁spaces	-14843
▁speedy	-14844
▁spells	-14845
▁splits	-14846
▁squeak	-14847
▁stairs	-14848
▁stoner	-14849
▁stoped	-14850
▁strang	-14851
▁straws	-14852
▁styles	-14853
▁subsid	-14854
▁surrog	-14855
▁sweats	-14856
▁teased	-14857
▁texans	-14858
▁thighs	-14859
▁tickle	-14860
▁tissue	-14861
▁tossup	-14862
▁transc	-14863
▁tribal	-14864
▁troops	-14865
▁trumpt	-14866
▁unansw	-14867
▁unchar	-14868
▁unions	-14869
▁upheld	-14870
▁utopia	-14871
▁verify	-14872
▁vested	-14873
▁viable	-14874
▁viking	-14875
▁visits	-14876
▁warden	-14877
▁warmer	-14878
▁weezer	-14879
▁widely	-14880
▁yogurt	-14881
aaaaaand	-14882
apointed	-14883
flopping	-14884
gendered	-14885
happened	-14886
hilation	-14887
iliation	-14888
informed	-14889
otypical	-14890
proceeds	-14891
socially	-14892
unfortun	-14893
versible	-14894
zzarella	-14895
▁abandon	-14896
▁academy	-14897
▁allllll	-14898
▁anarcho	-14899
▁arabian	-14900
▁assumes	-14901
▁authors	-14902
▁baffles	-14903
▁bananas	-14904
▁banquet	-14905
▁barring	-14906
▁beleive	-14907
▁betrays	-14908
▁blowout	-14909
▁blurred	-14910
▁boredom	-14911
▁burrito	-14912
▁bystand	-14913
▁carlton	-14914
▁carries	-14915
▁casuals	-14916
▁cheques	-14917
▁cherish	-14918
▁chooses	-14919
▁clearer	-14920
▁cohorts	-14921
▁combine	-14922
▁comical	-14923
▁complet	-14924
▁concise	-14925
▁coordin	-14926
▁critics	-14927
▁cropped	-14928
▁crowder	-14929
▁crushes	-14930
▁crystal	-14931
▁dealers	-14932
▁deposit	-14933
▁depreci	-14934
▁detract	-14935
▁diction	-14936
▁dishear	-14937
▁disrupt	-14938
▁dissoci	-14939
▁drastic	-14940
▁dresses	-14941
▁edmunds	-14942
▁egotist	-14943
▁emperor	-14944
▁erratic	-14945
▁esports	-14946
▁evolved	-14947
▁exhaust	-14948
▁exposes	-14949
▁falcons	-14950
▁fanboys	-14951
▁fastest	-14952
▁flaccid	-14953
[...]
