{
  "version": "1.0",
  "truncation": null,
  "padding": null,
  "added_tokens": [
    {
      "id": 0,
      "content": "[UNK]",
      "single_word": false,
      "lstrip": false,
      "rstrip": false,
      "normalized": false,
      "special": true
    },
    {
      "id": 1,
      "content": "[CLS]",
      "single_word": false,
      "lstrip": false,
      "rstrip": false,
      "normalized": false,
      "special": true
    },
    {
      "id": 2,
      "content": "[SEP]",
      "single_word": false,
      "lstrip": false,
      "rstrip": false,
      "normalized": false,
      "special": true
    },
    {
      "id": 3,
      "content": "[PAD]",
      "single_word": false,
      "lstrip": false,
      "rstrip": false,
      "normalized": false,
      "special": true
    },
    {
      "id": 4,
      "content": "[MASK]",
      "single_word": false,
      "lstrip": false,
      "rstrip": false,
      "normalized": false,
      "special": true
    }
  ],
  "normalizer": null,
  "pre_tokenizer": {
    "type": "Whitespace"
  },
  "post_processor": null,
  "decoder": null,
  "model": {
    "type": "BPE",
    "dropout": null,
    "unk_token": "[UNK]",
    "continuing_subword_prefix": null,
    "end_of_word_suffix": null,
    "fuse_unk": false,
    "byte_fallback": false,
    "ignore_merges": false,
    "vocab": {
      "[UNK]": 0,
      "[CLS]": 1,
      "[SEP]": 2,
      "[PAD]": 3,
      "[MASK]": 4,
      "!": 5,
      "\"": 6,
      "#": 7,
      "$": 8,
      "%": 9,
      "&": 10,
      "'": 11,
      "(": 12,
      ")": 13,
      "*": 14,
      "+": 15,
      ",": 16,
      "-": 17,
      ".": 18,
      "/": 19,
      "0": 20,
      "1": 21,
      "2": 22,
      "3": 23,
      "4": 24,
      "5": 25,
      "6": 26,
      "7": 27,
      "8": 28,
      "9": 29,
      ":": 30,
      ";": 31,
      "<": 32,
      "=": 33,
      ">": 34,
      "?": 35,
      "@": 36,
      "[": 37,
      "\\": 38,
      "]": 39,
      "^": 40,
      "_": 41,
      "`": 42,
      "a": 43,
      "b": 44,
      "c": 45,
      "d": 46,
      "e": 47,
      "f": 48,
      "g": 49,
      "h": 50,
      "i": 51,
      "j": 52,
      "k": 53,
      "l": 54,
      "m": 55,
      "n": 56,
      "o": 57,
      "p": 58,
      "q": 59,
      "r": 60,
      "s": 61,
      "t": 62,
      "u": 63,
      "v": 64,
      "w": 65,
      "x": 66,
      "y": 67,
      "z": 68,
      "{": 69,
      "|": 70,
      "}": 71,
      "~": 72,
      "¡": 73,
      "£": 74,
      "¦": 75,
      "©": 76,
      "«": 77,
      "¬": 78,
      "¯": 79,
      "°": 80,
      "²": 81,
      "´": 82,
      "»": 83,
      "á": 84,
      "æ": 85,
      "ç": 86,
      "è": 87,
      "é": 88,
      "í": 89,
      "ñ": 90,
      "ò": 91,
      "ó": 92,
      "ú": 93,
      "ā": 94,
      "ē": 95,
      "ī": 96,
      "ı": 97,
      "œ": 98,
      "ǝ": 99,
      "ɐ": 100,
      "ə": 101,
      "ɢ": 102,
      "ɪ": 103,
      "ɴ": 104,
      "ɹ": 105,
      "ʌ": 106,
      "ʍ": 107,
      "ʖ": 108,
      "ʜ": 109,
      "ˈ": 110,
      "̕": 111,
      "̖": 112,
      "̗": 113,
      "̘": 114,
      "̙": 115,
      "̜": 116,
      "̝": 117,
      "̞": 118,
      "̟": 119,
      "̠": 120,
      "̢": 121,
      "̣": 122,
      "̤": 123,
      "̥": 124,
      "̦": 125,
      "̧": 126,
      "̨": 127,
      "̪": 128,
      "̫": 129,
      "̬": 130,
      "̭": 131,
      "̮": 132,
      "̯": 133,
      "̰": 134,
      "̱": 135,
      "̲": 136,
      "̳": 137,
      "̶": 138,
      "̷": 139,
      "̹": 140,
      "̺": 141,
      "̻": 142,
      "̼": 143,
      "ͅ": 144,
      "͈": 145,
      "͍": 146,
      "͎": 147,
      "͏": 148,
      "͓": 149,
      "͔": 150,
      "͕": 151,
      "͖": 152,
      "͘": 153,
      "͙": 154,
      "͚": 155,
      "͜": 156,
      "͝": 157,
      "͞": 158,
      "͟": 159,
      "͠": 160,
      "͡": 161,
      "͢": 162,
      "δ": 163,
      "ω": 164,
      "א": 165,
      "ג": 166,
      "ו": 167,
      "י": 168,
      "ל": 169,
      "ן": 170,
      "׳": 171,
      "ᴀ": 172,
      "ᴅ": 173,
      "ᴇ": 174,
      "ᴍ": 175,
      "ᴏ": 176,
      "ᴛ": 177,
      "ᴜ": 178,
      "ᴡ": 179,
      "‍": 180,
      "–": 181,
      "—": 182,
      "‘": 183,
      "’": 184,
      "“": 185,
      "”": 186,
      "„": 187,
      "•": 188,
      "…": 189,
      "‪": 190,
      "‬": 191,
      "€": 192,
      "™": 193,
      "≈": 194,
      "≠": 195,
      "▀": 196,
      "▫": 197,
      "☁": 198,
      "☂": 199,
      "☆": 200,
      "☕": 201,
      "☝": 202,
      "☠": 203,
      "☹": 204,
      "☺": 205,
      "♀": 206,
      "♂": 207,
      "♡": 208,
      "♥": 209,
      "♪": 210,
      "♫": 211,
      "♭": 212,
      "♾": 213,
      "♿": 214,
      "⚔": 215,
      "⚰": 216,
      "⛏": 217,
      "⛑": 218,
      "✊": 219,
      "✋": 220,
      "✌": 221,
      "✔": 222,
      "✨": 223,
      "❄": 224,
      "❣": 225,
      "❤": 226,
      "⠀": 227,
      "⠁": 228,
      "⠃": 229,
      "⠄": 230,
      "⠇": 231,
      "⠈": 232,
      "⠉": 233,
      "⠊": 234,
      "⠋": 235,
      "⠏": 236,
      "⠓": 237,
      "⠘": 238,
      "⠙": 239,
      "⠚": 240,
      "⠛": 241,
      "⠞": 242,
      "⠟": 243,
      "⠢": 244,
      "⠦": 245,
      "⠫": 246,
      "⠳": 247,
      "⠴": 248,
      "⠶": 249,
      "⠸": 250,
      "⠹": 251,
      "⠻": 252,
      "⠾": 253,
      "⠿": 254,
      "⡀": 255,
      "⡄": 256,
      "⡆": 257,
      "⡇": 258,
      "⡏": 259,
      "⡜": 260,
      "⡟": 261,
      "⡶": 262,
      "⡷": 263,
      "⡼": 264,
      "⡾": 265,
      "⡿": 266,
      "⢀": 267,
      "⢠": 268,
      "⢣": 269,
      "⢤": 270,
      "⢧": 271,
      "⢰": 272,
      "⢸": 273,
      "⢹": 274,
      "⢻": 275,
      "⢿": 276,
      "⣀": 277,
      "⣄": 278,
      "⣆": 279,
      "⣇": 280,
      "⣕": 281,
      "⣘": 282,
      "⣠": 283,
      "⣤": 284,
      "⣦": 285,
      "⣧": 286,
      "⣴": 287,
      "⣶": 288,
      "⣷": 289,
      "⣹": 290,
      "⣻": 291,
      "⣼": 292,
      "⣾": 293,
      "⣿": 294,
      "⭕": 295,
      "゜": 296,
      "ツ": 297,
      "ノ": 298,
      "中": 299,
      "么": 300,
      "人": 301,
      "什": 302,
      "你": 303,
      "做": 304,
      "加": 305,
      "国": 306,
      "在": 307,
      "情": 308,
      "查": 309,
      "油": 310,
      "清": 311,
      "玛": 312,
      "雅": 313,
      "개": 314,
      "니": 315,
      "면": 316,
      "발": 317,
      "억": 318,
      "인": 319,
      "카": 320,
      "허": 321,
      "️": 322,
      "！": 323,
      "？": 324,
      "･": 325,
      "ﾉ": 326,
      "🅰": 327,
      "🅱": 328,
      "🇦": 329,
      "🇨": 330,
      "🇫": 331,
      "🇵": 332,
      "🇷": 333,
      "🇸": 334,
      "🇺": 335,
      "🌈": 336,
      "🌊": 337,
      "🌟": 338,
      "🌱": 339,
      "🌹": 340,
      "🌿": 341,
      "🍀": 342,
      "🍁": 343,
      "🍌": 344,
      "🍍": 345,
      "🍑": 346,
      "🍕": 347,
      "🍩": 348,
      "🍰": 349,
      "🍺": 350,
      "🍻": 351,
      "🍾": 352,
      "🍿": 353,
      "🎂": 354,
      "🎈": 355,
      "🎉": 356,
      "🎏": 357,
      "🎖": 358,
      "🎵": 359,
      "🎶": 360,
      "🎾": 361,
      "🏊": 362,
      "🏭": 363,
      "🏳": 364,
      "🏻": 365,
      "🏼": 366,
      "🏽": 367,
      "🏾": 368,
      "🐃": 369,
      "🐊": 370,
      "🐕": 371,
      "👀": 372,
      "👅": 373,
      "👇": 374,
      "👉": 375,
      "👊": 376,
      "👋": 377,
      "👌": 378,
      "👍": 379,
      "👏": 380,
      "👐": 381,
      "👑": 382,
      "👓": 383,
      "👩": 384,
      "👲": 385,
      "👴": 386,
      "👶": 387,
      "👸": 388,
      "👹": 389,
      "👻": 390,
      "💀": 391,
      "💁": 392,
      "💃": 393,
      "💄": 394,
      "💅": 395,
      "💆": 396,
      "💋": 397,
      "💍": 398,
      "💎": 399,
      "💓": 400,
      "💔": 401,
      "💕": 402,
      "💖": 403,
      "💗": 404,
      "💙": 405,
      "💚": 406,
      "💛": 407,
      "💜": 408,
      "💡": 409,
      "💦": 410,
      "💨": 411,
      "💩": 412,
      "💪": 413,
      "💭": 414,
      "💯": 415,
      "💰": 416,
      "📚": 417,
      "📰": 418,
      "🔑": 419,
      "🔥": 420,
      "🔪": 421,
      "🕺": 422,
      "🖐": 423,
      "🖖": 424,
      "🖤": 425,
      "🖥": 426,
      "🗑": 427,
      "🗿": 428,
      "😀": 429,
      "😁": 430,
      "😂": 431,
      "😃": 432,
      "😄": 433,
      "😅": 434,
      "😆": 435,
      "😇": 436,
      "😉": 437,
      "😊": 438,
      "😋": 439,
      "😍": 440,
      "😎": 441,
      "😏": 442,
      "😐": 443,
      "😑": 444,
      "😒": 445,
      "😓": 446,
      "😔": 447,
      "😕": 448,
      "😖": 449,
      "😗": 450,
      "😘": 451,
      "😛": 452,
      "😜": 453,
      "😝": 454,
      "😞": 455,
      "😟": 456,
      "😠": 457,
      "😡": 458,
      "😢": 459,
      "😣": 460,
      "😤": 461,
      "😥": 462,
      "😦": 463,
      "😧": 464,
      "😨": 465,
      "😩": 466,
      "😪": 467,
      "😫": 468,
      "😬": 469,
      "😭": 470,
      "😮": 471,
      "😰": 472,
      "😱": 473,
      "😳": 474,
      "😴": 475,
      "😶": 476,
      "😷": 477,
      "😸": 478,
      "😹": 479,
      "😻": 480,
      "😾": 481,
      "😿": 482,
      "🙂": 483,
      "🙃": 484,
      "🙄": 485,
      "🙅": 486,
      "🙆": 487,
      "🙈": 488,
      "🙊": 489,
      "🙌": 490,
      "🙎": 491,
      "🙏": 492,
      "🚒": 493,
      "🚫": 494,
      "🛑": 495,
      "🛡": 496,
      "🤑": 497,
      "🤓": 498,
      "🤔": 499,
      "🤕": 500,
      "🤗": 501,
      "🤘": 502,
      "🤙": 503,
      "🤚": 504,
      "🤛": 505,
      "🤞": 506,
      "🤟": 507,
      "🤠": 508,
      "🤢": 509,
      "🤣": 510,
      "🤤": 511,
      "🤦": 512,
      "🤨": 513,
      "🤩": 514,
      "🤪": 515,
      "🤫": 516,
      "🤬": 517,
      "🤭": 518,
      "🤮": 519,
      "🤯": 520,
      "🤰": 521,
      "🤲": 522,
      "🤷": 523,
      "🥂": 524,
      "🥕": 525,
      "🥘": 526,
      "🥛": 527,
      "🥰": 528,
      "🥺": 529,
      "🦀": 530,
      "🦈": 531,
      "🦗": 532,
      "🦵": 533,
      "🧀": 534,
      "🧐": 535,
      "🧛": 536,
      "🧡": 537,
      "th": 538,
      "in": 539,
      "re": 540,
      "ou": 541,
      "an": 542,
      "the": 543,
      "at": 544,
      "on": 545,
      "me": 546,
      "is": 547,
      "er": 548,
      "ing": 549,
      "it": 550,
      "st": 551,
      "or": 552,
      "to": 553,
      "al": 554,
      "you": 555,
      "en": 556,
      "le": 557,
      "as": 558,
      "ed": 559,
      "be": 560,
      "ar": 561,
      "ve": 562,
      "and": 563,
      "ly": 564,
      "he": 565,
      "se": 566,
      "no": 567,
      "ame": 568,
      "that": 569,
      "of": 570,
      "so": 571,
      "ha": 572,
      "lo": 573,
      "es": 574,
      "name": 575,
      "wh": 576,
      "li": 577,
      "ay": 578,
      "ke": 579,
      "for": 580,
      "ll": 581,
      "this": 582,
      "ac": 583,
      "..": 584,
      "id": 585,
      "ic": 586,
      "ro": 587,
      "we": 588,
      "ad": 589,
      "go": 590,
      "ut": 591,
      "ld": 592,
      "ho": 593,
      "gh": 594,
      "ver": 595,
      "wi": 596,
      "do": 597,
      "are": 598,
      "co": 599,
      "ge": 600,
      "ch": 601,
      "one": 602,
      "ti": 603,
      "ab": 604,
      "pe": 605,
      "ust": 606,
      "out": 607,
      "un": 608,
      "ri": 609,
      "mo": 610,
      "was": 611,
      "my": 612,
      "su": 613,
      "not": 614,
      "ne": 615,
      "ould": 616,
      "but": 617,
      "ir": 618,
      "po": 619,
      "ally": 620,
      "just": 621,
      "fe": 622,
      "de": 623,
      "like": 624,
      "with": 625,
      "if": 626,
      "have": 627,
      "they": 628,
      "ma": 629,
      "ght": 630,
      "op": 631,
      "ion": 632,
      "all": 633,
      "some": 634,
      "ter": 635,
      "now": 636,
      "nt": 637,
      "can": 638,
      "what": 639,
      "your": 640,
      "am": 641,
      "than": 642,
      "te": 643,
      "thing": 644,
      "sh": 645,
      "im": 646,
      "get": 647,
      "od": 648,
      "ye": 649,
      "tr": 650,
      "ce": 651,
      "ok": 652,
      "ck": 653,
      "don": 654,
      "up": 655,
      "pp": 656,
      "wor": 657,
      "con": 658,
      "ant": 659,
      "ate": 660,
      "...": 661,
      "any": 662,
      "us": 663,
      "how": 664,
      "pl": 665,
      "ther": 666,
      "ex": 667,
      "com": 668,
      "would": 669,
      "ul": 670,
      "about": 671,
      "ink": 672,
      "very": 673,
      "ss": 674,
      "thank": 675,
      "gu": 676,
      "au": 677,
      "way": 678,
      "per": 679,
      "ur": 680,
      "love": 681,
      "ta": 682,
      "end": 683,
      "ent": 684,
      "pro": 685,
      "see": 686,
      "she": 687,
      "did": 688,
      "ra": 689,
      "act": 690,
      "ind": 691,
      "ople": 692,
      "people": 693,
      "time": 694,
      "good": 695,
      "there": 696,
      "el": 697,
      "think": 698,
      "know": 699,
      "ast": 700,
      "pre": 701,
      "bo": 702,
      "!!": 703,
      "ill": 704,
      "ment": 705,
      "il": 706,
      "here": 707,
      "ag": 708,
      "art": 709,
      "more": 710,
      "her": 711,
      "ation": 712,
      "look": 713,
      "ist": 714,
      "ard": 715,
      "when": 716,
      "rom": 717,
      "nd": 718,
      "ack": 719,
      "man": 720,
      "uck": 721,
      "ous": 722,
      "too": 723,
      "ven": 724,
      "from": 725,
      "really": 726,
      "who": 727,
      "ct": 728,
      "ry": 729,
      "red": 730,
      "them": 731,
      "ough": 732,
      "got": 733,
      "him": 734,
      "ble": 735,
      "ive": 736,
      "ty": 737,
      "wo": 738,
      "will": 739,
      "cau": 740,
      "ah": 741,
      "ain": 742,
      "our": 743,
      "day": 744,
      "wn": 745,
      "cause": 746,
      "his": 747,
      "ig": 748,
      "ound": 749,
      "ide": 750,
      "has": 751,
      "fo": 752,
      "ong": 753,
      "king": 754,
      "qu": 755,
      "der": 756,
      "want": 757,
      "ting": 758,
      "every": 759,
      "sc": 760,
      "happ": 761,
      "ite": 762,
      "feel": 763,
      "sa": 764,
      "does": 765,
      "right": 766,
      "oh": 767,
      "ice": 768,
      "year": 769,
      "say": 770,
      "because": 771,
      "read": 772,
      "ers": 773,
      "ep": 774,
      "ine": 775,
      "tion": 776,
      "mu": 777,
      "other": 778,
      "lol": 779,
      "had": 780,
      "play": 781,
      "gre": 782,
      "ie": 783,
      "thanks": 784,
      "why": 785,
      "um": 786,
      "ts": 787,
      "ight": 788,
      "by": 789,
      "fa": 790,
      "even": 791,
      "sp": 792,
      "much": 793,
      "been": 794,
      "well": 795,
      "ess": 796,
      "need": 797,
      "ity": 798,
      "still": 799,
      "only": 800,
      "ol": 801,
      "off": 802,
      "af": 803,
      "ple": 804,
      "bet": 805,
      "their": 806,
      "sel": 807,
      "back": 808,
      "bad": 809,
      "jo": 810,
      "should": 811,
      "guy": 812,
      "never": 813,
      "post": 814,
      "then": 815,
      "ish": 816,
      "come": 817,
      "make": 818,
      "kes": 819,
      "being": 820,
      "could": 821,
      "ap": 822,
      "lit": 823,
      "fuck": 824,
      "pr": 825,
      "sor": 826,
      "didn": 827,
      "new": 828,
      "yeah": 829,
      "able": 830,
      "game": 831,
      "ving": 832,
      "tho": 833,
      "dis": 834,
      "ci": 835,
      "ass": 836,
      "work": 837,
      "hope": 838,
      "ick": 839,
      "].": 840,
      "self": 841,
      "actu": 842,
      "try": 843,
      "ought": 844,
      "ful": 845,
      "che": 846,
      "fun": 847,
      "ious": 848,
      "oo": 849,
      "going": 850,
      "most": 851,
      "over": 852,
      "real": 853,
      "ree": 854,
      "gr": 855,
      "ace": 856,
      "down": 857,
      "int": 858,
      "atch": 859,
      "mis": 860,
      "its": 861,
      "someone": 862,
      "ile": 863,
      "son": 864,
      "ies": 865,
      "also": 866,
      "iz": 867,
      "may": 868,
      "pret": 869,
      "sorry": 870,
      "were": 871,
      "better": 872,
      "same": 873,
      "mean": 874,
      "great": 875,
      "ru": 876,
      "ade": 877,
      "sure": 878,
      "bab": 879,
      "ms": 880,
      "vo": 881,
      "actually": 882,
      "cl": 883,
      "du": 884,
      "fir": 885,
      "rest": 886,
      "ber": 887,
      "fin": 888,
      "fri": 889,
      "low": 890,
      "though": 891,
      "thought": 892,
      "sub": 893,
      "where": 894,
      "gl": 895,
      "00": 896,
      "ever": 897,
      "ways": 898,
      "hel": 899,
      "let": 900,
      "ure": 901,
      "doesn": 902,
      "friend": 903,
      "yes": 904,
      "pretty": 905,
      "won": 906,
      "cou": 907,
      "take": 908,
      "those": 909,
      "ser": 910,
      "tal": 911,
      "haha": 912,
      "bu": 913,
      "na": 914,
      "ase": 915,
      "ason": 916,
      "age": 917,
      "something": 918,
      "fore": 919,
      "best": 920,
      "wr": 921,
      "men": 922,
      "use": 923,
      "again": 924,
      "led": 925,
      "ang": 926,
      "ated": 927,
      "under": 928,
      "om": 929,
      "person": 930,
      "spe": 931,
      "less": 932,
      "makes": 933,
      "ort": 934,
      "aw": 935,
      "di": 936,
      "after": 937,
      "help": 938,
      "happy": 939,
      "kid": 940,
      "looks": 941,
      "happen": 942,
      "app": 943,
      "first": 944,
      "into": 945,
      "hi": 946,
      "always": 947,
      "sho": 948,
      "wee": 949,
      "years": 950,
      "life": 951,
      "ue": 952,
      "these": 953,
      "dam": 954,
      "wa": 955,
      "ak": 956,
      "watch": 957,
      "part": 958,
      "old": 959,
      "min": 960,
      "ved": 961,
      "ans": 962,
      "mon": 963,
      "tle": 964,
      "bl": 965,
      "comment": 966,
      "kind": 967,
      "keep": 968,
      "],": 969,
      "made": 970,
      "br": 971,
      "bro": 972,
      "hard": 973,
      "stand": 974,
      "damn": 975,
      "lie": 976,
      "ence": 977,
      "point": 978,
      "hu": 979,
      "find": 980,
      "before": 981,
      "shit": 982,
      "des": 983,
      "lot": 984,
      "ating": 985,
      "long": 986,
      "maybe": 987,
      "ute": 988,
      "said": 989,
      "wow": 990,
      "probab": 991,
      "cr": 992,
      "probably": 993,
      "last": 994,
      "ph": 995,
      "give": 996,
      "ste": 997,
      "sound": 998,
      "things": 999,
      "stop": 1000,
      "inte": 1001,
      "ign": 1002,
      "ach": 1003,
      "ps": 1004,
      "sur": 1005,
      "start": 1006,
      "show": 1007,
      "isn": 1008,
      "care": 1009,
      "getting": 1010,
      "glad": 1011,
      ":)": 1012,
      "....": 1013,
      "ory": 1014,
      "nice": 1015,
      "sit": 1016,
      "irl": 1017,
      "pt": 1018,
      "wrong": 1019,
      "lear": 1020,
      "ird": 1021,
      "ft": 1022,
      "hate": 1023,
      "ich": 1024,
      "tell": 1025,
      "many": 1026,
      "put": 1027,
      "cor": 1028,
      "ff": 1029,
      "fere": 1030,
      "times": 1031,
      "everyone": 1032,
      "fi": 1033,
      "ins": 1034,
      "mind": 1035,
      "belie": 1036,
      "anything": 1037,
      "big": 1038,
      "dude": 1039,
      "reme": 1040,
      "chan": 1041,
      "dit": 1042,
      "ild": 1043,
      "mat": 1044,
      "girl": 1045,
      "doing": 1046,
      "ten": 1047,
      "interest": 1048,
      "ama": 1049,
      "ves": 1050,
      "tri": 1051,
      "ready": 1052,
      "ny": 1053,
      "xt": 1054,
      "ot": 1055,
      "used": 1056,
      "mar": 1057,
      "little": 1058,
      "ning": 1059,
      "cre": 1060,
      "ody": 1061,
      "wait": 1062,
      "dif": 1063,
      "wish": 1064,
      "que": 1065,
      "ily": 1066,
      "luck": 1067,
      "fl": 1068,
      "20": 1069,
      "ob": 1070,
      "ds": 1071,
      "tur": 1072,
      "bre": 1073,
      "call": 1074,
      "gen": 1075,
      "hh": 1076,
      "rel": 1077,
      "cal": 1078,
      "ense": 1079,
      "sm": 1080,
      "sing": 1081,
      "leg": 1082,
      "least": 1083,
      "team": 1084,
      "count": 1085,
      "row": 1086,
      "ical": 1087,
      "**": 1088,
      "reason": 1089,
      "guys": 1090,
      "bit": 1091,
      "ise": 1092,
      "nothing": 1093,
      "fav": 1094,
      "ince": 1095,
      "guess": 1096,
      "proble": 1097,
      "pa": 1098,
      "win": 1099,
      "body": 1100,
      "fucking": 1101,
      "ism": 1102,
      "vide": 1103,
      "high": 1104,
      "ave": 1105,
      "cool": 1106,
      "defin": 1107,
      "mor": 1108,
      "tro": 1109,
      "gon": 1110,
      "sad": 1111,
      "weird": 1112,
      "mber": 1113,
      "while": 1114,
      "trying": 1115,
      "str": 1116,
      "pu": 1117,
      "med": 1118,
      "rible": 1119,
      "understand": 1120,
      "ip": 1121,
      "around": 1122,
      "mag": 1123,
      "cra": 1124,
      "stu": 1125,
      "car": 1126,
      "joy": 1127,
      "hor": 1128,
      "both": 1129,
      "sounds": 1130,
      "amaz": 1131,
      "kill": 1132,
      "sed": 1133,
      "head": 1134,
      "far": 1135,
      "might": 1136,
      "already": 1137,
      "cho": 1138,
      "hone": 1139,
      "mer": 1140,
      "reddit": 1141,
      "which": 1142,
      "hand": 1143,
      "believe": 1144,
      "em": 1145,
      "ically": 1146,
      "true": 1147,
      "video": 1148,
      "ash": 1149,
      "rough": 1150,
      "ary": 1151,
      "enough": 1152,
      "sol": 1153,
      "hear": 1154,
      "sex": 1155,
      "agree": 1156,
      "such": 1157,
      "ted": 1158,
      "week": 1159,
      "seen": 1160,
      "having": 1161,
      "anyone": 1162,
      "two": 1163,
      "les": 1164,
      "differe": 1165,
      "wonder": 1166,
      "side": 1167,
      "vie": 1168,
      "ats": 1169,
      "til": 1170,
      "world": 1171,
      "honest": 1172,
      "fort": 1173,
      "erally": 1174,
      "else": 1175,
      "ible": 1176,
      "lose": 1177,
      "dy": 1178,
      "enjoy": 1179,
      "log": 1180,
      "itely": 1181,
      "live": 1182,
      "gonna": 1183,
      "par": 1184,
      "als": 1185,
      "sid": 1186,
      "please": 1187,
      "iously": 1188,
      "mone": 1189,
      "own": 1190,
      "stup": 1191,
      "fr": 1192,
      "run": 1193,
      "ance": 1194,
      "definitely": 1195,
      "je": 1196,
      "inter": 1197,
      "seems": 1198,
      "stupid": 1199,
      "favor": 1200,
      "another": 1201,
      "!!!": 1202,
      "since": 1203,
      "child": 1204,
      "amazing": 1205,
      "awe": 1206,
      "dont": 1207,
      "exact": 1208,
      "kids": 1209,
      "arent": 1210,
      "remember": 1211,
      "yourself": 1212,
      "pic": 1213,
      "cu": 1214,
      "next": 1215,
      "cur": 1216,
      "vi": 1217,
      "money": 1218,
      "hell": 1219,
      "gi": 1220,
      "problem": 1221,
      "gg": 1222,
      "ize": 1223,
      "ned": 1224,
      "ward": 1225,
      "char": 1226,
      "boy": 1227,
      "funny": 1228,
      "through": 1229,
      "gets": 1230,
      "awesome": 1231,
      "fact": 1232,
      "ster": 1233,
      "fect": 1234,
      "job": 1235,
      "until": 1236,
      "ction": 1237,
      "interesting": 1238,
      "ither": 1239,
      "ked": 1240,
      "ens": 1241,
      "cer": 1242,
      "ee": 1243,
      "looking": 1244,
      "saying": 1245,
      "lau": 1246,
      "ations": 1247,
      "10": 1248,
      "wer": 1249,
      "dec": 1250,
      "face": 1251,
      "pay": 1252,
      "without": 1253,
      "ult": 1254,
      "away": 1255,
      "ago": 1256,
      "left": 1257,
      "ball": 1258,
      "fam": 1259,
      "aa": 1260,
      "season": 1261,
      "bas": 1262,
      "must": 1263,
      "wouldn": 1264,
      "rep": 1265,
      "home": 1266,
      "literally": 1267,
      "??": 1268,
      "ca": 1269,
      "place": 1270,
      "done": 1271,
      "secon": 1272,
      "imp": 1273,
      "whole": 1274,
      "nor": 1275,
      "peri": 1276,
      "idea": 1277,
      "stion": 1278,
      "scho": 1279,
      "tw": 1280,
      "col": 1281,
      "pect": 1282,
      "ater": 1283,
      "enti": 1284,
      "comp": 1285,
      "ists": 1286,
      "pris": 1287,
      "came": 1288,
      "supp": 1289,
      "few": 1290,
      "line": 1291,
      "school": 1292,
      "lma": 1293,
      "ative": 1294,
      "eas": 1295,
      "vers": 1296,
      "tive": 1297,
      "suck": 1298,
      "super": 1299,
      "favorite": 1300,
      "ton": 1301,
      "plain": 1302,
      "mit": 1303,
      "ars": 1304,
      "light": 1305,
      "ner": 1306,
      "zy": 1307,
      "imag": 1308,
      "press": 1309,
      "expect": 1310,
      "fu": 1311,
      "bi": 1312,
      "heard": 1313,
      "wasn": 1314,
      "aut": 1315,
      "lmao": 1316,
      "either": 1317,
      "ors": 1318,
      "lig": 1319,
      "friends": 1320,
      "hur": 1321,
      "sy": 1322,
      "free": 1323,
      "against": 1324,
      "dra": 1325,
      "dum": 1326,
      "cept": 1327,
      "check": 1328,
      "night": 1329,
      "lic": 1330,
      "women": 1331,
      "sha": 1332,
      "once": 1333,
      "everything": 1334,
      "cial": 1335,
      "talk": 1336,
      "mal": 1337,
      "def": 1338,
      "question": 1339,
      "went": 1340,
      "ates": 1341,
      "feeling": 1342,
      "stay": 1343,
      "joke": 1344,
      "absol": 1345,
      "ately": 1346,
      "exactly": 1347,
      "sense": 1348,
      "comple": 1349,
      "honestly": 1350,
      "rect": 1351,
      "making": 1352,
      "absolute": 1353,
      "ces": 1354,
      "clear": 1355,
      "set": 1356,
      "laugh": 1357,
      "ia": 1358,
      "ev": 1359,
      "different": 1360,
      "yet": 1361,
      "sent": 1362,
      "month": 1363,
      "fre": 1364,
      "ding": 1365,
      "et": 1366,
      "ger": 1367,
      "ses": 1368,
      "saw": 1369,
      "blo": 1370,
      "story": 1371,
      "talking": 1372,
      "ped": 1373,
      "aren": 1374,
      "spon": 1375,
      "poor": 1376,
      "ters": 1377,
      "oooo": 1378,
      "stuff": 1379,
      "?!": 1380,
      "val": 1381,
      "acc": 1382,
      "ream": 1383,
      "ath": 1384,
      "wel": 1385,
      "second": 1386,
      "exc": 1387,
      "happened": 1388,
      "ef": 1389,
      "beaut": 1390,
      "ying": 1391,
      "sign": 1392,
      "wal": 1393,
      "ones": 1394,
      "change": 1395,
      "bar": 1396,
      "ian": 1397,
      "found": 1398,
      "needs": 1399,
      "terrible": 1400,
      "complete": 1401,
      "myself": 1402,
      "ship": 1403,
      "lt": 1404,
      "sk": 1405,
      "coming": 1406,
      "dri": 1407,
      "ric": 1408,
      "days": 1409,
      "bs": 1410,
      "worse": 1411,
      "vote": 1412,
      "move": 1413,
      "ban": 1414,
      "ju": 1415,
      "dog": 1416,
      "miss": 1417,
      "fan": 1418,
      ":(": 1419,
      "bur": 1420,
      "list": 1421,
      "using": 1422,
      "okay": 1423,
      "wanted": 1424,
      "ear": 1425,
      "mm": 1426,
      "hit": 1427,
      "ask": 1428,
      "respon": 1429,
      "la": 1430,
      "cont": 1431,
      "!!!!": 1432,
      "cri": 1433,
      "att": 1434,
      "almost": 1435,
      "omg": 1436,
      "playing": 1437,
      "bra": 1438,
      "ics": 1439,
      "ions": 1440,
      "surpris": 1441,
      "bor": 1442,
      "poss": 1443,
      "tain": 1444,
      "issu": 1445,
      "iful": 1446,
      "worst": 1447,
      "vice": 1448,
      "inc": 1449,
      "action": 1450,
      "pri": 1451,
      "state": 1452,
      "war": 1453,
      "reci": 1454,
      "heal": 1455,
      "cent": 1456,
      "conf": 1457,
      "book": 1458,
      "human": 1459,
      "dr": 1460,
      "nce": 1461,
      "top": 1462,
      "hey": 1463,
      "pick": 1464,
      "gue": 1465,
      "beautiful": 1466,
      "llow": 1467,
      "today": 1468,
      "add": 1469,
      "ual": 1470,
      "mom": 1471,
      "imagine": 1472,
      "cle": 1473,
      "worth": 1474,
      "relig": 1475,
      "break": 1476,
      "pain": 1477,
      "net": 1478,
      "crazy": 1479,
      "ited": 1480,
      "deal": 1481,
      "rid": 1482,
      "ub": 1483,
      "god": 1484,
      "fight": 1485,
      "leave": 1486,
      "sometimes": 1487,
      "sto": 1488,
      "rac": 1489,
      "heart": 1490,
      "cha": 1491,
      "ming": 1492,
      "parent": 1493,
      "haven": 1494,
      "news": 1495,
      "ness": 1496,
      "vel": 1497,
      "thinking": 1498,
      "dou": 1499,
      "family": 1500,
      "sim": 1501,
      "ared": 1502,
      "comm": 1503,
      "pass": 1504,
      "cour": 1505,
      "ken": 1506,
      "experi": 1507,
      "cy": 1508,
      "ouse": 1509,
      "lost": 1510,
      "appreci": 1511,
      "gotta": 1512,
      "games": 1513,
      "hal": 1514,
      "vis": 1515,
      "ane": 1516,
      "taking": 1517,
      "cut": 1518,
      "turn": 1519,
      "ren": 1520,
      "ket": 1521,
      "ending": 1522,
      "non": 1523,
      "kinda": 1524,
      "fully": 1525,
      "baby": 1526,
      "obv": 1527,
      "hour": 1528,
      "ping": 1529,
      "lling": 1530,
      "cry": 1531,
      "ks": 1532,
      "shot": 1533,
      "cap": 1534,
      "aring": 1535,
      "gun": 1536,
      "anger": 1537,
      "fer": 1538,
      "ilar": 1539,
      "charac": 1540,
      "tru": 1541,
      "perfect": 1542,
      "feels": 1543,
      "absolutely": 1544,
      "surprised": 1545,
      "ib": 1546,
      "mess": 1547,
      "open": 1548,
      "cute": 1549,
      "weet": 1550,
      "cess": 1551,
      "fic": 1552,
      "remind": 1553,
      "ments": 1554,
      "cially": 1555,
      "bot": 1556,
      "fair": 1557,
      "comments": 1558,
      "deser": 1559,
      "welcome": 1560,
      "ross": 1561,
      "polit": 1562,
      "rather": 1563,
      "dumb": 1564,
      "bed": 1565,
      "por": 1566,
      "entire": 1567,
      "ced": 1568,
      "thread": 1569,
      "seriously": 1570,
      "health": 1571,
      "seem": 1572,
      "thats": 1573,
      "plan": 1574,
      "awful": 1575,
      "close": 1576,
      "watching": 1577,
      "eat": 1578,
      "reg": 1579,
      "called": 1580,
      "past": 1581,
      "tre": 1582,
      "word": 1583,
      "comes": 1584,
      "completely": 1585,
      "woman": 1586,
      "gy": 1587,
      "ya": 1588,
      "exp": 1589,
      "ized": 1590,
      "]?": 1591,
      "fine": 1592,
      "⠀⠀": 1593,
      "spect": 1594,
      "view": 1595,
      "land": 1596,
      "meme": 1597,
      "key": 1598,
      "idi": 1599,
      "201": 1600,
      "law": 1601,
      "soon": 1602,
      "gover": 1603,
      "tit": 1604,
      "ange": 1605,
      "unch": 1606,
      "dad": 1607,
      "half": 1608,
      "argu": 1609,
      "support": 1610,
      "date": 1611,
      "house": 1612,
      "mate": 1613,
      "lea": 1614,
      "form": 1615,
      "link": 1616,
      "congr": 1617,
      "alone": 1618,
      "edit": 1619,
      "matter": 1620,
      "die": 1621,
      "inst": 1622,
      "pop": 1623,
      "]!": 1624,
      "dro": 1625,
      "res": 1626,
      "ality": 1627,
      "ried": 1628,
      "stead": 1629,
      "ture": 1630,
      "ering": 1631,
      "room": 1632,
      "appreciate": 1633,
      "ress": 1634,
      "dest": 1635,
      "dead": 1636,
      "fall": 1637,
      "worry": 1638,
      "food": 1639,
      "americ": 1640,
      "ular": 1641,
      "mil": 1642,
      "spo": 1643,
      "took": 1644,
      "cus": 1645,
      "mine": 1646,
      "instead": 1647,
      "meant": 1648,
      "gener": 1649,
      "full": 1650,
      "^^": 1651,
      "played": 1652,
      "gs": 1653,
      "goes": 1654,
      "explain": 1655,
      "bud": 1656,
      "situ": 1657,
      "possible": 1658,
      "tot": 1659,
      "hot": 1660,
      "wants": 1661,
      "ier": 1662,
      "opin": 1663,
      "100": 1664,
      "ons": 1665,
      "cring": 1666,
      "mp": 1667,
      "class": 1668,
      "ial": 1669,
      "knew": 1670,
      "arch": 1671,
      "ween": 1672,
      "contro": 1673,
      "artic": 1674,
      "works": 1675,
      "picture": 1676,
      "den": 1677,
      "assu": 1678,
      "ended": 1679,
      "religion": 1680,
      "bus": 1681,
      "ys": 1682,
      "gest": 1683,
      "movie": 1684,
      "posit": 1685,
      "couldn": 1686,
      "fortun": 1687,
      "sucks": 1688,
      ".\"": 1689,
      "aking": 1690,
      "parents": 1691,
      "told": 1692,
      "quite": 1693,
      "each": 1694,
      "loved": 1695,
      "espe": 1696,
      "reading": 1697,
      "tried": 1698,
      "shame": 1699,
      "tra": 1700,
      "ility": 1701,
      "bring": 1702,
      "correct": 1703,
      "commun": 1704,
      "especially": 1705,
      "ends": 1706,
      "says": 1707,
      "iety": 1708,
      "between": 1709,
      "govern": 1710,
      "hold": 1711,
      "power": 1712,
      "means": 1713,
      "uu": 1714,
      "iron": 1715,
      "words": 1716,
      "relation": 1717,
      "totally": 1718,
      "horrible": 1719,
      "band": 1720,
      "oud": 1721,
      "level": 1722,
      "test": 1723,
      "easy": 1724,
      "num": 1725,
      "hes": 1726,
      "anymore": 1727,
      "couple": 1728,
      "happens": 1729,
      "curi": 1730,
      "poin": 1731,
      "pped": 1732,
      "seeing": 1733,
      "players": 1734,
      "prof": 1735,
      "strong": 1736,
      "cat": 1737,
      "ls": 1738,
      "tu": 1739,
      "star": 1740,
      "youn": 1741,
      "forgot": 1742,
      "realize": 1743,
      "usu": 1744,
      "hair": 1745,
      "started": 1746,
      "country": 1747,
      "hurt": 1748,
      "ug": 1749,
      "toge": 1750,
      "scre": 1751,
      "phone": 1752,
      "together": 1753,
      "mid": 1754,
      "stra": 1755,
      "bt": 1756,
      "become": 1757,
      "moment": 1758,
      "ext": 1759,
      "hy": 1760,
      "ital": 1761,
      "exist": 1762,
      "emo": 1763,
      "fil": 1764,
      "pho": 1765,
      "wife": 1766,
      "consid": 1767,
      "course": 1768,
      "fast": 1769,
      "wan": 1770,
      "av": 1771,
      "fut": 1772,
      "attack": 1773,
      "case": 1774,
      "har": 1775,
      "song": 1776,
      "tb": 1777,
      "buy": 1778,
      "sweet": 1779,
      "rent": 1780,
      "ents": 1781,
      "epis": 1782,
      "late": 1783,
      "ror": 1784,
      "vol": 1785,
      "posted": 1786,
      "experience": 1787,
      "nah": 1788,
      "unfortun": 1789,
      "figu": 1790,
      "months": 1791,
      "cli": 1792,
      "sw": 1793,
      "takes": 1794,
      "posts": 1795,
      "spec": 1796,
      "normal": 1797,
      "clo": 1798,
      "oc": 1799,
      "pen": 1800,
      "safe": 1801,
      "30": 1802,
      "jer": 1803,
      "sou": 1804,
      "issue": 1805,
      "da": 1806,
      "mad": 1807,
      "apo": 1808,
      "pis": 1809,
      "round": 1810,
      "working": 1811,
      "selves": 1812,
      "legal": 1813,
      "15": 1814,
      "chang": 1815,
      "tions": 1816,
      "situation": 1817,
      "except": 1818,
      "government": 1819,
      "future": 1820,
      "mus": 1821,
      "iness": 1822,
      "nobody": 1823,
      "ump": 1824,
      "mi": 1825,
      "itch": 1826,
      "social": 1827,
      "girls": 1828,
      "import": 1829,
      "fans": 1830,
      "lect": 1831,
      "beat": 1832,
      "holy": 1833,
      "ries": 1834,
      "listen": 1835,
      "sal": 1836,
      "others": 1837,
      "cringe": 1838,
      "99": 1839,
      "aim": 1840,
      "sle": 1841,
      "wub": 1842,
      "anti": 1843,
      "medi": 1844,
      "liber": 1845,
      "quick": 1846,
      "sco": 1847,
      "answer": 1848,
      "chance": 1849,
      "obviously": 1850,
      "article": 1851,
      "hist": 1852,
      "ref": 1853,
      "learn": 1854,
      "wubwub": 1855,
      "os": 1856,
      "respect": 1857,
      "forget": 1858,
      "ident": 1859,
      "vic": 1860,
      "lead": 1861,
      "active": 1862,
      "finally": 1863,
      "single": 1864,
      "ject": 1865,
      "curious": 1866,
      "wanna": 1867,
      "ount": 1868,
      "lying": 1869,
      "cked": 1870,
      "cake": 1871,
      "character": 1872,
      "gar": 1873,
      "sour": 1874,
      "del": 1875,
      "gust": 1876,
      "ities": 1877,
      "advice": 1878,
      "mother": 1879,
      "ional": 1880,
      "whatever": 1881,
      "voted": 1882,
      "pub": 1883,
      "gone": 1884,
      "dep": 1885,
      "iled": 1886,
      "internet": 1887,
      "order": 1888,
      "account": 1889,
      "istic": 1890,
      "scen": 1891,
      "disap": 1892,
      "ches": 1893,
      "lad": 1894,
      "sick": 1895,
      "ines": 1896,
      "acy": 1897,
      "fake": 1898,
      "tbh": 1899,
      "ail": 1900,
      "water": 1901,
      "throw": 1902,
      "text": 1903,
      "loves": 1904,
      "children": 1905,
      "ank": 1906,
      "iced": 1907,
      "ific": 1908,
      "ulous": 1909,
      "brother": 1910,
      "clearly": 1911,
      "racist": 1912,
      "cas": 1913,
      "gave": 1914,
      "hun": 1915,
      "later": 1916,
      "lies": 1917,
      "anyway": 1918,
      "player": 1919,
      "writ": 1920,
      ").": 1921,
      "pie": 1922,
      "tes": 1923,
      "living": 1924,
      "disgust": 1925,
      "grou": 1926,
      "ling": 1927,
      "pur": 1928,
      "rant": 1929,
      "wing": 1930,
      "ont": 1931,
      "creep": 1932,
      "extreme": 1933,
      "shut": 1934,
      "gress": 1935,
      "actual": 1936,
      "small": 1937,
      "~~": 1938,
      "anx": 1939,
      "sty": 1940,
      "follow": 1941,
      "giving": 1942,
      "12": 1943,
      "gin": 1944,
      "ugh": 1945,
      "allow": 1946,
      "uring": 1947,
      "certain": 1948,
      "ridic": 1949,
      "air": 1950,
      "og": 1951,
      "gold": 1952,
      "utes": 1953,
      "missed": 1954,
      "huge": 1955,
      "ensive": 1956,
      "excited": 1957,
      "drink": 1958,
      "opinion": 1959,
      "cant": 1960,
      "looked": 1961,
      "fix": 1962,
      "young": 1963,
      "50": 1964,
      "cen": 1965,
      "ode": 1966,
      "wast": 1967,
      "moved": 1968,
      "felt": 1969,
      "astic": 1970,
      "ben": 1971,
      "ark": 1972,
      "antly": 1973,
      "history": 1974,
      "asc": 1975,
      "main": 1976,
      "given": 1977,
      "episode": 1978,
      "unfortunately": 1979,
      "ridiculous": 1980,
      "vs": 1981,
      "rele": 1982,
      "cold": 1983,
      "rif": 1984,
      "death": 1985,
      "yep": 1986,
      "pping": 1987,
      "hours": 1988,
      "\".": 1989,
      "grow": 1990,
      "attr": 1991,
      "pose": 1992,
      "poli": 1993,
      "brain": 1994,
      "incred": 1995,
      "ibly": 1996,
      "control": 1997,
      "important": 1998,
      "gan": 1999,
      "ni": 2000,
      "stick": 2001,
      "often": 2002,
      ".....": 2003,
      "concer": 2004,
      "serious": 2005,
      "straight": 2006,
      "nat": 2007,
      "ring": 2008,
      "loss": 2009,
      "knows": 2010,
      "needed": 2011,
      "finish": 2012,
      "relationship": 2013,
      "dream": 2014,
      "sme": 2015,
      "lls": 2016,
      "likely": 2017,
      "illed": 2018,
      "ignor": 2019,
      "response": 2020,
      "dru": 2021,
      "wise": 2022,
      "anim": 2023,
      "step": 2024,
      "tax": 2025,
      "watched": 2026,
      "usually": 2027,
      "ba": 2028,
      "gn": 2029,
      "near": 2030,
      "ational": 2031,
      "type": 2032,
      "mention": 2033,
      "black": 2034,
      "bir": 2035,
      "vid": 2036,
      "minutes": 2037,
      "eeee": 2038,
      "basically": 2039,
      "deserve": 2040,
      "america": 2041,
      "ded": 2042,
      "idence": 2043,
      "pet": 2044,
      "short": 2045,
      "number": 2046,
      "fant": 2047,
      "mur": 2048,
      "sl": 2049,
      "outside": 2050,
      "didnt": 2051,
      "clu": 2052,
      "ord": 2053,
      "demo": 2054,
      "idiot": 2055,
      "ugly": 2056,
      "eyes": 2057,
      "ram": 2058,
      "si": 2059,
      "sen": 2060,
      "white": 2061,
      "canad": 2062,
      "hhhh": 2063,
      "title": 2064,
      "thre": 2065,
      "wear": 2066,
      "hoping": 2067,
      "ustr": 2068,
      "trans": 2069,
      "front": 2070,
      "birth": 2071,
      "killed": 2072,
      "sun": 2073,
      "ati": 2074,
      "idk": 2075,
      "sup": 2076,
      "odd": 2077,
      "trust": 2078,
      "complain": 2079,
      "subreddit": 2080,
      "push": 2081,
      "apolog": 2082,
      "sleep": 2083,
      "ax": 2084,
      "during": 2085,
      "ging": 2086,
      "ories": 2087,
      "lion": 2088,
      "aces": 2089,
      "uni": 2090,
      "raid": 2091,
      "spir": 2092,
      "hands": 2093,
      "reply": 2094,
      "congrats": 2095,
      "200": 2096,
      "eye": 2097,
      "hus": 2098,
      "ots": 2099,
      "recent": 2100,
      "mental": 2101,
      "themselves": 2102,
      "void": 2103,
      "claim": 2104,
      "drive": 2105,
      "disgusting": 2106,
      "hind": 2107,
      "hilar": 2108,
      "three": 2109,
      "liked": 2110,
      "const": 2111,
      "posting": 2112,
      "died": 2113,
      "apparent": 2114,
      "contin": 2115,
      "doubt": 2116,
      "music": 2117,
      "contr": 2118,
      "present": 2119,
      "grand": 2120,
      "current": 2121,
      "unless": 2122,
      "sul": 2123,
      "foot": 2124,
      "build": 2125,
      "emp": 2126,
      "!\"": 2127,
      "fli": 2128,
      "sn": 2129,
      "xic": 2130,
      "😂😂": 2131,
      "ret": 2132,
      "shouldn": 2133,
      "sort": 2134,
      "hopefully": 2135,
      "personally": 2136,
      "party": 2137,
      "wards": 2138,
      "argument": 2139,
      "photo": 2140,
      "cam": 2141,
      "dle": 2142,
      "uc": 2143,
      "anno": 2144,
      "suc": 2145,
      "shi": 2146,
      "trash": 2147,
      "cking": 2148,
      "save": 2149,
      "0000": 2150,
      "hahaha": 2151,
      "psy": 2152,
      "tonight": 2153,
      "bing": 2154,
      "dist": 2155,
      "accept": 2156,
      "tiv": 2157,
      "sharing": 2158,
      "hilarious": 2159,
      "apparently": 2160,
      "tic": 2161,
      "wall": 2162,
      "atten": 2163,
      "tem": 2164,
      "user": 2165,
      "comfort": 2166,
      "afraid": 2167,
      "crit": 2168,
      "interested": 2169,
      "husband": 2170,
      "city": 2171,
      "danger": 2172,
      "est": 2173,
      "refere": 2174,
      "ator": 2175,
      "orig": 2176,
      "ground": 2177,
      "colle": 2178,
      "police": 2179,
      "flo": 2180,
      "ose": 2181,
      "sil": 2182,
      "ining": 2183,
      "cover": 2184,
      "noticed": 2185,
      "prote": 2186,
      "ards": 2187,
      "league": 2188,
      "fur": 2189,
      "sum": 2190,
      "calling": 2191,
      "suppor": 2192,
      "bal": 2193,
      "ution": 2194,
      "doct": 2195,
      "confir": 2196,
      "fire": 2197,
      "insane": 2198,
      "logy": 2199,
      "syste": 2200,
      "bul": 2201,
      "tom": 2202,
      "roy": 2203,
      "posed": 2204,
      "ulti": 2205,
      "ages": 2206,
      "scri": 2207,
      "pray": 2208,
      "tube": 2209,
      "tar": 2210,
      "ze": 2211,
      "behind": 2212,
      "worried": 2213,
      "proper": 2214,
      "bat": 2215,
      "ged": 2216,
      "smo": 2217,
      "ined": 2218,
      "town": 2219,
      "therap": 2220,
      "confused": 2221,
      "truly": 2222,
      "--": 2223,
      "equ": 2224,
      "fat": 2225,
      "rown": 2226,
      "train": 2227,
      "himself": 2228,
      "proud": 2229,
      "chee": 2230,
      "appro": 2231,
      "truth": 2232,
      "gra": 2233,
      "pun": 2234,
      "search": 2235,
      "upvote": 2236,
      "rage": 2237,
      "aged": 2238,
      "hero": 2239,
      "bless": 2240,
      "ii": 2241,
      "jok": 2242,
      "ws": 2243,
      "soc": 2244,
      "depress": 2245,
      "source": 2246,
      "extremely": 2247,
      "hum": 2248,
      "vant": 2249,
      "zz": 2250,
      "hole": 2251,
      "scared": 2252,
      "speak": 2253,
      "direct": 2254,
      "similar": 2255,
      "screen": 2256,
      "public": 2257,
      "piece": 2258,
      "lar": 2259,
      "rich": 2260,
      "tf": 2261,
      "taken": 2262,
      "steal": 2263,
      "sexual": 2264,
      "jud": 2265,
      "group": 2266,
      "attention": 2267,
      "40": 2268,
      "bri": 2269,
      "cing": 2270,
      "pan": 2271,
      "cost": 2272,
      "cheers": 2273,
      "legit": 2274,
      "avoid": 2275,
      "ctive": 2276,
      "hang": 2277,
      "yy": 2278,
      "pos": 2279,
      "dered": 2280,
      "aught": 2281,
      "thinks": 2282,
      "ield": 2283,
      "expected": 2284,
      "share": 2285,
      "origin": 2286,
      "cast": 2287,
      "irt": 2288,
      "common": 2289,
      "worked": 2290,
      "votes": 2291,
      "based": 2292,
      "crying": 2293,
      "fit": 2294,
      "imo": 2295,
      "mass": 2296,
      "load": 2297,
      "ict": 2298,
      "goal": 2299,
      "produ": 2300,
      "fail": 2301,
      "cop": 2302,
      "yester": 2303,
      "cord": 2304,
      "smile": 2305,
      "issues": 2306,
      "yesterday": 2307,
      ".”": 2308,
      "fy": 2309,
      "gif": 2310,
      "ices": 2311,
      "sci": 2312,
      "blame": 2313,
      "phys": 2314,
      "inside": 2315,
      "waiting": 2316,
      "creepy": 2317,
      "ith": 2318,
      "port": 2319,
      "rus": 2320,
      "sis": 2321,
      "regre": 2322,
      "nope": 2323,
      "likes": 2324,
      "ably": 2325,
      "ability": 2326,
      "trade": 2327,
      "upset": 2328,
      "hasn": 2329,
      "weeks": 2330,
      "difference": 2331,
      "canada": 2332,
      "cru": 2333,
      "match": 2334,
      "ased": 2335,
      "asking": 2336,
      "area": 2337,
      "discus": 2338,
      "longer": 2339,
      "lucky": 2340,
      "path": 2341,
      "paid": 2342,
      "company": 2343,
      "points": 2344,
      "rand": 2345,
      "ouch": 2346,
      "west": 2347,
      "sug": 2348,
      "amount": 2349,
      "bow": 2350,
      "block": 2351,
      "buddy": 2352,
      "system": 2353,
      "bum": 2354,
      "catch": 2355,
      "dark": 2356,
      "io": 2357,
      "tv": 2358,
      "yo": 2359,
      "ina": 2360,
      "space": 2361,
      "walk": 2362,
      "general": 2363,
      "cir": 2364,
      "fasc": 2365,
      "😤😤": 2366,
      "met": 2367,
      "forward": 2368,
      "wash": 2369,
      "deep": 2370,
      "prove": 2371,
      "coun": 2372,
      "figure": 2373,
      "bage": 2374,
      "mb": 2375,
      "oting": 2376,
      "inclu": 2377,
      "alright": 2378,
      "neg": 2379,
      "presid": 2380,
      "running": 2381,
      "disappoint": 2382,
      "fal": 2383,
      "lack": 2384,
      "uine": 2385,
      "info": 2386,
      "coach": 2387,
      "enty": 2388,
      "appe": 2389,
      "genuine": 2390,
      "crap": 2391,
      "viol": 2392,
      "twit": 2393,
      "etc": 2394,
      "clean": 2395,
      "ris": 2396,
      "reco": 2397,
      "ample": 2398,
      "extra": 2399,
      "quit": 2400,
      "huh": 2401,
      "problems": 2402,
      "wondering": 2403,
      "boys": 2404,
      "emotion": 2405,
      "democr": 2406,
      "ired": 2407,
      "jor": 2408,
      "kick": 2409,
      "mou": 2410,
      "slow": 2411,
      "ually": 2412,
      "ised": 2413,
      "ition": 2414,
      "arely": 2415,
      "tern": 2416,
      "boo": 2417,
      "typ": 2418,
      "ooo": 2419,
      "wonderful": 2420,
      "report": 2421,
      "anxiety": 2422,
      "cross": 2423,
      "eu": 2424,
      "igh": 2425,
      "send": 2426,
      "vent": 2427,
      "youtube": 2428,
      "yea": 2429,
      "comme": 2430,
      "ently": 2431,
      "spend": 2432,
      "angry": 2433,
      "older": 2434,
      "gives": 2435,
      "videos": 2436,
      "birthday": 2437,
      "comfortable": 2438,
      "16": 2439,
      "nu": 2440,
      "pack": 2441,
      "wed": 2442,
      "reaction": 2443,
      "educ": 2444,
      "beha": 2445,
      "tired": 2446,
      "abo": 2447,
      "feed": 2448,
      "ender": 2449,
      "prefer": 2450,
      "ils": 2451,
      "quality": 2452,
      "fault": 2453,
      "thoughts": 2454,
      "troll": 2455,
      "store": 2456,
      "attractive": 2457,
      "success": 2458,
      "behavi": 2459,
      "ili": 2460,
      "ran": 2461,
      "losing": 2462,
      "ici": 2463,
      "notice": 2464,
      "scream": 2465,
      "service": 2466,
      "starting": 2467,
      "early": 2468,
      "political": 2469,
      "card": 2470,
      "ele": 2471,
      "ler": 2472,
      "sion": 2473,
      "chick": 2474,
      "tech": 2475,
      "pract": 2476,
      "special": 2477,
      "choice": 2478,
      "embar": 2479,
      "male": 2480,
      "commend": 2481,
      "base": 2482,
      "eating": 2483,
      "fing": 2484,
      "fle": 2485,
      "pi": 2486,
      "sat": 2487,
      "online": 2488,
      "sess": 2489,
      "roll": 2490,
      "road": 2491,
      "ury": 2492,
      "due": 2493,
      "shows": 2494,
      "sides": 2495,
      "simple": 2496,
      "considering": 2497,
      "waste": 2498,
      "college": 2499,
      "eth": 2500,
      "zer": 2501,
      "inform": 2502,
      "stru": 2503,
      "kept": 2504,
      "convers": 2505,
      "commit": 2506,
      "broken": 2507,
      "telling": 2508,
      "morning": 2509,
      "decis": 2510,
      "19": 2511,
      "aver": 2512,
      "hat": 2513,
      "pal": 2514,
      "simp": 2515,
      "recommend": 2516,
      "pot": 2517,
      "ants": 2518,
      "downvoted": 2519,
      "putting": 2520,
      "strange": 2521,
      "middle": 2522,
      "society": 2523,
      "mas": 2524,
      "suff": 2525,
      "trou": 2526,
      "cons": 2527,
      "agre": 2528,
      "gotten": 2529,
      "bull": 2530,
      "turned": 2531,
      "protect": 2532,
      "random": 2533,
      "twitter": 2534,
      "cult": 2535,
      "ez": 2536,
      "gross": 2537,
      "uk": 2538,
      "alive": 2539,
      "exce": 2540,
      "otherwise": 2541,
      "cious": 2542,
      "keeps": 2543,
      "hug": 2544,
      "skin": 2545,
      "scene": 2546,
      ":/": 2547,
      "bunch": 2548,
      "fed": 2549,
      "squ": 2550,
      "tor": 2551,
      "orts": 2552,
      "toxic": 2553,
      "ences": 2554,
      "bel": 2555,
      "goog": 2556,
      "sult": 2557,
      "major": 2558,
      "rape": 2559,
      "ization": 2560,
      "teams": 2561,
      "killing": 2562,
      "banned": 2563,
      "crime": 2564,
      "congrat": 2565,
      "garbage": 2566,
      "trouble": 2567,
      "11": 2568,
      "cust": 2569,
      "field": 2570,
      "third": 2571,
      "removed": 2572,
      "admit": 2573,
      "necess": 2574,
      "deli": 2575,
      "cks": 2576,
      "playoff": 2577,
      "reality": 2578,
      "diffic": 2579,
      "related": 2580,
      "aaaa": 2581,
      "event": 2582,
      "regard": 2583,
      "treat": 2584,
      "profess": 2585,
      "consider": 2586,
      "lady": 2587,
      "doctor": 2588,
      "mouth": 2589,
      "dd": 2590,
      "lots": 2591,
      "weight": 2592,
      "term": 2593,
      "box": 2594,
      "father": 2595,
      "gram": 2596,
      "happening": 2597,
      "stud": 2598,
      "expecting": 2599,
      "defense": 2600,
      "fighting": 2601,
      "changed": 2602,
      "media": 2603,
      "original": 2604,
      "embarr": 2605,
      "congratul": 2606,
      "eh": 2607,
      "vacc": 2608,
      "stat": 2609,
      "option": 2610,
      "board": 2611,
      "biggest": 2612,
      "kills": 2613,
      "???": 2614,
      "draft": 2615,
      "accident": 2616,
      "effort": 2617,
      "burn": 2618,
      "porn": 2619,
      "destroy": 2620,
      "jerk": 2621,
      "dangerous": 2622,
      "regret": 2623,
      "bag": 2624,
      "page": 2625,
      "stuck": 2626,
      "tomor": 2627,
      "eng": 2628,
      "arc": 2629,
      "unt": 2630,
      "fellow": 2631,
      "mistake": 2632,
      "write": 2633,
      "cares": 2634,
      "sadly": 2635,
      "pull": 2636,
      "decid": 2637,
      "paying": 2638,
      "balls": 2639,
      "hurts": 2640,
      "position": 2641,
      "community": 2642,
      "style": 2643,
      "natur": 2644,
      "embarrass": 2645,
      ";)": 2646,
      "ai": 2647,
      "bru": 2648,
      "dare": 2649,
      "nut": 2650,
      "snow": 2651,
      "za": 2652,
      "ops": 2653,
      "somewhere": 2654,
      "places": 2655,
      "scary": 2656,
      "prise": 2657,
      "mostly": 2658,
      "learned": 2659,
      "effect": 2660,
      "reminds": 2661,
      "bottom": 2662,
      "politics": 2663,
      "drop": 2664,
      "assume": 2665,
      "business": 2666,
      "reference": 2667,
      "information": 2668,
      "bon": 2669,
      "lan": 2670,
      "van": 2671,
      "series": 2672,
      "surprise": 2673,
      "blood": 2674,
      "born": 2675,
      "rifying": 2676,
      "supposed": 2677,
      "football": 2678,
      "genuinely": 2679,
      "tomorrow": 2680,
      "2nd": 2681,
      "cro": 2682,
      "fish": 2683,
      "lled": 2684,
      "rr": 2685,
      "yup": 2686,
      "asked": 2687,
      "vest": 2688,
      "teac": 2689,
      "disagree": 2690,
      "missing": 2691,
      "excuse": 2692,
      "pointing": 2693,
      "false": 2694,
      "lord": 2695,
      "none": 2696,
      "sli": 2697,
      "whe": 2698,
      "rece": 2699,
      "accur": 2700,
      "moving": 2701,
      "shirt": 2702,
      "plenty": 2703,
      "compe": 2704,
      "office": 2705,
      "meaning": 2706,
      "personal": 2707,
      "blue": 2708,
      "facebook": 2709,
      "pissed": 2710,
      "wubwubwubwub": 2711,
      "certainly": 2712,
      "murder": 2713,
      "username": 2714,
      "summer": 2715,
      "difficult": 2716,
      "kward": 2717,
      "lines": 2718,
      "rs": 2719,
      "uh": 2720,
      "stri": 2721,
      "alous": 2722,
      "door": 2723,
      "abuse": 2724,
      "fear": 2725,
      "faith": 2726,
      "ures": 2727,
      "serv": 2728,
      "forever": 2729,
      "awkward": 2730,
      "career": 2731,
      "frustr": 2732,
      "easily": 2733,
      "capital": 2734,
      "guns": 2735,
      "memes": 2736,
      "incredibly": 2737,
      "emplo": 2738,
      "psycho": 2739,
      "russ": 2740,
      "dating": 2741,
      "ges": 2742,
      "mir": 2743,
      "piz": 2744,
      "hood": 2745,
      "chill": 2746,
      "moder": 2747,
      "impress": 2748,
      "example": 2749,
      "progress": 2750,
      "price": 2751,
      "jealous": 2752,
      "obvious": 2753,
      "characters": 2754,
      "spot": 2755,
      "fantastic": 2756,
      "contract": 2757,
      "14": 2758,
      "ied": 2759,
      "multi": 2760,
      "tough": 2761,
      "inno": 2762,
      "till": 2763,
      "abor": 2764,
      "trad": 2765,
      "ulation": 2766,
      "seemed": 2767,
      "helps": 2768,
      "broke": 2769,
      "desp": 2770,
      "bigger": 2771,
      "flu": 2772,
      "compared": 2773,
      "oooooooo": 2774,
      "double": 2775,
      "healthy": 2776,
      "recently": 2777,
      "average": 2778,
      "blow": 2779,
      "barely": 2780,
      "cred": 2781,
      "pm": 2782,
      "slight": 2783,
      "iss": 2784,
      "begin": 2785,
      "arma": 2786,
      "lives": 2787,
      "force": 2788,
      "wearing": 2789,
      "ney": 2790,
      "femin": 2791,
      "somehow": 2792,
      "willing": 2793,
      "pleas": 2794,
      "apart": 2795,
      "descri": 2796,
      "decent": 2797,
      "period": 2798,
      "walking": 2799,
      "simply": 2800,
      "teacher": 2801,
      "++": 2802,
      "dun": 2803,
      "vil": 2804,
      "invol": 2805,
      "engl": 2806,
      "lets": 2807,
      "beer": 2808,
      "host": 2809,
      "teen": 2810,
      "inten": 2811,
      "smart": 2812,
      "easier": 2813,
      "message": 2814,
      "positive": 2815,
      "president": 2816,
      "25": 2817,
      "bb": 2818,
      "bast": 2819,
      "daught": 2820,
      "fac": 2821,
      "gas": 2822,
      "ude": 2823,
      "lied": 2824,
      "sud": 2825,
      "cannot": 2826,
      "usion": 2827,
      "taste": 2828,
      "grad": 2829,
      "weren": 2830,
      "000": 2831,
      "design": 2832,
      "breaking": 2833,
      "choose": 2834,
      "evil": 2835,
      "contact": 2836,
      "switch": 2837,
      "negative": 2838,
      "disappointed": 2839,
      "agreed": 2840,
      "17": 2841,
      "90": 2842,
      "hmm": 2843,
      "vor": 2844,
      "inju": 2845,
      "arm": 2846,
      "chr": 2847,
      "aming": 2848,
      "tex": 2849,
      "igno": 2850,
      "downvote": 2851,
      "hearing": 2852,
      "enjoyed": 2853,
      "fresh": 2854,
      "idiots": 2855,
      "daily": 2856,
      "congratulations": 2857,
      "gers": 2858,
      "pat": 2859,
      "touch": 2860,
      "ale": 2861,
      "weak": 2862,
      "vert": 2863,
      "doll": 2864,
      "track": 2865,
      "spent": 2866,
      "finding": 2867,
      "married": 2868,
      "calm": 2869,
      "favour": 2870,
      "color": 2871,
      "version": 2872,
      "evidence": 2873,
      "humans": 2874,
      "million": 2875,
      "mix": 2876,
      "threat": 2877,
      "above": 2878,
      "drun": 2879,
      "jump": 2880,
      "lli": 2881,
      "inv": 2882,
      "states": 2883,
      "organ": 2884,
      "ford": 2885,
      "ify": 2886,
      "rap": 2887,
      "prev": 2888,
      "illegal": 2889,
      "everybody": 2890,
      "rights": 2891,
      "rules": 2892,
      "voting": 2893,
      "aware": 2894,
      "minute": 2895,
      "dogs": 2896,
      "allowed": 2897,
      "smell": 2898,
      "animals": 2899,
      "annoying": 2900,
      "sudden": 2901,
      "bath": 2902,
      "mare": 2903,
      "mig": 2904,
      "nal": 2905,
      "rup": 2906,
      "ond": 2907,
      "stories": 2908,
      "ucks": 2909,
      "understanding": 2910,
      "nightmare": 2911,
      "american": 2912,
      "ignorant": 2913,
      "conversation": 2914,
      "bought": 2915,
      "ire": 2916,
      "ker": 2917,
      "enter": 2918,
      "offe": 2919,
      "lier": 2920,
      "verse": 2921,
      "tim": 2922,
      "usive": 2923,
      "izing": 2924,
      "brought": 2925,
      "twice": 2926,
      "statement": 2927,
      "explo": 2928,
      "south": 2929,
      "pizza": 2930,
      "btw": 2931,
      "rated": 2932,
      "yi": 2933,
      "bear": 2934,
      "velo": 2935,
      "wever": 2936,
      "however": 2937,
      "wild": 2938,
      "tip": 2939,
      "context": 2940,
      "plus": 2941,
      "shoot": 2942,
      "desper": 2943,
      "smh": 2944,
      "paper": 2945,
      "dying": 2946,
      "prison": 2947,
      "atives": 2948,
      "feelings": 2949,
      "laughing": 2950,
      "priv": 2951,
      "purpose": 2952,
      "cheese": 2953,
      "daughter": 2954,
      "80": 2955,
      "dama": 2956,
      "lm": 2957,
      "iny": 2958,
      "represent": 2959,
      "although": 2960,
      "sea": 2961,
      "ham": 2962,
      "cook": 2963,
      "ched": 2964,
      "neigh": 2965,
      "develo": 2966,
      "somebody": 2967,
      "perfor": 2968,
      "knowled": 2969,
      "focus": 2970,
      "iest": 2971,
      "facts": 2972,
      "ctions": 2973,
      "2019": 2974,
      "sults": 2975,
      "science": 2976,
      "race": 2977,
      "sau": 2978,
      "vies": 2979,
      "thor": 2980,
      "record": 2981,
      "ings": 2982,
      "iting": 2983,
      "asses": 2984,
      "sec": 2985,
      "lock": 2986,
      "loving": 2987,
      "lions": 2988,
      "ties": 2989,
      "lovely": 2990,
      "partic": 2991,
      "stopped": 2992,
      "sitting": 2993,
      "***": 2994,
      "reasonable": 2995,
      "bitch": 2996,
      "seconds": 2997,
      "laughed": 2998,
      "drugs": 2999,
      "sister": 3000,
      "bullshit": 3001,
      "bil": 3002,
      "bang": 3003,
      "ga": 3004,
      "hon": 3005,
      "lon": 3006,
      "rit": 3007,
      "wtf": 3008,
      "inj": 3009,
      "orable": 3010,
      "sell": 3011,
      "dod": 3012,
      "knowing": 3013,
      "aked": 3014,
      "tribut": 3015,
      "mers": 3016,
      "questions": 3017,
      "sentence": 3018,
      "value": 3019,
      "expensive": 3020,
      "uuuu": 3021,
      "avail": 3022,
      "ships": 3023,
      "tempt": 3024,
      "accurate": 3025,
      "yikes": 3026,
      "aper": 3027,
      "flow": 3028,
      "hated": 3029,
      "karma": 3030,
      "mr": 3031,
      "swe": 3032,
      "tan": 3033,
      "wit": 3034,
      "fell": 3035,
      "update": 3036,
      "fol": 3037,
      "wake": 3038,
      "content": 3039,
      "boring": 3040,
      "depends": 3041,
      "benef": 3042,
      "relevant": 3043,
      "jokes": 3044,
      "zero": 3045,
      "google": 3046,
      "langu": 3047,
      "18": 3048,
      ":-": 3049,
      "nast": 3050,
      "va": 3051,
      "vir": 3052,
      "asy": 3053,
      "vered": 3054,
      "hosp": 3055,
      "riage": 3056,
      "movies": 3057,
      "anyways": 3058,
      "ssss": 3059,
      "aster": 3060,
      "scum": 3061,
      "saved": 3062,
      "realized": 3063,
      "rule": 3064,
      "club": 3065,
      "restau": 3066,
      "helped": 3067,
      "logic": 3068,
      "sky": 3069,
      "earth": 3070,
      "warm": 3071,
      "painful": 3072,
      "popular": 3073,
      "busy": 3074,
      "suggest": 3075,
      "behavior": 3076,
      "drunk": 3077,
      "gain": 3078,
      "ky": 3079,
      "kne": 3080,
      "loud": 3081,
      "ology": 3082,
      "sir": 3083,
      "oun": 3084,
      "along": 3085,
      "limit": 3086,
      "homo": 3087,
      "suit": 3088,
      "cele": 3089,
      "conserv": 3090,
      "bother": 3091,
      "wood": 3092,
      "uses": 3093,
      "shooting": 3094,
      "girlfriend": 3095,
      "vision": 3096,
      "custo": 3097,
      "favourite": 3098,
      "?\"": 3099,
      "bf": 3100,
      "fs": 3101,
      "jour": 3102,
      "jail": 3103,
      "atic": 3104,
      "total": 3105,
      "bes": 3106,
      "hea": 3107,
      "seat": 3108,
      "local": 3109,
      "dow": 3110,
      "docu": 3111,
      "mail": 3112,
      "tran": 3113,
      "guil": 3114,
      "pres": 3115,
      "green": 3116,
      "helpful": 3117,
      "shocked": 3118,
      "phr": 3119,
      "reasons": 3120,
      "highly": 3121,
      "stranger": 3122,
      "basket": 3123,
      "mentioned": 3124,
      "continue": 3125,
      "natural": 3126,
      "restaurant": 3127,
      "four": 3128,
      "hates": 3129,
      "kno": 3130,
      "oil": 3131,
      "ogy": 3132,
      "ption": 3133,
      "requ": 3134,
      "secre": 3135,
      "peace": 3136,
      "uncomfortable": 3137,
      "conside": 3138,
      "trip": 3139,
      "weekend": 3140,
      "park": 3141,
      "boyfriend": 3142,
      "respons": 3143,
      "classic": 3144,
      "jerse": 3145,
      "critic": 3146,
      "bowl": 3147,
      "innocent": 3148,
      "considered": 3149,
      "athe": 3150,
      "crow": 3151,
      "dig": 3152,
      "rare": 3153,
      "reach": 3154,
      "meet": 3155,
      "ency": 3156,
      "names": 3157,
      "activ": 3158,
      "weed": 3159,
      "yours": 3160,
      "tered": 3161,
      "traf": 3162,
      "affect": 3163,
      "moral": 3164,
      "carry": 3165,
      "norm": 3166,
      "addic": 3167,
      "ibility": 3168,
      "confirm": 3169,
      "large": 3170,
      "recei": 3171,
      "knowledge": 3172,
      "dated": 3173,
      "ore": 3174,
      "table": 3175,
      "invest": 3176,
      "eral": 3177,
      "rot": 3178,
      "hol": 3179,
      "mode": 3180,
      "deb": 3181,
      "teach": 3182,
      "anybody": 3183,
      "promis": 3184,
      "prep": 3185,
      "caught": 3186,
      "workers": 3187,
      "intro": 3188,
      "corn": 3189,
      "mark": 3190,
      "hhh": 3191,
      "regular": 3192,
      "laws": 3193,
      "quickly": 3194,
      "therapy": 3195,
      "decided": 3196,
      "available": 3197,
      "60": 3198,
      "fc": 3199,
      "ima": 3200,
      "lu": 3201,
      "mc": 3202,
      "mic": 3203,
      "pc": 3204,
      "wins": 3205,
      "refer": 3206,
      "itself": 3207,
      "stream": 3208,
      "secur": 3209,
      "chur": 3210,
      "feet": 3211,
      "trick": 3212,
      "antic": 3213,
      "partner": 3214,
      "brown": 3215,
      "careful": 3216,
      "interview": 3217,
      "earlier": 3218,
      "stood": 3219,
      "perfectly": 3220,
      "soul": 3221,
      "centr": 3222,
      "incredible": 3223,
      "00000000": 3224,
      "silly": 3225,
      "chicken": 3226,
      "!?": 3227,
      "cup": 3228,
      "din": 3229,
      "hide": 3230,
      "insur": 3231,
      "env": 3232,
      "ening": 3233,
      "heav": 3234,
      "soli": 3235,
      "kets": 3236,
      "adult": 3237,
      "coll": 3238,
      "plays": 3239,
      "crack": 3240,
      "phones": 3241,
      "generally": 3242,
      "trolling": 3243,
      "medical": 3244,
      "checked": 3245,
      "defend": 3246,
      "deserves": 3247,
      "leaving": 3248,
      "piss": 3249,
      "drug": 3250,
      "multiple": 3251,
      "celebr": 3252,
      "]:": 3253,
      "elect": 3254,
      "mach": 3255,
      "altern": 3256,
      "besides": 3257,
      "sequ": 3258,
      "mob": 3259,
      "deed": 3260,
      "pper": 3261,
      "condit": 3262,
      "acting": 3263,
      "known": 3264,
      "ager": 3265,
      "fucked": 3266,
      "cheap": 3267,
      "ruin": 3268,
      "voice": 3269,
      "finan": 3270,
      "subs": 3271,
      "hugs": 3272,
      "handle": 3273,
      "north": 3274,
      "valid": 3275,
      "specif": 3276,
      "judge": 3277,
      "massive": 3278,
      "recogn": 3279,
      "emotional": 3280,
      "consist": 3281,
      "playoffs": 3282,
      "despite": 3283,
      "slightly": 3284,
      "christ": 3285,
      "entertain": 3286,
      "language": 3287,
      "document": 3288,
      "]...": 3289,
      "bly": 3290,
      "cit": 3291,
      "dict": 3292,
      "gor": 3293,
      "lay": 3294,
      "lab": 3295,
      "ride": 3296,
      "wind": 3297,
      "infor": 3298,
      "attempt": 3299,
      "stree": 3300,
      "forced": 3301,
      "covered": 3302,
      "proof": 3303,
      "project": 3304,
      "everywhere": 3305,
      "sports": 3306,
      "learning": 3307,
      "mates": 3308,
      "winning": 3309,
      "medic": 3310,
      "horror": 3311,
      "currently": 3312,
      "further": 3313,
      "counter": 3314,
      "risk": 3315,
      "iliar": 3316,
      "professional": 3317,
      "suddenly": 3318,
      "traffic": 3319,
      "church": 3320,
      "gri": 3321,
      "kit": 3322,
      "ns": 3323,
      "national": 3324,
      "tweet": 3325,
      "yer": 3326,
      "anal": 3327,
      "stress": 3328,
      "loc": 3329,
      "rock": 3330,
      "adorable": 3331,
      "cops": 3332,
      "pod": 3333,
      "within": 3334,
      "oppos": 3335,
      "opport": 3336,
      "compar": 3337,
      "pregn": 3338,
      "epic": 3339,
      "clue": 3340,
      "subscri": 3341,
      "talent": 3342,
      "intel": 3343,
      "calls": 3344,
      "moron": 3345,
      "border": 3346,
      "religious": 3347,
      "writing": 3348,
      "graph": 3349,
      "injury": 3350,
      "opposite": 3351,
      "opportun": 3352,
      "13": 3353,
      "bye": 3354,
      "cats": 3355,
      "econ": 3356,
      "grown": 3357,
      "gender": 3358,
      "pati": 3359,
      "sne": 3360,
      "tt": 3361,
      "ann": 3362,
      "thetic": 3363,
      "alt": 3364,
      "soci": 3365,
      "adul": 3366,
      "prop": 3367,
      "!!!!!": 3368,
      "ills": 3369,
      "quar": 3370,
      "join": 3371,
      "distr": 3372,
      "asshole": 3373,
      "final": 3374,
      "shoes": 3375,
      "minor": 3376,
      "keeping": 3377,
      "harder": 3378,
      "marriage": 3379,
      "possibly": 3380,
      "turns": 3381,
      "entirely": 3382,
      "irony": 3383,
      "penis": 3384,
      "retard": 3385,
      "appropri": 3386,
      "solid": 3387,
      "23": 3388,
      "bers": 3389,
      "coffe": 3390,
      "dat": 3391,
      "dress": 3392,
      "gig": 3393,
      "mount": 3394,
      "py": 3395,
      "punch": 3396,
      "sof": 3397,
      "skills": 3398,
      "xd": 3399,
      "anch": 3400,
      "lete": 3401,
      "ida": 3402,
      "butt": 3403,
      "terrifying": 3404,
      "imate": 3405,
      "sake": 3406,
      "doesnt": 3407,
      "offic": 3408,
      "pretend": 3409,
      "starts": 3410,
      "sexy": 3411,
      "familiar": 3412,
      "freaking": 3413,
      "?!?!": 3414,
      "written": 3415,
      "brilli": 3416,
      "culture": 3417,
      "folks": 3418,
      "nasty": 3419,
      "hospital": 3420,
      "45": 3421,
      "70": 3422,
      "pure": 3423,
      "rad": 3424,
      "tend": 3425,
      "ener": 3426,
      "ider": 3427,
      "note": 3428,
      "button": 3429,
      "polic": 3430,
      "deta": 3431,
      "promo": 3432,
      "gree": 3433,
      "aff": 3434,
      "badly": 3435,
      "babies": 3436,
      "personality": 3437,
      "brut": 3438,
      "showed": 3439,
      "cording": 3440,
      "corpor": 3441,
      "flag": 3442,
      "higher": 3443,
      "enjoying": 3444,
      "pics": 3445,
      "decide": 3446,
      "visit": 3447,
      "liberals": 3448,
      "directly": 3449,
      "excell": 3450,
      "secret": 3451,
      "insurance": 3452,
      "!”": 3453,
      "bc": 3454,
      "egg": 3455,
      "rn": 3456,
      "range": 3457,
      "thy": 3458,
      "repe": 3459,
      "onto": 3460,
      "mee": 3461,
      "ison": 3462,
      "isnt": 3463,
      "itude": 3464,
      "arms": 3465,
      "cance": 3466,
      "trave": 3467,
      "conv": 3468,
      "conven": 3469,
      "indi": 3470,
      "quo": 3471,
      "happiness": 3472,
      "failed": 3473,
      "letting": 3474,
      "spee": 3475,
      "speed": 3476,
      "blind": 3477,
      "brit": 3478,
      "brand": 3479,
      "flat": 3480,
      "legs": 3481,
      "countries": 3482,
      "draw": 3483,
      "bank": 3484,
      "racism": 3485,
      "dropped": 3486,
      "finished": 3487,
      "floor": 3488,
      "discussion": 3489,
      "intention": 3490,
      "particular": 3491,
      "coffee": 3492,
      "excellent": 3493,
      "ahead": 3494,
      "bble": 3495,
      "ckey": 3496,
      "mac": 3497,
      "mory": 3498,
      "pon": 3499,
      "research": 3500,
      "memory": 3501,
      "assa": 3502,
      "bey": 3503,
      "chat": 3504,
      "chic": 3505,
      "motiv": 3506,
      "dear": 3507,
      "conne": 3508,
      "auto": 3509,
      "ishment": 3510,
      "rude": 3511,
      "hahahaha": 3512,
      "standard": 3513,
      "survi": 3514,
      "channe": 3515,
      "trigg": 3516,
      "relate": 3517,
      "winter": 3518,
      "crimin": 3519,
      "books": 3520,
      "dumbass": 3521,
      "pictures": 3522,
      "assuming": 3523,
      "specific": 3524,
      "fixed": 3525,
      "humor": 3526,
      "damage": 3527,
      "mut": 3528,
      "ooh": 3529,
      "wro": 3530,
      "alco": 3531,
      "separ": 3532,
      "lived": 3533,
      "hockey": 3534,
      "chi": 3535,
      "chall": 3536,
      "tire": 3537,
      "mod": 3538,
      "neither": 3539,
      "tears": 3540,
      "improve": 3541,
      "anywhere": 3542,
      "express": 3543,
      "comb": 3544,
      "audi": 3545,
      "clar": 3546,
      "hello": 3547,
      "divor": 3548,
      "helping": 3549,
      "market": 3550,
      "queen": 3551,
      "pair": 3552,
      "lights": 3553,
      "freed": 3554,
      "champ": 3555,
      "opinions": 3556,
      "throwing": 3557,
      "constantly": 3558,
      "continu": 3559,
      "therapist": 3560,
      "copy": 3561,
      "gift": 3562,
      "whether": 3563,
      "performan": 3564,
      "wrote": 3565,
      "21": 3566,
      "cand": 3567,
      "dir": 3568,
      "fly": 3569,
      "gf": 3570,
      "nic": 3571,
      "pup": 3572,
      "sand": 3573,
      "tree": 3574,
      "wis": 3575,
      "🦀🦀": 3576,
      "init": 3577,
      "return": 3578,
      "reject": 3579,
      "amed": 3580,
      "coin": 3581,
      "china": 3582,
      "tial": 3583,
      "demon": 3584,
      "explan": 3585,
      "whenever": 3586,
      "fool": 3587,
      "scam": 3588,
      "wont": 3589,
      "shitty": 3590,
      "flair": 3591,
      "impact": 3592,
      "signific": 3593,
      "driving": 3594,
      "netfli": 3595,
      "hypo": 3596,
      "figured": 3597,
      "nearly": 3598,
      "delicious": 3599,
      "eventually": 3600,
      "competit": 3601,
      "transp": 3602,
      "image": 3603,
      "security": 3604,
      "netflix": 3605,
      "\"[": 3606,
      "dm": 3607,
      "fro": 3608,
      "jan": 3609,
      "oof": 3610,
      "”.": 3611,
      "ination": 3612,
      "remain": 3613,
      "towards": 3614,
      "argue": 3615,
      "named": 3616,
      "webs": 3617,
      "utter": 3618,
      "chuck": 3619,
      "fet": 3620,
      "terri": 3621,
      "conspir": 3622,
      "exists": 3623,
      "program": 3624,
      "raise": 3625,
      "offer": 3626,
      "glass": 3627,
      "flor": 3628,
      "obsess": 3629,
      "brex": 3630,
      "caused": 3631,
      "usual": 3632,
      "score": 3633,
      "apologies": 3634,
      "decision": 3635,
      "involved": 3636,
      "ignore": 3637,
      "previous": 3638,
      "gge": 3639,
      "nch": 3640,
      "pd": 3641,
      "pes": 3642,
      "rate": 3643,
      "thous": 3644,
      "indeed": 3645,
      "sever": 3646,
      "domin": 3647,
      "unk": 3648,
      "delet": 3649,
      "ified": 3650,
      "terms": 3651,
      "termin": 3652,
      "condo": 3653,
      "commer": 3654,
      "shes": 3655,
      "ished": 3656,
      "understood": 3657,
      "kidding": 3658,
      "trigge": 3659,
      "pathetic": 3660,
      "cuz": 3661,
      "jobs": 3662,
      "twist": 3663,
      "⠀⠀⠀⠀": 3664,
      "changes": 3665,
      "concerned": 3666,
      "building": 3667,
      "pathy": 3668,
      "appear": 3669,
      "english": 3670,
      "basketball": 3671,
      "mobile": 3672,
      "specifically": 3673,
      "policy": 3674,
      "freedom": 3675,
      "triggered": 3676,
      "1st": 3677,
      "bid": 3678,
      "hid": 3679,
      "sac": 3680,
      "site": 3681,
      "wers": 3682,
      "yed": 3683,
      "zi": 3684,
      "inary": 3685,
      "results": 3686,
      "vegan": 3687,
      "los": 3688,
      "chie": 3689,
      "feat": 3690,
      "oppress": 3691,
      "shed": 3692,
      "plat": 3693,
      "author": 3694,
      "process": 3695,
      "mum": 3696,
      "comedy": 3697,
      "speaking": 3698,
      "create": 3699,
      "cars": 3700,
      "gging": 3701,
      "gged": 3702,
      "added": 3703,
      "emotions": 3704,
      "delus": 3705,
      "concern": 3706,
      "eeeeeeee": 3707,
      "fingers": 3708,
      "dollars": 3709,
      "secure": 3710,
      "phrase": 3711,
      "jersey": 3712,
      "christmas": 3713,
      "brilliant": 3714,
      "individ": 3715,
      "speech": 3716,
      "challen": 3717,
      "ctr": 3718,
      "nes": 3719,
      "qb": 3720,
      "rational": 3721,
      "spre": 3722,
      "yay": 3723,
      "ana": 3724,
      "meat": 3725,
      "youre": 3726,
      "weap": 3727,
      "neck": 3728,
      "agram": 3729,
      "offense": 3730,
      "afford": 3731,
      "surely": 3732,
      "shock": 3733,
      "fired": 3734,
      "relax": 3735,
      "guessing": 3736,
      "logical": 3737,
      "wholesome": 3738,
      "address": 3739,
      "court": 3740,
      "animal": 3741,
      "physical": 3742,
      "😤😤😤😤": 3743,
      "regardless": 3744,
      "frustrating": 3745,
      "pregnant": 3746,
      "adults": 3747,
      "quote": 3748,
      "explanation": 3749,
      "website": 3750,
      "thousand": 3751,
      "3r": 3752,
      "4th": 3753,
      "swi": 3754,
      "sending": 3755,
      "replace": 3756,
      "ano": 3757,
      "meta": 3758,
      "album": 3759,
      "beard": 3760,
      "across": 3761,
      "justice": 3762,
      "female": 3763,
      "master": 3764,
      "tage": 3765,
      "entit": 3766,
      "qual": 3767,
      "grab": 3768,
      "shots": 3769,
      "monster": 3770,
      "cali": 3771,
      "communic": 3772,
      "songs": 3773,
      "listening": 3774,
      "hung": 3775,
      "circ": 3776,
      "satis": 3777,
      "accidentally": 3778,
      "injured": 3779,
      "citiz": 3780,
      "retarded": 3781,
      "beyond": 3782,
      "alcohol": 3783,
      "florida": 3784,
      "deleted": 3785,
      "\"?": 3786,
      "jack": 3787,
      "lunch": 3788,
      "nur": 3789,
      "sain": 3790,
      "wars": 3791,
      "⣿⣿": 3792,
      "insul": 3793,
      "rely": 3794,
      "ances": 3795,
      "memor": 3796,
      "ston": 3797,
      "stom": 3798,
      "belong": 3799,
      "arrest": 3800,
      "sold": 3801,
      "liv": 3802,
      "accom": 3803,
      "model": 3804,
      "poten": 3805,
      "oper": 3806,
      "impossible": 3807,
      "immig": 3808,
      "ppy": 3809,
      "concept": 3810,
      "rain": 3811,
      "cies": 3812,
      "minim": 3813,
      "blat": 3814,
      "showing": 3815,
      "fied": 3816,
      "owner": 3817,
      "freak": 3818,
      "confidence": 3819,
      "views": 3820,
      "instagram": 3821,
      "population": 3822,
      "milit": 3823,
      "generation": 3824,
      "leading": 3825,
      "depend": 3826,
      "apologize": 3827,
      "spirit": 3828,
      "battle": 3829,
      "smoke": 3830,
      "cruel": 3831,
      "circle": 3832,
      "vaccin": 3833,
      "lmfa": 3834,
      "journal": 3835,
      "energy": 3836,
      "austr": 3837,
      "bac": 3838,
      "fill": 3839,
      "fru": 3840,
      "ud": 3841,
      "remo": 3842,
      "rection": 3843,
      "ising": 3844,
      "stal": 3845,
      "ley": 3846,
      "idge": 3847,
      "identi": 3848,
      "weir": 3849,
      "rip": 3850,
      "pool": 3851,
      "delete": 3852,
      "tray": 3853,
      "contribut": 3854,
      "acted": 3855,
      "bomb": 3856,
      "venge": 3857,
      "offended": 3858,
      "background": 3859,
      "dislike": 3860,
      "selfish": 3861,
      "apped": 3862,
      "mater": 3863,
      "magic": 3864,
      "killer": 3865,
      "giant": 3866,
      "aaa": 3867,
      "nerv": 3868,
      "signed": 3869,
      "attitude": 3870,
      "picked": 3871,
      "ironic": 3872,
      "levels": 3873,
      "numbers": 3874,
      "9999": 3875,
      "libertar": 3876,
      "depression": 3877,
      "techn": 3878,
      "practice": 3879,
      "necessary": 3880,
      "russian": 3881,
      "beginning": 3882,
      "british": 3883,
      "chicago": 3884,
      "spread": 3885,
      "austral": 3886,
      "65": 3887,
      "^(": 3888,
      "biz": 3889,
      "five": 3890,
      "ghost": 3891,
      "hits": 3892,
      "lone": 3893,
      "lately": 3894,
      "nick": 3895,
      "san": 3896,
      "slo": 3897,
      "spl": 3898,
      "reck": 3899,
      "result": 3900,
      "ators": 3901,
      "heck": 3902,
      "according": 3903,
      "hook": 3904,
      "terror": 3905,
      "cancer": 3906,
      "truck": 3907,
      "worries": 3908,
      "urs": 3909,
      "tail": 3910,
      "els": 3911,
      "manage": 3912,
      "everyday": 3913,
      "saving": 3914,
      "spam": 3915,
      "voc": 3916,
      "lower": 3917,
      "buying": 3918,
      "foreign": 3919,
      "aww": 3920,
      "cris": 3921,
      "......": 3922,
      "smash": 3923,
      "heads": 3924,
      "versity": 3925,
      "sym": 3926,
      "drama": 3927,
      "passed": 3928,
      "liberal": 3929,
      "anxious": 3930,
      "bench": 3931,
      "taxes": 3932,
      "supporters": 3933,
      "education": 3934,
      "majority": 3935,
      "destroyed": 3936,
      "modern": 3937,
      "virgin": 3938,
      "street": 3939,
      "\",": 3940,
      "*.": 3941,
      "35": 3942,
      "az": 3943,
      "bird": 3944,
      "fou": 3945,
      "ka": 3946,
      "nation": 3947,
      "pants": 3948,
      "sar": 3949,
      "tank": 3950,
      "vp": 3951,
      "incre": 3952,
      "relie": 3953,
      "ounce": 3954,
      "anarch": 3955,
      "held": 3956,
      "loser": 3957,
      "ache": 3958,
      "icing": 3959,
      "icking": 3960,
      "uts": 3961,
      "holi": 3962,
      "ung": 3963,
      "mods": 3964,
      "sue": 3965,
      "options": 3966,
      "tery": 3967,
      "immedi": 3968,
      "guard": 3969,
      "indic": 3970,
      "aggress": 3971,
      "disorder": 3972,
      "miser": 3973,
      "bug": 3974,
      "shower": 3975,
      "ffs": 3976,
      "insight": 3977,
      "strate": 3978,
      "valu": 3979,
      "daddy": 3980,
      "arguing": 3981,
      "violent": 3982,
      "typical": 3983,
      "flex": 3984,
      "strugg": 3985,
      "embarrassing": 3986,
      "credit": 3987,
      "neighbor": 3988,
      "sauce": 3989,
      "responsible": 3990,
      "environ": 3991,
      "opportunity": 3992,
      "meeting": 3993,
      "performance": 3994,
      "military": 3995,
      "nervous": 3996,
      "43": 3997,
      "bound": 3998,
      "gro": 3999,
      "jum": 4000,
      "mand": 4001,
      "mill": 4002,
      "rum": 4003,
      "swear": 4004,
      "tour": 4005,
      "meal": 4006,
      "isra": 4007,
      "ork": 4008,
      "alot": 4009,
      "ene": 4010,
      "lean": 4011,
      "arily": 4012,
      "anda": 4013,
      "acle": 4014,
      "holes": 4015,
      "union": 4016,
      "pol": 4017,
      "atest": 4018,
      "exe": 4019,
      "manip": 4020,
      "managed": 4021,
      "ously": 4022,
      "cts": 4023,
      "scare": 4024,
      "mug": 4025,
      "greatest": 4026,
      "spending": 4027,
      "courage": 4028,
      "hire": 4029,
      "shop": 4030,
      "paign": 4031,
      "window": 4032,
      "defensive": 4033,
      "driver": 4034,
      "actions": 4035,
      "worthy": 4036,
      "experien": 4037,
      "remindme": 4038,
      "bottle": 4039,
      "fairly": 4040,
      "planning": 4041,
      "2018": 4042,
      "^^^": 4043,
      "film": 4044,
      "harass": 4045,
      "following": 4046,
      "six": 4047,
      "complaining": 4048,
      "claims": 4049,
      "distur": 4050,
      "target": 4051,
      "bastard": 4052,
      "investig": 4053,
      "appropriate": 4054,
      "channel": 4055,
      "dirty": 4056,
      "conspiracy": 4057,
      "delusional": 4058,
      "accompl": 4059,
      "lmfao": 4060,
      "bizar": 4061,
      ".)": 4062,
      "fying": 4063,
      "gay": 4064,
      "hr": 4065,
      "iq": 4066,
      "ius": 4067,
      "plot": 4068,
      "thro": 4069,
      "metal": 4070,
      "becoming": 4071,
      "ario": 4072,
      "icy": 4073,
      "poly": 4074,
      "dev": 4075,
      "upon": 4076,
      "provide": 4077,
      "provid": 4078,
      "iling": 4079,
      "wanting": 4080,
      "fuckin": 4081,
      "misogy": 4082,
      "friendly": 4083,
      "matters": 4084,
      "created": 4085,
      "camera": 4086,
      "lazy": 4087,
      "holding": 4088,
      "campaign": 4089,
      "property": 4090,
      "democracy": 4091,
      "bruh": 4092,
      "mirror": 4093,
      "texas": 4094,
      "desperate": 4095,
      "billion": 4096,
      ":-)": 4097,
      "elected": 4098,
      "soft": 4099,
      "brutal": 4100,
      "cul": 4101,
      "cise": 4102,
      "dic": 4103,
      "hill": 4104,
      "jap": 4105,
      "nc": 4106,
      "ners": 4107,
      "pul": 4108,
      "size": 4109,
      "vit": 4110,
      "zen": 4111,
      "🤣🤣": 4112,
      "insult": 4113,
      "repost": 4114,
      "revol": 4115,
      "ante": 4116,
      "thes": 4117,
      "ato": 4118,
      "meth": 4119,
      "error": 4120,
      "sole": 4121,
      "goals": 4122,
      "united": 4123,
      "moments": 4124,
      "somewhat": 4125,
      "donal": 4126,
      "upvotes": 4127,
      "indust": 4128,
      "tool": 4129,
      "ums": 4130,
      "cheating": 4131,
      "iles": 4132,
      "gling": 4133,
      "wondered": 4134,
      "useful": 4135,
      "parts": 4136,
      "chances": 4137,
      "craft": 4138,
      "french": 4139,
      "poorly": 4140,
      "hitting": 4141,
      "prime": 4142,
      "gym": 4143,
      "explaining": 4144,
      "occas": 4145,
      "properly": 4146,
      "screenshot": 4147,
      "including": 4148,
      "finger": 4149,
      "wubwubwubwubwubwubwubwub": 4150,
      "bathroom": 4151,
      "sweat": 4152,
      "guilty": 4153,
      "promise": 4154,
      "machine": 4155,
      "propag": 4156,
      "divorce": 4157,
      "brexit": 4158,
      "several": 4159,
      "commercial": 4160,
      "individual": 4161,
      "3rd": 4162,
      "dan": 4163,
      "email": 4164,
      "fash": 4165,
      "flying": 4166,
      "gent": 4167,
      "lap": 4168,
      "ml": 4169,
      "patch": 4170,
      "ites": 4171,
      "arr": 4172,
      "rome": 4173,
      "ado": 4174,
      "delight": 4175,
      "guar": 4176,
      "pers": 4177,
      "perspec": 4178,
      "agno": 4179,
      "poster": 4180,
      "realistic": 4181,
      "grade": 4182,
      "lesson": 4183,
      "bling": 4184,
      "matches": 4185,
      "breath": 4186,
      "definition": 4187,
      "study": 4188,
      "solution": 4189,
      "compli": 4190,
      "bio": 4191,
      "breaks": 4192,
      "2016": 4193,
      "disappointing": 4194,
      "physically": 4195,
      "screaming": 4196,
      "electr": 4197,
      "heaven": 4198,
      "location": 4199,
      "data": 4200,
      "conveni": 4201,
      "hungry": 4202,
      "potential": 4203,
      "bizarre": 4204,
      "ather": 4205,
      "sight": 4206,
      "sla": 4207,
      "sati": 4208,
      "vac": 4209,
      "thrown": 4210,
      "mexic": 4211,
      "island": 4212,
      "itar": 4213,
      "sters": 4214,
      "orious": 4215,
      "topic": 4216,
      "aside": 4217,
      "ament": 4218,
      "lican": 4219,
      "cow": 4220,
      "map": 4221,
      "shif": 4222,
      "updated": 4223,
      "...?": 4224,
      "wouldnt": 4225,
      "ahh": 4226,
      "quie": 4227,
      "blast": 4228,
      "sitive": 4229,
      "obs": 4230,
      "legend": 4231,
      "trolls": 4232,
      "horri": 4233,
      "franch": 4234,
      "jective": 4235,
      "staying": 4236,
      "surprising": 4237,
      "nonsense": 4238,
      "lawyer": 4239,
      "filled": 4240,
      "changing": 4241,
      "refs": 4242,
      "ladies": 4243,
      "center": 4244,
      "release": 4245,
      "petty": 4246,
      "washed": 4247,
      "suffer": 4248,
      "federal": 4249,
      "russia": 4250,
      "pressure": 4251,
      "normally": 4252,
      "referring": 4253,
      "mountain": 4254,
      "technically": 4255,
      "guarante": 4256,
      "'.": 4257,
      "24": 4258,
      "bic": 4259,
      "eli": 4260,
      "irel": 4261,
      "las": 4262,
      "mild": 4263,
      "pill": 4264,
      "sin": 4265,
      "swee": 4266,
      "sens": 4267,
      "tall": 4268,
      "😭😭": 4269,
      "stone": 4270,
      "staff": 4271,
      "orm": 4272,
      "asing": 4273,
      "becomes": 4274,
      "hah": 4275,
      "haps": 4276,
      "weal": 4277,
      "ades": 4278,
      "justify": 4279,
      "shout": 4280,
      "spin": 4281,
      "essenti": 4282,
      "makeup": 4283,
      "civil": 4284,
      "function": 4285,
      "ruined": 4286,
      "clusive": 4287,
      "nail": 4288,
      "diagno": 4289,
      "apple": 4290,
      "surd": 4291,
      "march": 4292,
      "flash": 4293,
      "turkey": 4294,
      "incels": 4295,
      "horse": 4296,
      "choices": 4297,
      "stupidity": 4298,
      "charge": 4299,
      "dump": 4300,
      "mission": 4301,
      "picks": 4302,
      "stole": 4303,
      "healthcare": 4304,
      "falling": 4305,
      "profit": 4306,
      "younger": 4307,
      "drinking": 4308,
      "ignorance": 4309,
      "euro": 4310,
      "suffering": 4311,
      "++++": 4312,
      "knee": 4313,
      "dinner": 4314,
      "separate": 4315,
      "challenge": 4316,
      "saints": 4317,
      "propaganda": 4318,
      "ireland": 4319,
      "cig": 4320,
      "dies": 4321,
      "kk": 4322,
      "rise": 4323,
      "tl": 4324,
      "tat": 4325,
      "wide": 4326,
      "income": 4327,
      "orange": 4328,
      "toile": 4329,
      "heat": 4330,
      "role": 4331,
      "goat": 4332,
      "dom": 4333,
      "outrage": 4334,
      "among": 4335,
      "shat": 4336,
      "yellow": 4337,
      "ceed": 4338,
      "compre": 4339,
      "perhaps": 4340,
      "boss": 4341,
      "woke": 4342,
      "kings": 4343,
      "hadn": 4344,
      "grew": 4345,
      "cheaper": 4346,
      "oooh": 4347,
      "commenting": 4348,
      "bron": 4349,
      "phy": 4350,
      "puts": 4351,
      "ference": 4352,
      "cream": 4353,
      "obliv": 4354,
      "breed": 4355,
      "hurting": 4356,
      "deserved": 4357,
      "planet": 4358,
      "explains": 4359,
      "situations": 4360,
      "bringing": 4361,
      "salty": 4362,
      "golden": 4363,
      "steps": 4364,
      "joking": 4365,
      "washing": 4366,
      "coaching": 4367,
      "wedding": 4368,
      "successful": 4369,
      "honor": 4370,
      "prepared": 4371,
      "condition": 4372,
      "gorge": 4373,
      "informed": 4374,
      "initi": 4375,
      "entitled": 4376,
      "fruit": 4377,
      "material": 4378,
      "immediately": 4379,
      "donald": 4380,
      "satire": 4381,
      "quiet": 4382,
      "compreh": 4383,
      "22": 4384,
      "bill": 4385,
      "dry": 4386,
      "faces": 4387,
      "glo": 4388,
      "hating": 4389,
      "ians": 4390,
      "ja": 4391,
      "sarc": 4392,
      "var": 4393,
      "remove": 4394,
      "retire": 4395,
      "revenge": 4396,
      "mes": 4397,
      "below": 4398,
      "hest": 4399,
      "solo": 4400,
      "haw": 4401,
      "loy": 4402,
      "rolling": 4403,
      "advant": 4404,
      "gestion": 4405,
      "unexpected": 4406,
      "max": 4407,
      "tele": 4408,
      "cep": 4409,
      "oked": 4410,
      "raised": 4411,
      "inder": 4412,
      "mentally": 4413,
      "ourselves": 4414,
      "offensive": 4415,
      "cheat": 4416,
      "bubble": 4417,
      "shocking": 4418,
      "brows": 4419,
      "surger": 4420,
      "mature": 4421,
      "luckily": 4422,
      "legally": 4423,
      "bloody": 4424,
      "primar": 4425,
      "threads": 4426,
      "arguments": 4427,
      "popcorn": 4428,
      "assumed": 4429,
      "ironically": 4430,
      "relationships": 4431,
      "clothes": 4432,
      "victim": 4433,
      "suppose": 4434,
      "pushing": 4435,
      "camp": 4436,
      "supporting": 4437,
      "confirmed": 4438,
      "training": 4439,
      "depressing": 4440,
      "fascin": 4441,
      "decisions": 4442,
      "capitalism": 4443,
      "employe": 4444,
      "progressive": 4445,
      "abortion": 4446,
      "private": 4447,
      "introdu": 4448,
      "corporate": 4449,
      "perspective": 4450,
      "franchise": 4451,
      "gorgeous": 4452,
      "sarcastic": 4453,
      "?)": 4454,
      "__": 4455,
      "cous": 4456,
      "cket": 4457,
      "ival": 4458,
      "ow": 4459,
      "pac": 4460,
      "zone": 4461,
      "⠛⠛": 4462,
      "thus": 4463,
      "insp": 4464,
      "inity": 4465,
      "stun": 4466,
      "stars": 4467,
      "ali": 4468,
      "edge": 4469,
      "beach": 4470,
      "arri": 4471,
      "rob": 4472,
      "core": 4473,
      "absurd": 4474,
      "suspect": 4475,
      "oppon": 4476,
      "temp": 4477,
      "trump": 4478,
      "ups": 4479,
      "usa": 4480,
      "plac": 4481,
      "plant": 4482,
      "comic": 4483,
      "seek": 4484,
      "thered": 4485,
      "tooth": 4486,
      "fox": 4487,
      "disrespect": 4488,
      "icked": 4489,
      "dudes": 4490,
      "angers": 4491,
      "olds": 4492,
      "chose": 4493,
      "sexist": 4494,
      "parties": 4495,
      "bias": 4496,
      "germany": 4497,
      "access": 4498,
      "brave": 4499,
      "visible": 4500,
      "brings": 4501,
      "attacks": 4502,
      "unfortunate": 4503,
      "clip": 4504,
      "leader": 4505,
      "sensitive": 4506,
      "pushed": 4507,
      "unique": 4508,
      "failure": 4509,
      "suggestion": 4510,
      "students": 4511,
      "nuts": 4512,
      "crowd": 4513,
      "financial": 4514,
      "podcast": 4515,
      "convinc": 4516,
      "remote": 4517,
      "lonely": 4518,
      "israel": 4519,
      "enemy": 4520,
      "fashion": 4521,
      "tattoo": 4522,
      "dar": 4523,
      "dits": 4524,
      "dates": 4525,
      "ered": 4526,
      "fw": 4527,
      "iv": 4528,
      "iir": 4529,
      "mart": 4530,
      "native": 4531,
      "narc": 4532,
      "tun": 4533,
      "vax": 4534,
      "wine": 4535,
      "insecure": 4536,
      "theory": 4537,
      "onic": 4538,
      "meas": 4539,
      "org": 4540,
      "orting": 4541,
      "became": 4542,
      "arrow": 4543,
      "vere": 4544,
      "nose": 4545,
      "ays": 4546,
      "aches": 4547,
      "cos": 4548,
      "pee": 4549,
      "pets": 4550,
      "susp": 4551,
      "fective": 4552,
      "math": 4553,
      "mama": 4554,
      "nowhere": 4555,
      "teeth": 4556,
      "odes": 4557,
      "acts": 4558,
      "whoa": 4559,
      "ahhh": 4560,
      "ideology": 4561,
      "scar": 4562,
      "spider": 4563,
      "downvotes": 4564,
      "rush": 4565,
      "serve": 4566,
      "standing": 4567,
      "corrup": 4568,
      "matic": 4569,
      "solved": 4570,
      "runs": 4571,
      "license": 4572,
      "ketch": 4573,
      "powerful": 4574,
      "harm": 4575,
      "vices": 4576,
      "hunting": 4577,
      "rants": 4578,
      "oddly": 4579,
      "approach": 4580,
      "costs": 4581,
      "hanging": 4582,
      "types": 4583,
      "necessarily": 4584,
      "student": 4585,
      "dunno": 4586,
      "develop": 4587,
      "benefit": 4588,
      "intellig": 4589,
      "econom": 4590,
      "announ": 4591,
      "trigger": 4592,
      "execut": 4593,
      "toilet": 4594,
      "iirc": 4595,
      ".*": 4596,
      "500": 4597,
      "bread": 4598,
      "cash": 4599,
      "dance": 4600,
      "gate": 4601,
      "gang": 4602,
      "hall": 4603,
      "hence": 4604,
      "nit": 4605,
      "nap": 4606,
      "oops": 4607,
      "pink": 4608,
      "pil": 4609,
      "phi": 4610,
      "pitch": 4611,
      "sno": 4612,
      "sive": 4613,
      "wat": 4614,
      "thr": 4615,
      "atures": 4616,
      "ises": 4617,
      "stret": 4618,
      "lif": 4619,
      "former": 4620,
      "advert": 4621,
      "decl": 4622,
      "impro": 4623,
      "plans": 4624,
      "goodness": 4625,
      "whose": 4626,
      "whoever": 4627,
      "ideas": 4628,
      "worker": 4629,
      "downtown": 4630,
      "mistakes": 4631,
      "subject": 4632,
      "nazi": 4633,
      "useless": 4634,
      "kinds": 4635,
      "believes": 4636,
      "genius": 4637,
      "farm": 4638,
      "tongue": 4639,
      "expectations": 4640,
      "bigot": 4641,
      "responding": 4642,
      "goddamn": 4643,
      "douche": 4644,
      "passing": 4645,
      "regis": 4646,
      "spoil": 4647,
      "existed": 4648,
      "episodes": 4649,
      "scot": 4650,
      "refuse": 4651,
      "sources": 4652,
      "groups": 4653,
      "dreams": 4654,
      "university": 4655,
      "doctors": 4656,
      "script": 4657,
      "impressed": 4658,
      "pleasure": 4659,
      "homopho": 4660,
      "debate": 4661,
      "heavy": 4662,
      "labour": 4663,
      "assault": 4664,
      "champion": 4665,
      "stomach": 4666,
      "australia": 4667,
      "aggressive": 4668,
      "environment": 4669,
      "manipul": 4670,
      "bun": 4671,
      "cities": 4672,
      "dl": 4673,
      "ego": 4674,
      "fits": 4675,
      "hl": 4676,
      "hou": 4677,
      "ox": 4678,
      "oms": 4679,
      "pn": 4680,
      "rout": 4681,
      "ww": 4682,
      "zard": 4683,
      "thin": 4684,
      "meh": 4685,
      "itution": 4686,
      "stats": 4687,
      "alty": 4688,
      "lest": 4689,
      "aries": 4690,
      "sees": 4691,
      "selling": 4692,
      "adop": 4693,
      "addit": 4694,
      "abusive": 4695,
      "posing": 4696,
      "tel": 4697,
      "compet": 4698,
      "shel": 4699,
      "theres": 4700,
      "boat": 4701,
      "gotcha": 4702,
      "scr": 4703,
      "rub": 4704,
      "talked": 4705,
      "hardly": 4706,
      "believ": 4707,
      "2020": 4708,
      "turning": 4709,
      "incel": 4710,
      "chocol": 4711,
      "handsome": 4712,
      "empathy": 4713,
      "colour": 4714,
      "effective": 4715,
      "drivers": 4716,
      "humanity": 4717,
      "millions": 4718,
      "attacked": 4719,
      "closer": 4720,
      "occur": 4721,
      "throws": 4722,
      "casm": 4723,
      "growing": 4724,
      "nature": 4725,
      "bait": 4726,
      "murdered": 4727,
      "praying": 4728,
      "smoking": 4729,
      "stealing": 4730,
      "violence": 4731,
      "election": 4732,
      "impressive": 4733,
      "designed": 4734,
      "organization": 4735,
      "conservative": 4736,
      "customer": 4737,
      "customers": 4738,
      "libertarian": 4739,
      "chocolate": 4740,
      "5th": 4741,
      "]\"": 4742,
      "ake": 4743,
      "bust": 4744,
      "bour": 4745,
      "cti": 4746,
      "east": 4747,
      "gth": 4748,
      "gag": 4749,
      "nier": 4750,
      "omy": 4751,
      "pad": 4752,
      "sna": 4753,
      "tac": 4754,
      "tiny": 4755,
      "inch": 4756,
      "independ": 4757,
      "stic": 4758,
      "edgy": 4759,
      "semi": 4760,
      "loop": 4761,
      "liking": 4762,
      "weather": 4763,
      "tight": 4764,
      "outta": 4765,
      "moves": 4766,
      "dee": 4767,
      "degree": 4768,
      "ionally": 4769,
      "plate": 4770,
      "proven": 4771,
      "herself": 4772,
      "manager": 4773,
      "reddits": 4774,
      "prices": 4775,
      "apply": 4776,
      "applau": 4777,
      "crash": 4778,
      "marry": 4779,
      "quest": 4780,
      "winner": 4781,
      "ashamed": 4782,
      "parano": 4783,
      "basic": 4784,
      "????": 4785,
      "beauty": 4786,
      "stock": 4787,
      "linked": 4788,
      "instantly": 4789,
      "worrying": 4790,
      "mption": 4791,
      "click": 4792,
      "ignoring": 4793,
      "threw": 4794,
      "sleeping": 4795,
      "universe": 4796,
      "distance": 4797,
      "blessed": 4798,
      "squad": 4799,
      "statist": 4800,
      "injuries": 4801,
      "addiction": 4802,
      "0000000000000000": 4803,
      "details": 4804,
      "rejected": 4805,
      "fetish": 4806,
      "minimum": 4807,
      "split": 4808,
      "millen": 4809,
      "26": 4810,
      "bis": 4811,
      "dc": 4812,
      "dish": 4813,
      "fart": 4814,
      "jam": 4815,
      "nfl": 4816,
      "ration": 4817,
      "smug": 4818,
      "tone": 4819,
      "twee": 4820,
      "ured": 4821,
      "vag": 4822,
      "york": 4823,
      "influ": 4824,
      "reve": 4825,
      "react": 4826,
      "reward": 4827,
      "repub": 4828,
      "stre": 4829,
      "beating": 4830,
      "sets": 4831,
      "root": 4832,
      "tims": 4833,
      "poop": 4834,
      "dems": 4835,
      "whats": 4836,
      "immoral": 4837,
      "consu": 4838,
      "concl": 4839,
      "consequ": 4840,
      "pls": 4841,
      "combo": 4842,
      "protest": 4843,
      "predict": 4844,
      "grind": 4845,
      "stops": 4846,
      "believing": 4847,
      "horrifying": 4848,
      "via": 4849,
      "cape": 4850,
      "compan": 4851,
      "burned": 4852,
      "burgers": 4853,
      "cried": 4854,
      "warning": 4855,
      "chair": 4856,
      "pasta": 4857,
      "2017": 4858,
      "controll": 4859,
      "articles": 4860,
      "straw": 4861,
      "faster": 4862,
      "volu": 4863,
      "socialism": 4864,
      "salt": 4865,
      "osity": 4866,
      "fantasy": 4867,
      "constru": 4868,
      "contrad": 4869,
      "snap": 4870,
      "equally": 4871,
      "heroes": 4872,
      "depressed": 4873,
      "legitim": 4874,
      "discuss": 4875,
      "mbers": 4876,
      "include": 4877,
      "educated": 4878,
      "england": 4879,
      "require": 4880,
      "celebrate": 4881,
      "significant": 4882,
      "weapon": 4883,
      "circum": 4884,
      "insulting": 4885,
      "memories": 4886,
      "belongs": 4887,
      "arrested": 4888,
      "sarcasm": 4889,
      "disturbing": 4890,
      "mexico": 4891,
      "fascinating": 4892,
      "31": 4893,
      "300": 4894,
      "bay": 4895,
      "caked": 4896,
      "ckets": 4897,
      "dall": 4898,
      "ease": 4899,
      "fb": 4900,
      "ik": 4901,
      "ior": 4902,
      "kiss": 4903,
      "lly": 4904,
      "nam": 4905,
      "nia": 4906,
      "pto": 4907,
      "pound": 4908,
      "tum": 4909,
      "tinder": 4910,
      "incorrect": 4911,
      "station": 4912,
      "stren": 4913,
      "asap": 4914,
      "betray": 4915,
      "veget": 4916,
      "habit": 4917,
      "lick": 4918,
      "ids": 4919,
      "unde": 4920,
      "moon": 4921,
      "notes": 4922,
      "butter": 4923,
      "detro": 4924,
      "trum": 4925,
      "ppers": 4926,
      "exper": 4927,
      "india": 4928,
      "boot": 4929,
      "illness": 4930,
      "romantic": 4931,
      "scor": 4932,
      "spit": 4933,
      "badass": 4934,
      "discord": 4935,
      "disney": 4936,
      "overall": 4937,
      "glorious": 4938,
      "buff": 4939,
      "buzz": 4940,
      "nailed": 4941,
      "underrated": 4942,
      "spelling": 4943,
      "hip": 4944,
      "minis": 4945,
      "bridge": 4946,
      "tells": 4947,
      "honey": 4948,
      "honesty": 4949,
      "charged": 4950,
      "seasons": 4951,
      "furi": 4952,
      "symp": 4953,
      "dragon": 4954,
      "shape": 4955,
      "signs": 4956,
      "signing": 4957,
      "painting": 4958,
      "dealing": 4959,
      "treated": 4960,
      "falls": 4961,
      "curiosity": 4962,
      "screw": 4963,
      "hardest": 4964,
      "ification": 4965,
      "ascul": 4966,
      "canadian": 4967,
      "grandma": 4968,
      "photos": 4969,
      "kicked": 4970,
      "icians": 4971,
      "struct": 4972,
      "embarrassed": 4973,
      "miracle": 4974,
      "gradu": 4975,
      "hmmm": 4976,
      "mixed": 4977,
      "limited": 4978,
      "alternative": 4979,
      "sneak": 4980,
      "candid": 4981,
      "blatant": 4982,
      "advantage": 4983,
      "pillow": 4984,
      "reveal": 4985,
      "volume": 4986,
      "cakeday": 4987,
      "dallas": 4988,
      "199": 4989,
      "cers": 4990,
      "dent": 4991,
      "dred": 4992,
      "gd": 4993,
      "ime": 4994,
      "kink": 4995,
      "kitch": 4996,
      "kore": 4997,
      "lane": 4998,
      "miles": 4999,
      "nn": 5000,
      "ron": 5001,
      "sink": 5002,
      "shad": 5003,
      "uber": 5004,
      "vill": 5005,
      "thri": 5006,
      "mel": 5007,
      "ened": 5008,
      "bell": 5009,
      "bears": 5010,
      "hem": 5011,
      "sem": 5012,
      "lip": 5013,
      "format": 5014,
      "icious": 5015,
      "aded": 5016,
      "utch": 5017,
      "hopes": 5018,
      "dose": 5019,
      "chine": 5020,
      "abl": 5021,
      "wasnt": 5022,
      "irrit": 5023,
      "oph": 5024,
      "okie": 5025,
      "upvoted": 5026,
      "consent": 5027,
      "thern": 5028,
      "exclusive": 5029,
      "ause": 5030,
      "perman": 5031,
      "tag": 5032,
      "bothered": 5033,
      "sport": 5034,
      "downvoting": 5035,
      "misread": 5036,
      "ruining": 5037,
      "subreddits": 5038,
      "pointless": 5039,
      "desk": 5040,
      "surround": 5041,
      "marke": 5042,
      "choo": 5043,
      "frame": 5044,
      "decade": 5045,
      "talks": 5046,
      "movement": 5047,
      "mmmm": 5048,
      "laid": 5049,
      "!!!!!!": 5050,
      "appreciated": 5051,
      "opened": 5052,
      "fiction": 5053,
      "reminder": 5054,
      "politicians": 5055,
      "destro": 5056,
      "trail": 5057,
      "communism": 5058,
      "existence": 5059,
      "climate": 5060,
      "cringey": 5061,
      "scenario": 5062,
      "hundred": 5063,
      "drinks": 5064,
      "wasting": 5065,
      "rifice": 5066,
      "referen": 5067,
      "equal": 5068,
      "brig": 5069,
      "recovery": 5070,
      "belly": 5071,
      "engage": 5072,
      "privile": 5073,
      "knees": 5074,
      "entertaining": 5075,
      "intentionally": 5076,
      "connect": 5077,
      "competition": 5078,
      "chuckle": 5079,
      "sacrifice": 5080,
      "weirdo": 5081,
      "neighborhood": 5082,
      "slavery": 5083,
      "inspired": 5084,
      "republican": 5085,
      "chinese": 5086,
      "29": 5087,
      "ape": 5088,
      "bone": 5089,
      "dang": 5090,
      "eff": 5091,
      "emer": 5092,
      "fab": 5093,
      "gal": 5094,
      "jab": 5095,
      "lat": 5096,
      "lor": 5097,
      "mun": 5098,
      "rade": 5099,
      "sque": 5100,
      "tort": 5101,
      "vile": 5102,
      "whel": 5103,
      "input": 5104,
      "infl": 5105,
      "recor": 5106,
      "review": 5107,
      "atory": 5108,
      "member": 5109,
      "stance": 5110,
      "leaf": 5111,
      "seats": 5112,
      "section": 5113,
      "fornia": 5114,
      "wered": 5115,
      "doors": 5116,
      "chase": 5117,
      "tific": 5118,
      "aband": 5119,
      "uncle": 5120,
      "irrelevant": 5121,
      "ifying": 5122,
      "percent": 5123,
      "urb": 5124,
      "tast": 5125,
      "raped": 5126,
      "goodbye": 5127,
      "therefore": 5128,
      "bored": 5129,
      "foc": 5130,
      "offici": 5131,
      "comeback": 5132,
      "fund": 5133,
      "firm": 5134,
      "restimate": 5135,
      "subtle": 5136,
      "server": 5137,
      "served": 5138,
      "answers": 5139,
      "finds": 5140,
      "shown": 5141,
      ".......": 5142,
      "ftfy": 5143,
      "caring": 5144,
      "frank": 5145,
      "picking": 5146,
      "laught": 5147,
      "pays": 5148,
      "syri": 5149,
      "drag": 5150,
      "nights": 5151,
      "setting": 5152,
      "blocked": 5153,
      "accent": 5154,
      "prior": 5155,
      "chain": 5156,
      "experiences": 5157,
      "cycle": 5158,
      "⠀⠀⠀": 5159,
      "budget": 5160,
      "1000": 5161,
      "filthy": 5162,
      "closed": 5163,
      "accounts": 5164,
      "released": 5165,
      "transl": 5166,
      "flip": 5167,
      "critical": 5168,
      "bullet": 5169,
      "----": 5170,
      "panic": 5171,
      "yyyy": 5172,
      "fascism": 5173,
      "reported": 5174,
      "ranked": 5175,
      "crimes": 5176,
      "vaccines": 5177,
      "bags": 5178,
      "aimed": 5179,
      "describe": 5180,
      "conservatives": 5181,
      "central": 5182,
      "transpho": 5183,
      "california": 5184,
      "pulled": 5185,
      "revolution": 5186,
      "wealth": 5187,
      "surgery": 5188,
      "convinced": 5189,
      "remotely": 5190,
      "detroit": 5191,
      "27": 5192,
      "bby": 5193,
      "fare": 5194,
      "hic": 5195,
      "nite": 5196,
      "pit": 5197,
      "pts": 5198,
      "rating": 5199,
      "sized": 5200,
      "uel": 5201,
      "vive": 5202,
      "infe": 5203,
      "inspir": 5204,
      "resid": 5205,
      "attemp": 5206,
      "oned": 5207,
      "stack": 5208,
      "asle": 5209,
      "associ": 5210,
      "soooo": 5211,
      "locked": 5212,
      "kee": 5213,
      "..*": 5214,
      "icor": 5215,
      "goo": 5216,
      "coinc": 5217,
      "gee": 5218,
      "geez": 5219,
      "cher": 5220,
      "tie": 5221,
      "outs": 5222,
      "neat": 5223,
      "mast": 5224,
      "amp": 5225,
      "imple": 5226,
      "imperi": 5227,
      "trap": 5228,
      "enders": 5229,
      "timent": 5230,
      "hers": 5231,
      "span": 5232,
      "vomit": 5233,
      "friendship": 5234,
      "wave": 5235,
      "minne": 5236,
      "blan": 5237,
      "broad": 5238,
      "steel": 5239,
      "wishing": 5240,
      "elsewhere": 5241,
      "decades": 5242,
      "famous": 5243,
      "reporting": 5244,
      "sucked": 5245,
      "bike": 5246,
      "biased": 5247,
      "evol": 5248,
      "wallow": 5249,
      "walked": 5250,
      "burning": 5251,
      "confusing": 5252,
      "dram": 5253,
      "reminded": 5254,
      "trend": 5255,
      "links": 5256,
      "milk": 5257,
      "spoiled": 5258,
      "hype": 5259,
      "scenes": 5260,
      "cases": 5261,
      "sentiment": 5262,
      "eyebrows": 5263,
      "annoyed": 5264,
      "accepted": 5265,
      "acceptable": 5266,
      "icient": 5267,
      "roads": 5268,
      "traded": 5269,
      "feminism": 5270,
      "vague": 5271,
      "officer": 5272,
      "motivated": 5273,
      "sandw": 5274,
      "hidden": 5275,
      "citizen": 5276,
      "struggle": 5277,
      "experienced": 5278,
      "shift": 5279,
      "europe": 5280,
      "employees": 5281,
      "streak": 5282,
      "strength": 5283,
      "([": 5284,
      "),": 5285,
      "*\"": 5286,
      ">!": 5287,
      ">[": 5288,
      "bright": 5289,
      "bible": 5290,
      "cs": 5291,
      "etern": 5292,
      "ku": 5293,
      "knick": 5294,
      "lou": 5295,
      "mvp": 5296,
      "owe": 5297,
      "rab": 5298,
      "uary": 5299,
      "yan": 5300,
      "inti": 5301,
      "inser": 5302,
      "rer": 5303,
      "anime": 5304,
      "atable": 5305,
      "ony": 5306,
      "asp": 5307,
      "beast": 5308,
      "rookie": 5309,
      "wet": 5310,
      "adding": 5311,
      "gods": 5312,
      "timing": 5313,
      "pear": 5314,
      "ripped": 5315,
      "poe": 5316,
      "polar": 5317,
      "depart": 5318,
      "mains": 5319,
      "plz": 5320,
      "plastic": 5321,
      "exual": 5322,
      "rag": 5323,
      "precious": 5324,
      "boi": 5325,
      "artist": 5326,
      "happier": 5327,
      "inevit": 5328,
      "backs": 5329,
      "disease": 5330,
      "realise": 5331,
      "intense": 5332,
      "izes": 5333,
      "spell": 5334,
      "relatable": 5335,
      "pulling": 5336,
      "handed": 5337,
      "replying": 5338,
      "collect": 5339,
      "compare": 5340,
      "complic": 5341,
      "synd": 5342,
      "drawing": 5343,
      "blown": 5344,
      "exciting": 5345,
      "crypto": 5346,
      "messed": 5347,
      "messages": 5348,
      "sooner": 5349,
      "hyster": 5350,
      "filming": 5351,
      "listened": 5352,
      "medio": 5353,
      "victims": 5354,
      "sunday": 5355,
      "😂😂😂": 5356,
      "collection": 5357,
      "silver": 5358,
      "prayers": 5359,
      "iiii": 5360,
      "legitimate": 5361,
      "crush": 5362,
      "emotionally": 5363,
      "democratic": 5364,
      "typically": 5365,
      "treatment": 5366,
      "effects": 5367,
      "strike": 5368,
      "oooooooooooooooo": 5369,
      "heavily": 5370,
      "kitty": 5371,
      "talented": 5372,
      "graphic": 5373,
      "wishes": 5374,
      "losses": 5375,
      "identify": 5376,
      "japan": 5377,
      "elimin": 5378,
      "believable": 5379,
      "legitimately": 5380,
      "asleep": 5381,
      "-[": 5382,
      "95": 5383,
      "aust": 5384,
      "awhile": 5385,
      "bits": 5386,
      "bpd": 5387,
      "cunt": 5388,
      "ears": 5389,
      "gap": 5390,
      "ggling": 5391,
      "lum": 5392,
      "nhl": 5393,
      "ray": 5394,
      "sch": 5395,
      "skill": 5396,
      "sched": 5397,
      "wound": 5398,
      "thick": 5399,
      "inf": 5400,
      "ino": 5401,
      "reli": 5402,
      "rend": 5403,
      "atm": 5404,
      "mets": 5405,
      "err": 5406,
      "ito": 5407,
      "stink": 5408,
      "stated": 5409,
      "asia": 5410,
      "edited": 5411,
      "beg": 5412,
      "forgive": 5413,
      "advoc": 5414,
      "utah": 5415,
      "wire": 5416,
      "dos": 5417,
      "dows": 5418,
      "cot": 5419,
      "coke": 5420,
      "unicor": 5421,
      "demand": 5422,
      "mah": 5423,
      "ami": 5424,
      "shar": 5425,
      "shorts": 5426,
      "upload": 5427,
      "convic": 5428,
      "congress": 5429,
      "console": 5430,
      "boobs": 5431,
      "illa": 5432,
      "ilities": 5433,
      "whoops": 5434,
      "ours": 5435,
      "everytime": 5436,
      "reads": 5437,
      "umm": 5438,
      "backwards": 5439,
      "ishing": 5440,
      "pride": 5441,
      "disaster": 5442,
      "overrated": 5443,
      "misleading": 5444,
      "sons": 5445,
      "izon": 5446,
      "clapped": 5447,
      "duct": 5448,
      "restric": 5449,
      "glasses": 5450,
      "shoo": 5451,
      "mono": 5452,
      "brow": 5453,
      "stands": 5454,
      "standards": 5455,
      "stopping": 5456,
      "sites": 5457,
      "tries": 5458,
      "creative": 5459,
      "flame": 5460,
      "differen": 5461,
      "fortnite": 5462,
      "jection": 5463,
      "childhood": 5464,
      "curse": 5465,
      "vibes": 5466,
      "factor": 5467,
      "replies": 5468,
      "colors": 5469,
      "bia": 5470,
      "define": 5471,
      "burger": 5472,
      "respond": 5473,
      "!!!!!!!!": 5474,
      "cutest": 5475,
      "keys": 5476,
      "instin": 5477,
      "instant": 5478,
      "rounds": 5479,
      "smaller": 5480,
      "wasted": 5481,
      "growth": 5482,
      "hhhhhhhh": 5483,
      "establ": 5484,
      "covering": 5485,
      "ultimate": 5486,
      "equival": 5487,
      "fyi": 5488,
      "slowly": 5489,
      "ethical": 5490,
      "engine": 5491,
      "nightmares": 5492,
      "hammer": 5493,
      "witness": 5494,
      "consistent": 5495,
      "comparison": 5496,
      "intellect": 5497,
      "quarter": 5498,
      "minority": 5499,
      "mutual": 5500,
      "chief": 5501,
      "chiefs": 5502,
      "thousands": 5503,
      "satisfying": 5504,
      "vaccinated": 5505,
      "gentle": 5506,
      "vaxx": 5507,
      "stretch": 5508,
      "scratch": 5509,
      "companies": 5510,
      "marketing": 5511,
      "!<": 5512,
      "$$": 5513,
      "600": 5514,
      "bucks": 5515,
      "cate": 5516,
      "dup": 5517,
      "dash": 5518,
      "gic": 5519,
      "ium": 5520,
      "jac": 5521,
      "mg": 5522,
      "mascul": 5523,
      "pats": 5524,
      "pier": 5525,
      "rt": 5526,
      "rat": 5527,
      "ule": 5528,
      "vance": 5529,
      "xious": 5530,
      "zing": 5531,
      "zed": 5532,
      "zens": 5533,
      "inches": 5534,
      "insults": 5535,
      "retail": 5536,
      "meds": 5537,
      "members": 5538,
      "ert": 5539,
      "ery": 5540,
      "ordered": 5541,
      "toy": 5542,
      "aling": 5543,
      "lection": 5544,
      "army": 5545,
      "vehic": 5546,
      "noise": 5547,
      "noxious": 5548,
      "amend": 5549,
      "sooo": 5550,
      "socially": 5551,
      "hack": 5552,
      "escape": 5553,
      "whi": 5554,
      "liar": 5555,
      "web": 5556,
      "ads": 5557,
      "gosh": 5558,
      "dozens": 5559,
      "coast": 5560,
      "unlike": 5561,
      "nets": 5562,
      "optim": 5563,
      "yell": 5564,
      "tration": 5565,
      "consc": 5566,
      "anytime": 5567,
      "endor": 5568,
      "raz": 5569,
      "actor": 5570,
      "bol": 5571,
      "bots": 5572,
      "venez": 5573,
      "woo": 5574,
      "offseason": 5575,
      "pron": 5576,
      "grace": 5577,
      "cling": 5578,
      "coura": 5579,
      "services": 5580,
      "lessly": 5581,
      "afterwards": 5582,
      "apping": 5583,
      "lifestyle": 5584,
      "mins": 5585,
      "brick": 5586,
      "shitpost": 5587,
      "steam": 5588,
      "achie": 5589,
      "cared": 5590,
      "minds": 5591,
      "crew": 5592,
      "obnoxious": 5593,
      "windows": 5594,
      "highlight": 5595,
      "amazon": 5596,
      "killers": 5597,
      "owners": 5598,
      "cursed": 5599,
      "hella": 5600,
      "imagined": 5601,
      "welp": 5602,
      "doggo": 5603,
      "century": 5604,
      "confusion": 5605,
      "mommy": 5606,
      "opening": 5607,
      "regul": 5608,
      "paste": 5609,
      "profile": 5610,
      "starving": 5611,
      "clown": 5612,
      "socialist": 5613,
      "delay": 5614,
      "pieces": 5615,
      "empty": 5616,
      "protection": 5617,
      "bully": 5618,
      "fascist": 5619,
      "nuclear": 5620,
      "behaviour": 5621,
      "satur": 5622,
      "grammar": 5623,
      "teachers": 5624,
      "benefits": 5625,
      "teaching": 5626,
      "collap": 5627,
      "documentary": 5628,
      "medicine": 5629,
      "nsfw": 5630,
      "analogy": 5631,
      "comparing": 5632,
      "economy": 5633,
      "official": 5634,
      "repeat": 5635,
      "combined": 5636,
      "🦀🦀🦀🦀": 5637,
      "utterly": 5638,
      "platform": 5639,
      "😤😤😤😤😤😤😤😤": 5640,
      "anarchist": 5641,
      "holiday": 5642,
      "miserable": 5643,
      "investigation": 5644,
      "industry": 5645,
      "vacation": 5646,
      "cousin": 5647,
      "narciss": 5648,
      "influence": 5649,
      "consequences": 5650,
      "kitchen": 5651,
      "emergen": 5652,
      "whelming": 5653,
      "minneso": 5654,
      "syndrome": 5655,
      "mediocre": 5656,
      "venezuel": 5657,
      "*[": 5658,
      "33": 5659,
      "38": 5660,
      "bout": 5661,
      "bump": 5662,
      "cc": 5663,
      "cart": 5664,
      "easter": 5665,
      "gut": 5666,
      "gaming": 5667,
      "hig": 5668,
      "ix": 5669,
      "iphone": 5670,
      "jar": 5671,
      "junk": 5672,
      "ko": 5673,
      "kin": 5674,
      "kers": 5675,
      "lun": 5676,
      "nba": 5677,
      "pig": 5678,
      "sb": 5679,
      "sust": 5680,
      "taught": 5681,
      "uals": 5682,
      "wra": 5683,
      "wage": 5684,
      "yr": 5685,
      "infuri": 5686,
      "reo": 5687,
      "theme": 5688,
      "theories": 5689,
      "era": 5690,
      "itor": 5691,
      "stad": 5692,
      "stances": 5693,
      "ori": 5694,
      "tos": 5695,
      "enforce": 5696,
      "ases": 5697,
      "belt": 5698,
      "armed": 5699,
      "amen": 5700,
      "havent": 5701,
      "loose": 5702,
      "whis": 5703,
      "whining": 5704,
      "lips": 5705,
      "forcing": 5706,
      "roast": 5707,
      "rooms": 5708,
      "hotel": 5709,
      "wik": 5710,
      "aret": 5711,
      "coo": 5712,
      "code": 5713,
      "tips": 5714,
      "mood": 5715,
      "moms": 5716,
      "fest": 5717,
      "tea": 5718,
      "yelling": 5719,
      "tric": 5720,
      "convert": 5721,
      "plane": 5722,
      "comrade": 5723,
      "guid": 5724,
      "preference": 5725,
      "bom": 5726,
      "herent": 5727,
      "wol": 5728,
      "woah": 5729,
      "fold": 5730,
      "sche": 5731,
      "apt": 5732,
      "misunderstanding": 5733,
      "letter": 5734,
      "serial": 5735,
      "bulls": 5736,
      "awaren": 5737,
      "stereo": 5738,
      "sounded": 5739,
      "beliefs": 5740,
      "creatures": 5741,
      "turd": 5742,
      "breathe": 5743,
      "genoc": 5744,
      "strangers": 5745,
      "amazed": 5746,
      "solve": 5747,
      "jeez": 5748,
      "amazingly": 5749,
      "tons": 5750,
      "nerd": 5751,
      "checks": 5752,
      "shadow": 5753,
      "stayed": 5754,
      "skins": 5755,
      "skip": 5756,
      "drives": 5757,
      "statements": 5758,
      "healing": 5759,
      "confident": 5760,
      "commute": 5761,
      "cutting": 5762,
      "diet": 5763,
      "resist": 5764,
      "resour": 5765,
      "destru": 5766,
      "communist": 5767,
      "couples": 5768,
      "stronger": 5769,
      "safety": 5770,
      "actively": 5771,
      "shutdown": 5772,
      "slap": 5773,
      "sigh": 5774,
      "constant": 5775,
      "succeed": 5776,
      "punishment": 5777,
      "product": 5778,
      "included": 5779,
      "baseball": 5780,
      "potato": 5781,
      "toronto": 5782,
      "naturally": 5783,
      "employ": 5784,
      "feminists": 5785,
      "pleasant": 5786,
      "described": 5787,
      "switched": 5788,
      "ignored": 5789,
      "recognize": 5790,
      "subscribe": 5791,
      "terrified": 5792,
      "nesses": 5793,
      "terrorists": 5794,
      "birds": 5795,
      "foul": 5796,
      "misogyn": 5797,
      "occasionally": 5798,
      "horribly": 5799,
      "guaranteed": 5800,
      "diagnosed": 5801,
      "hawks": 5802,
      "scotland": 5803,
      "independent": 5804,
      "privilege": 5805,
      "dramatic": 5806,
      "highest": 5807,
      "awareness": 5808,
      "((": 5809,
      "bam": 5810,
      "cil": 5811,
      "cles": 5812,
      "duck": 5813,
      "file": 5814,
      "gm": 5815,
      "han": 5816,
      "kis": 5817,
      "lin": 5818,
      "mort": 5819,
      "oth": 5820,
      "praise": 5821,
      "rarely": 5822,
      "sab": 5823,
      "shave": 5824,
      "swallow": 5825,
      "wl": 5826,
      "xbox": 5827,
      "inappropriate": 5828,
      "refresh": 5829,
      "thet": 5830,
      "itive": 5831,
      "toon": 5832,
      "todd": 5833,
      "alled": 5834,
      "arizon": 5835,
      "logo": 5836,
      "rog": 5837,
      "roster": 5838,
      "rooting": 5839,
      "adminis": 5840,
      "hop": 5841,
      "dox": 5842,
      "tier": 5843,
      "outcome": 5844,
      "unattractive": 5845,
      "unusual": 5846,
      "rim": 5847,
      "sus": 5848,
      "shits": 5849,
      "trau": 5850,
      "donate": 5851,
      "conduct": 5852,
      "exer": 5853,
      "prospect": 5854,
      "agers": 5855,
      "acks": 5856,
      "foo": 5857,
      "scale": 5858,
      "itement": 5859,
      "grey": 5860,
      "umb": 5861,
      "affair": 5862,
      "discovered": 5863,
      "discrimin": 5864,
      "assholes": 5865,
      "chemis": 5866,
      "serving": 5867,
      "division": 5868,
      "kindness": 5869,
      "crab": 5870,
      "objective": 5871,
      "turtle": 5872,
      "morons": 5873,
      "maga": 5874,
      "headline": 5875,
      "embr": 5876,
      "ashing": 5877,
      "jets": 5878,
      "interpret": 5879,
      "favorites": 5880,
      "stern": 5881,
      "schools": 5882,
      "dumber": 5883,
      "shared": 5884,
      "lake": 5885,
      "attach": 5886,
      "chap": 5887,
      "titles": 5888,
      "assumption": 5889,
      "tested": 5890,
      "starter": 5891,
      "hyper": 5892,
      "swing": 5893,
      "followed": 5894,
      "attraction": 5895,
      "smells": 5896,
      "threats": 5897,
      "judging": 5898,
      "admitted": 5899,
      "aaaaa": 5900,
      "fishing": 5901,
      "rrrr": 5902,
      "psychopath": 5903,
      "ville": 5904,
      "bastards": 5905,
      "patri": 5906,
      "invite": 5907,
      "guilt": 5908,
      "entertainment": 5909,
      "patience": 5910,
      "criminal": 5911,
      "audience": 5912,
      "significantly": 5913,
      "eeeeeeeeeeeeeeee": 5914,
      "citizens": 5915,
      "nurse": 5916,
      "immigrants": 5917,
      "leaning": 5918,
      "cultur": 5919,
      "convenient": 5920,
      "itarian": 5921,
      "essentially": 5922,
      "cigaret": 5923,
      "arrived": 5924,
      "championship": 5925,
      "vagina": 5926,
      "korea": 5927,
      "torture": 5928,
      "abandoned": 5929,
      "imperial": 5930,
      "minnesota": 5931,
      "arizona": 5932,
      "chemistry": 5933,
      "!*": 5934,
      "##": 5935,
      ",,": 5936,
      "34": 5937,
      "39": 5938,
      "4chan": 5939,
      "85": 5940,
      "]!!": 5941,
      "aunt": 5942,
      "bite": 5943,
      "bors": 5944,
      "bills": 5945,
      "cb": 5946,
      "cards": 5947,
      "dor": 5948,
      "eld": 5949,
      "eag": 5950,
      "fbi": 5951,
      "hs": 5952,
      "ived": 5953,
      "ji": 5954,
      "kni": 5955,
      "md": 5956,
      "mits": 5957,
      "pg": 5958,
      "pist": 5959,
      "sf": 5960,
      "sses": 5961,
      "td": 5962,
      "tory": 5963,
      "vy": 5964,
      "👏👏": 5965,
      "rec": 5966,
      "recall": 5967,
      "request": 5968,
      "mechan": 5969,
      "itt": 5970,
      "sta": 5971,
      "stan": 5972,
      "stol": 5973,
      "andro": 5974,
      "libr": 5975,
      "adds": 5976,
      "adays": 5977,
      "doc": 5978,
      "coal": 5979,
      "cock": 5980,
      "chin": 5981,
      "und": 5982,
      "unpopular": 5983,
      "myster": 5984,
      "poison": 5985,
      "nowadays": 5986,
      "ambi": 5987,
      "upper": 5988,
      "ppl": 5989,
      "exit": 5990,
      "combat": 5991,
      "ulsive": 5992,
      "gued": 5993,
      "percen": 5994,
      "prost": 5995,
      "shell": 5996,
      "elabor": 5997,
      "prequ": 5998,
      "aging": 5999,
      "redu": 6000,
      "bleed": 6001,
      "aint": 6002,
      "causes": 6003,
      "safer": 6004,
      "appoint": 6005,
      "prin": 6006,
      "sorts": 6007,
      "chef": 6008,
      "chest": 6009,
      "realised": 6010,
      "intj": 6011,
      "mise": 6012,
      "pretending": 6013,
      "greater": 6014,
      "lette": 6015,
      "naive": 6016,
      "omb": 6017,
      "species": 6018,
      "dip": 6019,
      "aks": 6020,
      "blings": 6021,
      "damnit": 6022,
      "desc": 6023,
      "mari": 6024,
      "waited": 6025,
      "cartoon": 6026,
      "worlds": 6027,
      "paral": 6028,
      "implying": 6029,
      "colts": 6030,
      "mitism": 6031,
      "checking": 6032,
      "excess": 6033,
      "walmart": 6034,
      "burst": 6035,
      "mmm": 6036,
      "possibility": 6037,
      "worthless": 6038,
      "racists": 6039,
      "passion": 6040,
      "reminding": 6041,
      "spoken": 6042,
      "screwed": 6043,
      "attacking": 6044,
      "identity": 6045,
      "depth": 6046,
      "maintain": 6047,
      "smooth": 6048,
      "humble": 6049,
      "counsel": 6050,
      "feeding": 6051,
      "flesh": 6052,
      "pipe": 6053,
      "googled": 6054,
      "burns": 6055,
      "snowfl": 6056,
      "blows": 6057,
      "blowing": 6058,
      "feminist": 6059,
      "faced": 6060,
      "90s": 6061,
      "dollar": 6062,
      "neighbors": 6063,
      "dodged": 6064,
      "tanking": 6065,
      "asylum": 6066,
      "journey": 6067,
      "criticism": 6068,
      "affected": 6069,
      "received": 6070,
      "financially": 6071,
      "medication": 6072,
      "subscribed": 6073,
      "gigg": 6074,
      "cancelled": 6075,
      "particularly": 6076,
      "improvement": 6077,
      "january": 6078,
      "obsessed": 6079,
      "99999999": 6080,
      "increase": 6081,
      "relief": 6082,
      "relieved": 6083,
      "holidays": 6084,
      "harassment": 6085,
      "devast": 6086,
      "compliment": 6087,
      "placed": 6088,
      "corrupt": 6089,
      "paranoid": 6090,
      "underestimate": 6091,
      "leafs": 6092,
      "translation": 6093,
      "sandwich": 6094,
      "department": 6095,
      "austin": 6096,
      "optimistic": 6097,
      "saturday": 6098,
      "knife": 6099,
      "stolen": 6100,
      "400": 6101,
      "])": 6102,
      "aha": 6103,
      "athing": 6104,
      "bod": 6105,
      "dut": 6106,
      "dust": 6107,
      "dread": 6108,
      "elo": 6109,
      "gul": 6110,
      "hul": 6111,
      "ilies": 6112,
      "kat": 6113,
      "mint": 6114,
      "nag": 6115,
      "narr": 6116,
      "puck": 6117,
      "slaught": 6118,
      "tou": 6119,
      "tly": 6120,
      "tam": 6121,
      "yard": 6122,
      "zoo": 6123,
      "“[": 6124,
      "resc": 6125,
      "stab": 6126,
      "toss": 6127,
      "toward": 6128,
      "alleg": 6129,
      "encourage": 6130,
      "ari": 6131,
      "hehe": 6132,
      "novel": 6133,
      "llll": 6134,
      "rolls": 6135,
      "ading": 6136,
      "verty": 6137,
      "doo": 6138,
      "chu": 6139,
      "tires": 6140,
      "river": 6141,
      "sugar": 6142,
      "poverty": 6143,
      "dece": 6144,
      "devs": 6145,
      "opath": 6146,
      "ammo": 6147,
      "shor": 6148,
      "condesc": 6149,
      "users": 6150,
      "usable": 6151,
      "exchange": 6152,
      "comput": 6153,
      "thankfully": 6154,
      "sheep": 6155,
      "astro": 6156,
      "precise": 6157,
      "agent": 6158,
      "agger": 6159,
      "arts": 6160,
      "blew": 6161,
      "quently": 6162,
      "greed": 6163,
      "backup": 6164,
      "print": 6165,
      "abled": 6166,
      "funnier": 6167,
      "overwhelming": 6168,
      "grass": 6169,
      "intri": 6170,
      "clap": 6171,
      "submit": 6172,
      "underage": 6173,
      "direction": 6174,
      "hired": 6175,
      "monday": 6176,
      "blaming": 6177,
      "mative": 6178,
      "flav": 6179,
      "calories": 6180,
      "smack": 6181,
      "teammates": 6182,
      "highlights": 6183,
      "morty": 6184,
      "morbid": 6185,
      "understandable": 6186,
      "dynam": 6187,
      "interven": 6188,
      "charges": 6189,
      "ension": 6190,
      "families": 6191,
      "defending": 6192,
      "defended": 6193,
      "german": 6194,
      "ooooo": 6195,
      "excitement": 6196,
      "wallet": 6197,
      "juana": 6198,
      "warri": 6199,
      "warming": 6200,
      "clever": 6201,
      "courts": 6202,
      "messy": 6203,
      "portion": 6204,
      "leaves": 6205,
      "popul": 6206,
      "dropping": 6207,
      "^^^^": 6208,
      "explained": 6209,
      "cringy": 6210,
      "controvers": 6211,
      "salary": 6212,
      "slept": 6213,
      "histor": 6214,
      "writer": 6215,
      "purple": 6216,
      "rifle": 6217,
      "attracted": 6218,
      "finishing": 6219,
      "rams": 6220,
      "2009": 6221,
      "grandpa": 6222,
      "balance": 6223,
      "possess": 6224,
      "catching": 6225,
      "appears": 6226,
      "democrats": 6227,
      "booze": 6228,
      "struggling": 6229,
      "haters": 6230,
      "skinny": 6231,
      "boner": 6232,
      "bonus": 6233,
      "meaningless": 6234,
      "frustration": 6235,
      "capitalist": 6236,
      "trading": 6237,
      "apartment": 6238,
      "involve": 6239,
      "threatening": 6240,
      "activists": 6241,
      "dictator": 6242,
      "patient": 6243,
      "eggs": 6244,
      "travel": 6245,
      "hypocris": 6246,
      "frozen": 6247,
      "obsession": 6248,
      "appearance": 6249,
      "metaph": 6250,
      "communication": 6251,
      "management": 6252,
      "accomplishment": 6253,
      "misogyny": 6254,
      "wubwubwubwubwubwubwubwubwubwubwubwubwubwubwubwub": 6255,
      "electric": 6256,
      "tlj": 6257,
      "oblivion": 6258,
      "introduced": 6259,
      "stunning": 6260,
      "improved": 6261,
      "homophobic": 6262,
      "addition": 6263,
      "conclusion": 6264,
      "pounds": 6265,
      "pillows": 6266,
      "choosing": 6267,
      "records": 6268,
      "attempts": 6269,
      "masturb": 6270,
      "implement": 6271,
      "knicks": 6272,
      "intimid": 6273,
      "venezuela": 6274,
      "toddler": 6275,
      "elaborate": 6276,
      "marijuana": 6277,
      "hypocrisy": 6278,
      "cis": 6279,
      "cough": 6280,
      "eze": 6281,
      "fting": 6282,
      "hats": 6283,
      "jel": 6284,
      "lame": 6285,
      "lences": 6286,
      "mist": 6287,
      "mouse": 6288,
      "nj": 6289,
      "nause": 6290,
      "pse": 6291,
      "pir": 6292,
      "pity": 6293,
      "rates": 6294,
      "tin": 6295,
      "vine": 6296,
      "zomb": 6297,
      "thurs": 6298,
      "infer": 6299,
      "anced": 6300,
      "onon": 6301,
      "iter": 6302,
      "itut": 6303,
      "sting": 6304,
      "lego": 6305,
      "leans": 6306,
      "aspect": 6307,
      "nove": 6308,
      "nomin": 6309,
      "loso": 6310,
      "lil": 6311,
      "acing": 6312,
      "western": 6313,
      "hots": 6314,
      "cod": 6315,
      "gear": 6316,
      "chant": 6317,
      "abused": 6318,
      "peak": 6319,
      "unlikely": 6320,
      "rial": 6321,
      "debt": 6322,
      "determin": 6323,
      "mainst": 6324,
      "amin": 6325,
      "shall": 6326,
      "shine": 6327,
      "traged": 6328,
      "celt": 6329,
      "donation": 6330,
      "proves": 6331,
      "prescri": 6332,
      "boom": 6333,
      "agon": 6334,
      "quad": 6335,
      "saves": 6336,
      "ohhh": 6337,
      "shoulder": 6338,
      "prick": 6339,
      "gamers": 6340,
      "grant": 6341,
      "download": 6342,
      "intended": 6343,
      "mistaken": 6344,
      "voters": 6345,
      "clutch": 6346,
      "servers": 6347,
      "intoler": 6348,
      "partners": 6349,
      "blin": 6350,
      "pointed": 6351,
      "phil": 6352,
      "integr": 6353,
      "survive": 6354,
      "nyc": 6355,
      "relative": 6356,
      "county": 6357,
      "reasoning": 6358,
      "weirdly": 6359,
      "string": 6360,
      "handled": 6361,
      "sexually": 6362,
      "logist": 6363,
      "owned": 6364,
      "interaction": 6365,
      "remembering": 6366,
      "vibe": 6367,
      "twenty": 6368,
      "lineup": 6369,
      "imaginary": 6370,
      "autistic": 6371,
      "?!?": 6372,
      "accus": 6373,
      "warned": 6374,
      "deny": 6375,
      "positions": 6376,
      "correctly": 6377,
      "films": 6378,
      "harsh": 6379,
      "clock": 6380,
      "scored": 6381,
      "leads": 6382,
      "ankle": 6383,
      "brothers": 6384,
      "wingers": 6385,
      "slam": 6386,
      "clubs": 6387,
      "scient": 6388,
      "deeply": 6389,
      "educate": 6390,
      "screams": 6391,
      "techno": 6392,
      "flee": 6393,
      "conversations": 6394,
      "regarding": 6395,
      "crop": 6396,
      "switching": 6397,
      "cooking": 6398,
      "flower": 6399,
      "flowers": 6400,
      "suggesting": 6401,
      "seattle": 6402,
      "required": 6403,
      "reaching": 6404,
      "regularly": 6405,
      "sequel": 6406,
      "sociopath": 6407,
      "cancel": 6408,
      "clarification": 6409,
      "puppy": 6410,
      "competitive": 6411,
      "terribly": 6412,
      "condoms": 6413,
      "condolences": 6414,
      "weapons": 6415,
      "crisis": 6416,
      "sympathy": 6417,
      "provided": 6418,
      "sweaty": 6419,
      "sensible": 6420,
      "opponents": 6421,
      "ketchup": 6422,
      "economic": 6423,
      "houses": 6424,
      "competent": 6425,
      "applaud": 6426,
      "circumstances": 6427,
      "expert": 6428,
      "structure": 6429,
      "candidate": 6430,
      "coincidence": 6431,
      "blanket": 6432,
      "evolution": 6433,
      "equivalent": 6434,
      "masculinity": 6435,
      "razor": 6436,
      "emergency": 6437,
      "sustain": 6438,
      "infuriating": 6439,
      "scheme": 6440,
      "eagles": 6441,
      "prequel": 6442,
      "narrative": 6443,
      "condescending": 6444,
      "thursday": 6445,
      "mainstream": 6446,
      "%.": 6447,
      "48": 6448,
      "67": 6449,
      "akes": 6450,
      "bart": 6451,
      "bars": 6452,
      "eats": 6453,
      "fright": 6454,
      "flight": 6455,
      "frag": 6456,
      "gha": 6457,
      "gil": 6458,
      "gaw": 6459,
      "hil": 6460,
      "lak": 6461,
      "labor": 6462,
      "lsea": 6463,
      "mask": 6464,
      "np": 6465,
      "nas": 6466,
      "pand": 6467,
      "pra": 6468,
      "phas": 6469,
      "rhy": 6470,
      "ske": 6471,
      "sam": 6472,
      "sions": 6473,
      "tid": 6474,
      "tact": 6475,
      "task": 6476,
      "uous": 6477,
      "⠶⠶": 6478,
      "thx": 6479,
      "theft": 6480,
      "ature": 6481,
      "metric": 6482,
      "storm": 6483,
      "ala": 6484,
      "encoura": 6485,
      "asm": 6486,
      "arse": 6487,
      "vegas": 6488,
      "sore": 6489,
      "soever": 6490,
      "haust": 6491,
      "espn": 6492,
      "lict": 6493,
      "rolled": 6494,
      "advance": 6495,
      "goof": 6496,
      "utr": 6497,
      "hoo": 6498,
      "dope": 6499,
      "doord": 6500,
      "chip": 6501,
      "peep": 6502,
      "unite": 6503,
      "unlucky": 6504,
      "rival": 6505,
      "neutr": 6506,
      "poll": 6507,
      "deer": 6508,
      "defe": 6509,
      "devil": 6510,
      "territ": 6511,
      "whatsoever": 6512,
      "shred": 6513,
      "shield": 6514,
      "immature": 6515,
      "exam": 6516,
      "exhaust": 6517,
      "comics": 6518,
      "perce": 6519,
      "tape": 6520,
      "boston": 6521,
      "mentality": 6522,
      "ilt": 6523,
      "woooo": 6524,
      "ideal": 6525,
      "quot": 6526,
      "scars": 6527,
      "item": 6528,
      "ohio": 6529,
      "pleased": 6530,
      "gameplay": 6531,
      "chem": 6532,
      "chelsea": 6533,
      "realization": 6534,
      "claimed": 6535,
      "subur": 6536,
      "subjective": 6537,
      "dia": 6538,
      "dire": 6539,
      "corner": 6540,
      "minded": 6541,
      "belief": 6542,
      "legion": 6543,
      "bites": 6544,
      "sadness": 6545,
      "carried": 6546,
      "hormon": 6547,
      "mercy": 6548,
      "ashed": 6549,
      "enjoyable": 6550,
      "frid": 6551,
      "vili": 6552,
      "payments": 6553,
      "homes": 6554,
      "causing": 6555,
      "imagining": 6556,
      "autism": 6557,
      "stays": 6558,
      "events": 6559,
      "differently": 6560,
      "pedoph": 6561,
      "juice": 6562,
      "asks": 6563,
      "incap": 6564,
      "riding": 6565,
      "chable": 6566,
      "expand": 6567,
      "drops": 6568,
      "corrected": 6569,
      "latest": 6570,
      "souls": 6571,
      "southern": 6572,
      "scott": 6573,
      "answering": 6574,
      "victory": 6575,
      "brainwashed": 6576,
      "😂😂😂😂": 6577,
      "bingo": 6578,
      "tickets": 6579,
      "supportive": 6580,
      "targets": 6581,
      "sexuality": 6582,
      "panther": 6583,
      "produced": 6584,
      "products": 6585,
      "regrets": 6586,
      "upsetting": 6587,
      "disappointment": 6588,
      "crossing": 6589,
      "exception": 6590,
      "square": 6591,
      "vanilla": 6592,
      "meaningful": 6593,
      "employed": 6594,
      "facing": 6595,
      "facial": 6596,
      "offered": 6597,
      "80s": 6598,
      "cookies": 6599,
      "thorough": 6600,
      "locker": 6601,
      "london": 6602,
      "uuuuuuuu": 6603,
      "bothers": 6604,
      "fourth": 6605,
      "knock": 6606,
      "receiving": 6607,
      "mcdonald": 6608,
      "envy": 6609,
      "celebrity": 6610,
      "recognized": 6611,
      "consistently": 6612,
      "intentional": 6613,
      "assaul": 6614,
      "automat": 6615,
      "expression": 6616,
      "transport": 6617,
      "qualified": 6618,
      "blatantly": 6619,
      "polish": 6620,
      "scares": 6621,
      "++++++++": 6622,
      "oblivious": 6623,
      "intelligence": 6624,
      "philoso": 6625,
      "deeper": 6626,
      "millenni": 6627,
      "tweets": 6628,
      "vegetable": 6629,
      "shady": 6630,
      "spanish": 6631,
      "schedule": 6632,
      "piercing": 6633,
      "conscious": 6634,
      "genocide": 6635,
      "pistons": 6636,
      "percentage": 6637,
      "bodies": 6638,
      "metaphor": 6639,
      "lakers": 6640,
      "doordash": 6641,
      "/¯": 6642,
      "7th": 6643,
      "87": 6644,
      "aid": 6645,
      "bli": 6646,
      "crown": 6647,
      "das": 6648,
      "eous": 6649,
      "ets": 6650,
      "este": 6651,
      "flies": 6652,
      "gard": 6653,
      "iers": 6654,
      "ires": 6655,
      "joh": 6656,
      "jaw": 6657,
      "nie": 6658,
      "nfc": 6659,
      "pha": 6660,
      "rack": 6661,
      "tsa": 6662,
      "vity": 6663,
      "zo": 6664,
      "😡😡": 6665,
      "thumb": 6666,
      "rev": 6667,
      "reha": 6668,
      "remark": 6669,
      "reacting": 6670,
      "remains": 6671,
      "ancy": 6672,
      "atro": 6673,
      "atleast": 6674,
      "eria": 6675,
      "stro": 6676,
      "stage": 6677,
      "toast": 6678,
      "toms": 6679,
      "toler": 6680,
      "enthus": 6681,
      "lemon": 6682,
      "bee": 6683,
      "armor": 6684,
      "lyn": 6685,
      "liver": 6686,
      "lla": 6687,
      "acid": 6688,
      "acho": 6689,
      "ician": 6690,
      "robot": 6691,
      "adjust": 6692,
      "advis": 6693,
      "hom": 6694,
      "ching": 6695,
      "unironically": 6696,
      "mocking": 6697,
      "suf": 6698,
      "sume": 6699,
      "supre": 6700,
      "pods": 6701,
      "powers": 6702,
      "pockets": 6703,
      "fee": 6704,
      "febru": 6705,
      "deter": 6706,
      "dete": 6707,
      "mafi": 6708,
      "sometime": 6709,
      "tear": 6710,
      "shu": 6711,
      "shark": 6712,
      "immen": 6713,
      "contain": 6714,
      "ateful": 6715,
      "pla": 6716,
      "ural": 6717,
      "prob": 6718,
      "projection": 6719,
      "seeking": 6720,
      "raw": 6721,
      "actors": 6722,
      "elite": 6723,
      "prevent": 6724,
      "boots": 6725,
      "typo": 6726,
      "scand": 6727,
      "righteous": 6728,
      "ohh": 6729,
      "evening": 6730,
      "couldnt": 6731,
      "thole": 6732,
      "disabled": 6733,
      "assist": 6734,
      "cheated": 6735,
      "funding": 6736,
      "grateful": 6737,
      "mism": 6738,
      "rug": 6739,
      "classes": 6740,
      "tale": 6741,
      "built": 6742,
      "nails": 6743,
      "menu": 6744,
      "dio": 6745,
      "shovel": 6746,
      "hardcore": 6747,
      "ps4": 6748,
      "tension": 6749,
      "mary": 6750,
      "flaming": 6751,
      "oblig": 6752,
      "breathing": 6753,
      "relatives": 6754,
      "morally": 6755,
      "craving": 6756,
      "crappy": 6757,
      "loses": 6758,
      "dys": 6759,
      "jecti": 6760,
      "interrup": 6761,
      "gia": 6762,
      "charity": 6763,
      "ultane": 6764,
      "replied": 6765,
      "ential": 6766,
      "superbowl": 6767,
      "shaped": 6768,
      "malicious": 6769,
      "complex": 6770,
      "valve": 6771,
      "accid": 6772,
      "accused": 6773,
      "welfare": 6774,
      "barrel": 6775,
      "ski": 6776,
      "juicy": 6777,
      "responses": 6778,
      "responded": 6779,
      "launch": 6780,
      "conflict": 6781,
      "network": 6782,
      "simultane": 6783,
      "command": 6784,
      "passive": 6785,
      "anec": 6786,
      "messing": 6787,
      "bedroom": 6788,
      "pork": 6789,
      "closely": 6790,
      "eaten": 6791,
      "treats": 6792,
      "minecraft": 6793,
      "governments": 6794,
      "tues": 6795,
      "volun": 6796,
      "clicked": 6797,
      "penalty": 6798,
      "30s": 6799,
      "150": 6800,
      "sale": 6801,
      "scores": 6802,
      "hunt": 6803,
      "wings": 6804,
      "airport": 6805,
      "controlled": 6806,
      "fantas": 6807,
      "senate": 6808,
      "complaints": 6809,
      "claiming": 6810,
      "empire": 6811,
      "trashy": 6812,
      "furry": 6813,
      "bullying": 6814,
      "director": 6815,
      "castle": 6816,
      "producers": 6817,
      "failing": 6818,
      "bummer": 6819,
      "fascists": 6820,
      "democrat": 6821,
      "ethnic": 6822,
      "recommendation": 6823,
      "profession": 6824,
      "slide": 6825,
      "teenager": 6826,
      "bbies": 6827,
      "previously": 6828,
      "desperation": 6829,
      "representation": 6830,
      "scumbag": 6831,
      "jerseys": 6832,
      "atheist": 6833,
      "anticip": 6834,
      "machines": 6835,
      "promote": 6836,
      "survivor": 6837,
      "audio": 6838,
      "terminal": 6839,
      "feature": 6840,
      "journalist": 6841,
      "strategy": 6842,
      "jumping": 6843,
      "experiencing": 6844,
      "shouting": 6845,
      "essential": 6846,
      "global": 6847,
      "primary": 6848,
      "opponent": 6849,
      "suggestions": 6850,
      "manipulative": 6851,
      "controller": 6852,
      "strawman": 6853,
      "symptoms": 6854,
      "villain": 6855,
      "surrounded": 6856,
      "destroying": 6857,
      "trailer": 6858,
      "latter": 6859,
      "officially": 6860,
      "kudos": 6861,
      "complicated": 6862,
      "unicorn": 6863,
      "administration": 6864,
      "patriots": 6865,
      "computer": 6866,
      "november": 6867,
      "tragedy": 6868,
      "frightening": 6869,
      "incapable": 6870,
      "automatically": 6871,
      "enthusi": 6872,
      "february": 6873,
      "mafia": 6874,
      "immense": 6875,
      "*,": 6876,
      "28": 6877,
      "49": 6878,
      "6th": 6879,
      "89": 6880,
      "?”": 6881,
      "buck": 6882,
      "bones": 6883,
      "cave": 6884,
      "eight": 6885,
      "fought": 6886,
      "gage": 6887,
      "hm": 6888,
      "iac": 6889,
      "ique": 6890,
      "mt": 6891,
      "pin": 6892,
      "pine": 6893,
      "pies": 6894,
      "pump": 6895,
      "passes": 6896,
      "pills": 6897,
      "rb": 6898,
      "rank": 6899,
      "rural": 6900,
      "sane": 6901,
      "sample": 6902,
      "sketch": 6903,
      "tack": 6904,
      "tide": 6905,
      "vas": 6906,
      "wages": 6907,
      "ym": 6908,
      "ths": 6909,
      "invent": 6910,
      "rein": 6911,
      "reign": 6912,
      "rebound": 6913,
      "oul": 6914,
      "oured": 6915,
      "isol": 6916,
      "itals": 6917,
      "stain": 6918,
      "alo": 6919,
      "encount": 6920,
      "arrog": 6921,
      "vey": 6922,
      "sep": 6923,
      "nood": 6924,
      "amer": 6925,
      "escal": 6926,
      "whale": 6927,
      "forms": 6928,
      "roles": 6929,
      "admi": 6930,
      "hog": 6931,
      "wil": 6932,
      "geon": 6933,
      "abilities": 6934,
      "neo": 6935,
      "iry": 6936,
      "poke": 6937,
      "fees": 6938,
      "ifies": 6939,
      "opens": 6940,
      "whatabout": 6941,
      "shill": 6942,
      "shite": 6943,
      "cell": 6944,
      "donuts": 6945,
      "plug": 6946,
      "comfor": 6947,
      "ulate": 6948,
      "tasty": 6949,
      "tagged": 6950,
      "pros": 6951,
      "indian": 6952,
      "peoples": 6953,
      "artists": 6954,
      "bles": 6955,
      "ahhhh": 6956,
      "sav": 6957,
      "ohhhhh": 6958,
      "beings": 6959,
      "assass": 6960,
      "funded": 6961,
      "realizing": 6962,
      "misunderstood": 6963,
      "firing": 6964,
      "fries": 6965,
      "coup": 6966,
      "underwear": 6967,
      "applying": 6968,
      "waking": 6969,
      "mini": 6970,
      "answered": 6971,
      "branch": 6972,
      "damned": 6973,
      "correlation": 6974,
      "correction": 6975,
      "mindset": 6976,
      "mato": 6977,
      "tripping": 6978,
      "trilogy": 6979,
      "margin": 6980,
      "turk": 6981,
      "turno": 6982,
      "genet": 6983,
      "relations": 6984,
      "guessed": 6985,
      "trophy": 6986,
      "headed": 6987,
      "viet": 6988,
      "owning": 6989,
      "intern": 6990,
      "international": 6991,
      "sincerely": 6992,
      "cured": 6993,
      "cudd": 6994,
      "ggy": 6995,
      "eee": 6996,
      "bases": 6997,
      "twins": 6998,
      "compat": 6999,
      "fuel": 7000,
      "biology": 7001,
      "bipolar": 7002,
      "dumped": 7003,
      "questionable": 7004,
      "frequently": 7005,
      "excusable": 7006,
      "missions": 7007,
      "fancy": 7008,
      "bury": 7009,
      "prize": 7010,
      "breaker": 7011,
      "capable": 7012,
      "politically": 7013,
      "treas": 7014,
      "worded": 7015,
      "expans": 7016,
      "instru": 7017,
      "generate": 7018,
      "classy": 7019,
      "ialism": 7020,
      "strongly": 7021,
      "screwing": 7022,
      "hyped": 7023,
      "italian": 7024,
      "existing": 7025,
      "swed": 7026,
      "muscle": 7027,
      "socialists": 7028,
      "reflect": 7029,
      "orders": 7030,
      "ridiculously": 7031,
      "sticks": 7032,
      "smelling": 7033,
      "mentioning": 7034,
      "ordin": 7035,
      "ramp": 7036,
      "transit": 7037,
      "ativity": 7038,
      "presented": 7039,
      "grandmother": 7040,
      "hahahah": 7041,
      "distant": 7042,
      "temper": 7043,
      "ballo": 7044,
      "insanely": 7045,
      "bullied": 7046,
      "crossed": 7047,
      "wednes": 7048,
      "committed": 7049,
      "consin": 7050,
      "status": 7051,
      "brush": 7052,
      "vanity": 7053,
      "excuses": 7054,
      "slipper": 7055,
      "impression": 7056,
      "examples": 7057,
      "tradition": 7058,
      "threaten": 7059,
      "desperately": 7060,
      "developed": 7061,
      "particip": 7062,
      "witty": 7063,
      "receiver": 7064,
      "oregon": 7065,
      "alternatives": 7066,
      "informative": 7067,
      "streets": 7068,
      "projecting": 7069,
      "opportunities": 7070,
      "patients": 7071,
      "4567": 7072,
      "radio": 7073,
      "convention": 7074,
      "survival": 7075,
      "continues": 7076,
      "hiding": 7077,
      "oppression": 7078,
      "authoritarian": 7079,
      "⣿⣿⣿⣿": 7080,
      "journalists": 7081,
      "6543": 7082,
      "valuable": 7083,
      "grocer": 7084,
      "accomplish": 7085,
      "method": 7086,
      "dancing": 7087,
      "washington": 7088,
      "loyal": 7089,
      "⠛⠛⠛⠛": 7090,
      "measure": 7091,
      "execution": 7092,
      "route": 7093,
      "adopt": 7094,
      "sheltered": 7095,
      "occurred": 7096,
      "bourne": 7097,
      "snake": 7098,
      "taco": 7099,
      "predictable": 7100,
      "contradict": 7101,
      "permanent": 7102,
      "republicans": 7103,
      "syria": 7104,
      "inevitable": 7105,
      "flames": 7106,
      "differences": 7107,
      "orient": 7108,
      "exercise": 7109,
      "library": 7110,
      "devastating": 7111,
      "millennials": 7112,
      "esteem": 7113,
      "john": 7114,
      "anecdo": 7115,
      "encountered": 7116,
      "whataboutism": 7117,
      "wednesday": 7118,
      "slippery": 7119,
      "!)": 7120,
      "250": 7121,
      "42": 7122,
      "47": 7123,
      "::": 7124,
      "aoc": 7125,
      "bass": 7126,
      "blog": 7127,
      "cuck": 7128,
      "dx": 7129,
      "ddle": 7130,
      "dney": 7131,
      "eve": 7132,
      "fif": 7133,
      "gt": 7134,
      "knight": 7135,
      "lur": 7136,
      "lag": 7137,
      "lists": 7138,
      "m8": 7139,
      "mbe": 7140,
      "mult": 7141,
      "nical": 7142,
      "oven": 7143,
      "sack": 7144,
      "tad": 7145,
      "tab": 7146,
      "tick": 7147,
      "uf": 7148,
      "vr": 7149,
      "vin": 7150,
      "vul": 7151,
      "wha": 7152,
      "ware": 7153,
      "witch": 7154,
      "wrap": 7155,
      "wreck": 7156,
      "ypse": 7157,
      "thir": 7158,
      "thru": 7159,
      "inning": 7160,
      "inner": 7161,
      "inconsistent": 7162,
      "inherent": 7163,
      "recre": 7164,
      "reverse": 7165,
      "rewind": 7166,
      "theater": 7167,
      "stoked": 7168,
      "beats": 7169,
      "height": 7170,
      "severe": 7171,
      "soo": 7172,
      "loo": 7173,
      "lowest": 7174,
      "whiny": 7175,
      "lica": 7176,
      "licking": 7177,
      "forth": 7178,
      "ica": 7179,
      "roof": 7180,
      "rocket": 7181,
      "weigh": 7182,
      "gop": 7183,
      "goose": 7184,
      "cowards": 7185,
      "coworkers": 7186,
      "tially": 7187,
      "tiest": 7188,
      "pean": 7189,
      "outfit": 7190,
      "unts": 7191,
      "unethical": 7192,
      "ril": 7193,
      "rily": 7194,
      "mock": 7195,
      "motor": 7196,
      "irts": 7197,
      "dem": 7198,
      "mam": 7199,
      "mavs": 7200,
      "aller": 7201,
      "amusing": 7202,
      "yeh": 7203,
      "ceiling": 7204,
      "worn": 7205,
      "concus": 7206,
      "consen": 7207,
      "confront": 7208,
      "...”": 7209,
      "uss": 7210,
      "plu": 7211,
      "guide": 7212,
      "perpe": 7213,
      "tains": 7214,
      "enda": 7215,
      "endless": 7216,
      "proceed": 7217,
      "timeline": 7218,
      "agra": 7219,
      "agency": 7220,
      "agenda": 7221,
      "lookin": 7222,
      "wore": 7223,
      "quir": 7224,
      "happiest": 7225,
      "items": 7226,
      "offend": 7227,
      "offers": 7228,
      "backing": 7229,
      "joined": 7230,
      "assign": 7231,
      "cheer": 7232,
      "overly": 7233,
      "wherever": 7234,
      "angle": 7235,
      "spelled": 7236,
      "divid": 7237,
      "shove": 7238,
      "partly": 7239,
      "mond": 7240,
      "blr": 7241,
      "blah": 7242,
      "blade": 7243,
      "kindly": 7244,
      "lasted": 7245,
      "stepped": 7246,
      ":).": 7247,
      "nicely": 7248,
      "hateful": 7249,
      "insist": 7250,
      "remembe": 7251,
      "creating": 7252,
      "queens": 7253,
      "20s": 7254,
      "2010": 7255,
      "object": 7256,
      "calypse": 7257,
      "legends": 7258,
      "****": 7259,
      "bitcoin": 7260,
      "highschool": 7261,
      "saddest": 7262,
      "iped": 7263,
      "horny": 7264,
      "heading": 7265,
      "choked": 7266,
      "handling": 7267,
      "parking": 7268,
      "childish": 7269,
      "10k": 7270,
      "payment": 7271,
      "homeless": 7272,
      "colon": 7273,
      "sydney": 7274,
      "dumbest": 7275,
      "shake": 7276,
      "shade": 7277,
      "sett": 7278,
      "settle": 7279,
      "laughs": 7280,
      "sentences": 7281,
      "?!\"": 7282,
      "barri": 7283,
      "rica": 7284,
      "banning": 7285,
      "earn": 7286,
      "mming": 7287,
      "cripp": 7288,
      "recipe": 7289,
      "paint": 7290,
      "fights": 7291,
      "racial": 7292,
      "doub": 7293,
      "visual": 7294,
      "caption": 7295,
      "captain": 7296,
      "openly": 7297,
      "expense": 7298,
      "lands": 7299,
      "2014": 7300,
      "household": 7301,
      "spots": 7302,
      "^^^^^": 7303,
      "profound": 7304,
      "profits": 7305,
      "haircut": 7306,
      "figures": 7307,
      "dairy": 7308,
      "apocalypse": 7309,
      "pissing": 7310,
      "scoo": 7311,
      "refusing": 7312,
      "motherfucking": 7313,
      "depending": 7314,
      "concert": 7315,
      "eeeee": 7316,
      "ordinary": 7317,
      "transfer": 7318,
      "shipping": 7319,
      "walls": 7320,
      "flood": 7321,
      "supports": 7322,
      "balanced": 7323,
      "trained": 7324,
      "grave": 7325,
      "iii": 7326,
      "speaker": 7327,
      "publicly": 7328,
      "larger": 7329,
      "production": 7330,
      "discussing": 7331,
      "amounts": 7332,
      "boost": 7333,
      "preferred": 7334,
      "ranch": 7335,
      "agrees": 7336,
      "protected": 7337,
      "custom": 7338,
      "admitting": 7339,
      "delivery": 7340,
      "studies": 7341,
      "frustrated": 7342,
      "capitalists": 7343,
      "despise": 7344,
      "touching": 7345,
      "weaker": 7346,
      "seafood": 7347,
      "billions": 7348,
      "banging": 7349,
      "dodgers": 7350,
      "fella": 7351,
      "responsibility": 7352,
      "criticize": 7353,
      "prepare": 7354,
      "micro": 7355,
      "browns": 7356,
      "hideous": 7357,
      "alternate": 7358,
      "consistency": 7359,
      "clueless": 7360,
      "graphics": 7361,
      "announce": 7362,
      "convince": 7363,
      "connection": 7364,
      "chips": 7365,
      "continuing": 7366,
      "demonstrate": 7367,
      "communicate": 7368,
      "immigration": 7369,
      "contributing": 7370,
      "sloppy": 7371,
      "reckless": 7372,
      "smashed": 7373,
      "rumors": 7374,
      "metallica": 7375,
      "legendary": 7376,
      "horrific": 7377,
      "surprisingly": 7378,
      "guarantee": 7379,
      "outrageous": 7380,
      "various": 7381,
      "retirement": 7382,
      "organs": 7383,
      "intelligent": 7384,
      "decline": 7385,
      "register": 7386,
      "dlc": 7387,
      "00000000000000000000000000000000": 7388,
      "contradic": 7389,
      "tumblr": 7390,
      "scoring": 7391,
      "sneaky": 7392,
      "hundreds": 7393,
      "bombs": 7394,
      "wolves": 7395,
      "refreshing": 7396,
      "hulu": 7397,
      "december": 7398,
      "nauseous": 7399,
      "fragile": 7400,
      "gillette": 7401,
      "phase": 7402,
      "territory": 7403,
      "simultaneously": 7404,
      "tuesday": 7405,
      "comforting": 7406,
      "recreational": 7407,
      "remembered": 7408,
      "\"*": 7409,
      "'(": 7410,
      "))": 7411,
      "3d": 7412,
      "69": 7413,
      "bch": 7414,
      "cab": 7415,
      "cure": 7416,
      "ea": 7417,
      "hp": 7418,
      "jun": 7419,
      "kr": 7420,
      "lb": 7421,
      "lg": 7422,
      "lis": 7423,
      "len": 7424,
      "lust": 7425,
      "mme": 7426,
      "mich": 7427,
      "nis": 7428,
      "nib": 7429,
      "oce": 7430,
      "pour": 7431,
      "pap": 7432,
      "pile": 7433,
      "rting": 7434,
      "rats": 7435,
      "snor": 7436,
      "sni": 7437,
      "tends": 7438,
      "ues": 7439,
      "uro": 7440,
      "vast": 7441,
      "wand": 7442,
      "wicked": 7443,
      "xx": 7444,
      "xing": 7445,
      "zion": 7446,
      "⣀⣀": 7447,
      "️‍": 7448,
      "infin": 7449,
      "inction": 7450,
      "inaccurate": 7451,
      "removing": 7452,
      "anity": 7453,
      "anni": 7454,
      "anthro": 7455,
      "atl": 7456,
      "melo": 7457,
      "stunt": 7458,
      "orgas": 7459,
      "toys": 7460,
      "alab": 7461,
      "youve": 7462,
      "lee": 7463,
      "beans": 7464,
      "arti": 7465,
      "arian": 7466,
      "vet": 7467,
      "noon": 7468,
      "sob": 7469,
      "soy": 7470,
      "sored": 7471,
      "sober": 7472,
      "hay": 7473,
      "nament": 7474,
      "whine": 7475,
      "lia": 7476,
      "lible": 7477,
      "liament": 7478,
      "limits": 7479,
      "forgiven": 7480,
      "forums": 7481,
      "acknowledge": 7482,
      "adore": 7483,
      "goti": 7484,
      "wives": 7485,
      "costu": 7486,
      "coward": 7487,
      "unhappy": 7488,
      "unreasonable": 7489,
      "ribut": 7490,
      "myth": 7491,
      "sued": 7492,
      "negoti": 7493,
      "fection": 7494,
      "deals": 7495,
      "device": 7496,
      "deliber": 7497,
      "defeat": 7498,
      "iff": 7499,
      "opti": 7500,
      "canon": 7501,
      "teens": 7502,
      "worship": 7503,
      "conce": 7504,
      "contest": 7505,
      "concentr": 7506,
      "anta": 7507,
      "expo": 7508,
      "rapt": 7509,
      "raged": 7510,
      "boiled": 7511,
      "agents": 7512,
      "mans": 7513,
      "ousing": 7514,
      "cted": 7515,
      "typing": 7516,
      "igan": 7517,
      "ders": 7518,
      "scroll": 7519,
      "scape": 7520,
      "mud": 7521,
      "umped": 7522,
      "spaper": 7523,
      "spicy": 7524,
      "africa": 7525,
      "april": 7526,
      "literal": 7527,
      "newspaper": 7528,
      "disgrace": 7529,
      "cient": 7530,
      "civili": 7531,
      "hopeful": 7532,
      "intp": 7533,
      "clou": 7534,
      "clone": 7535,
      "tales": 7536,
      "hahah": 7537,
      "naw": 7538,
      "awake": 7539,
      "afternoon": 7540,
      "kidna": 7541,
      "applied": 7542,
      "bros": 7543,
      "desire": 7544,
      "lottery": 7545,
      "crust": 7546,
      "phen": 7547,
      "steak": 7548,
      "flaw": 7549,
      "20k": 7550,
      "counts": 7551,
      "bitter": 7552,
      "highway": 7553,
      "morals": 7554,
      "studio": 7555,
      "redditors": 7556,
      "parliament": 7557,
      "frau": 7558,
      "internal": 7559,
      "cubs": 7560,
      "giants": 7561,
      "ggle": 7562,
      "repulsive": 7563,
      "lighter": 7564,
      "lighting": 7565,
      "nerves": 7566,
      "images": 7567,
      "clearing": 7568,
      "blocking": 7569,
      "skate": 7570,
      "juul": 7571,
      "earned": 7572,
      "laz": 7573,
      "label": 7574,
      "attend": 7575,
      "incident": 7576,
      "religions": 7577,
      "breakfast": 7578,
      "ubby": 7579,
      "heartbreaking": 7580,
      "simpl": 7581,
      "cycling": 7582,
      "visa": 7583,
      "anese": 7584,
      "portray": 7585,
      "treating": 7586,
      "expired": 7587,
      "halfway": 7588,
      "linking": 7589,
      "installed": 7590,
      "resses": 7591,
      "fallen": 7592,
      "foods": 7593,
      "buddies": 7594,
      "ysis": 7595,
      "communities": 7596,
      "forgotten": 7597,
      "avat": 7598,
      "clothing": 7599,
      "jerking": 7600,
      "lected": 7601,
      "respects": 7602,
      "garlic": 7603,
      "delusion": 7604,
      "scenari": 7605,
      "ontario": 7606,
      "allowing": 7607,
      "brainwashing": 7608,
      "concerning": 7609,
      "rings": 7610,
      "shortly": 7611,
      "murde": 7612,
      "siblings": 7613,
      "hhhhhh": 7614,
      "complaint": 7615,
      "2005": 7616,
      "constitution": 7617,
      "doubtful": 7618,
      "grandparents": 7619,
      "flirting": 7620,
      "snu": 7621,
      "annoy": 7622,
      "psychi": 7623,
      "ticket": 7624,
      "supporter": 7625,
      "confirms": 7626,
      "royal": 7627,
      "equality": 7628,
      "punishing": 7629,
      "speaks": 7630,
      "sisters": 7631,
      "lacks": 7632,
      "kicks": 7633,
      "roller": 7634,
      "hatred": 7635,
      "vaccine": 7636,
      "engaged": 7637,
      "embarrassment": 7638,
      "compete": 7639,
      "tradit": 7640,
      "description": 7641,
      "migra": 7642,
      "papers": 7643,
      "performing": 7644,
      "longest": 7645,
      "tribute": 7646,
      "tanks": 7647,
      ":-/": 7648,
      "ssssssss": 7649,
      "woods": 7650,
      "digging": 7651,
      "carrying": 7652,
      "addicted": 7653,
      "addictive": 7654,
      "confirmation": 7655,
      "streaming": 7656,
      "conditions": 7657,
      "sneeze": 7658,
      "distraction": 7659,
      "?!?!?": 7660,
      "detailed": 7661,
      "secretly": 7662,
      "repeated": 7663,
      "wisdom": 7664,
      "programs": 7665,
      "addressed": 7666,
      "masterpiece": 7667,
      "bacon": 7668,
      "libertarians": 7669,
      "spreading": 7670,
      "fouls": 7671,
      "misery": 7672,
      "values": 7673,
      "polite": 7674,
      "throat": 7675,
      "providing": 7676,
      "japanese": 7677,
      "conveniently": 7678,
      "profitable": 7679,
      "comprehend": 7680,
      "alien": 7681,
      "robber": 7682,
      "disrespectful": 7683,
      "ivity": 7684,
      "announced": 7685,
      "bigoted": 7686,
      "houston": 7687,
      "buzzfeed": 7688,
      "dentist": 7689,
      "kinky": 7690,
      "fabric": 7691,
      "inspiration": 7692,
      "broadcast": 7693,
      "eternity": 7694,
      "insert": 7695,
      "advocating": 7696,
      "instinct": 7697,
      "intellectual": 7698,
      "vaxxers": 7699,
      "pronoun": 7700,
      "eastern": 7701,
      "wikiped": 7702,
      "resource": 7703,
      "destruction": 7704,
      "employment": 7705,
      "misogynistic": 7706,
      "discrimination": 7707,
      "turtles": 7708,
      "cultural": 7709,
      "cigarettes": 7710,
      "princi": 7711,
      "duty": 7712,
      "tampa": 7713,
      "intrigued": 7714,
      "controversial": 7715,
      "jelly": 7716,
      "inferior": 7717,
      "technology": 7718,
      "gawd": 7719,
      "directions": 7720,
      "hormones": 7721,
      "volunte": 7722,
      "professionals": 7723,
      "michigan": 7724,
      "snorting": 7725,
      "alabama": 7726,
      "artifact": 7727,
      "scenarios": 7728,
      "psychiat": 7729,
      "wikipedia": 7730,
      "72": 7731,
      "76": 7732,
      ":|": 7733,
      ";-": 7734,
      "]*": 7735,
      "aquar": 7736,
      "baked": 7737,
      "cine": 7738,
      "cnn": 7739,
      "db": 7740,
      "dur": 7741,
      "dwell": 7742,
      "ec": 7743,
      "fts": 7744,
      "faction": 7745,
      "gam": 7746,
      "gim": 7747,
      "glit": 7748,
      "glow": 7749,
      "hut": 7750,
      "hint": 7751,
      "ika": 7752,
      "jj": 7753,
      "jk": 7754,
      "juni": 7755,
      "ki": 7756,
      "kfc": 7757,
      "mall": 7758,
      "mps": 7759,
      "mls": 7760,
      "ole": 7761,
      "phe": 7762,
      "rick": 7763,
      "tch": 7764,
      "ull": 7765,
      "uhh": 7766,
      "wre": 7767,
      "wink": 7768,
      "yt": 7769,
      "yrs": 7770,
      "”,": 7771,
      "💜💜": 7772,
      "thie": 7773,
      "ints": 7774,
      "inations": 7775,
      "renew": 7776,
      "resign": 7777,
      "recover": 7778,
      "resolved": 7779,
      "thed": 7780,
      "theless": 7781,
      "ongest": 7782,
      "medit": 7783,
      "isis": 7784,
      "ister": 7785,
      "ingen": 7786,
      "itll": 7787,
      "sti": 7788,
      "stable": 7789,
      "tomato": 7790,
      "encies": 7791,
      "aswell": 7792,
      "ashes": 7793,
      "asshat": 7794,
      "asexual": 7795,
      "begg": 7796,
      "behalf": 7797,
      "noob": 7798,
      "soap": 7799,
      "hail": 7800,
      "haired": 7801,
      "lob": 7802,
      "whist": 7803,
      "lib": 7804,
      "lift": 7805,
      "forum": 7806,
      "forts": 7807,
      "formed": 7808,
      "forces": 7809,
      "acity": 7810,
      "accep": 7811,
      "ada": 7812,
      "gov": 7813,
      "wipe": 7814,
      "areas": 7815,
      "coworker": 7816,
      "tied": 7817,
      "tipped": 7818,
      "peach": 7819,
      "unh": 7820,
      "unit": 7821,
      "unreal": 7822,
      "unbelievable": 7823,
      "mos": 7824,
      "superi": 7825,
      "pops": 7826,
      "pocket": 7827,
      "feas": 7828,
      "depre": 7829,
      "withdraw": 7830,
      "theyre": 7831,
      "opt": 7832,
      "someday": 7833,
      "amps": 7834,
      "odds": 7835,
      "trag": 7836,
      "trucks": 7837,
      "updates": 7838,
      "...\"": 7839,
      "commen": 7840,
      "comfy": 7841,
      "ula": 7842,
      "uling": 7843,
      "ultra": 7844,
      "ulator": 7845,
      "thankful": 7846,
      "permit": 7847,
      "tap": 7848,
      "props": 7849,
      "astound": 7850,
      "prem": 7851,
      "preach": 7852,
      "premise": 7853,
      "bore": 7854,
      "bois": 7855,
      "istically": 7856,
      "igma": 7857,
      "happily": 7858,
      "playthrough": 7859,
      "spare": 7860,
      "needing": 7861,
      "affi": 7862,
      "backed": 7863,
      "priced": 7864,
      "overwatch": 7865,
      "realistically": 7866,
      "downhill": 7867,
      "misses": 7868,
      "ruins": 7869,
      "clapping": 7870,
      "thoughtful": 7871,
      "couch": 7872,
      "buf": 7873,
      "naked": 7874,
      "award": 7875,
      "diarr": 7876,
      "hibit": 7877,
      "shook": 7878,
      "monkeys": 7879,
      "blon": 7880,
      "brook": 7881,
      "beforehand": 7882,
      "surreal": 7883,
      "gladly": 7884,
      "irline": 7885,
      "interests": 7886,
      "marvel": 7887,
      "creates": 7888,
      "creator": 7889,
      "breast": 7890,
      "relap": 7891,
      "smal": 7892,
      "countless": 7893,
      "**.": 7894,
      "trol": 7895,
      "strict": 7896,
      "magn": 7897,
      "choke": 7898,
      "parody": 7899,
      "paragra": 7900,
      "ggin": 7901,
      "throughout": 7902,
      "factors": 7903,
      "101": 7904,
      "aaand": 7905,
      "repent": 7906,
      "implic": 7907,
      "versary": 7908,
      "suckers": 7909,
      "lightning": 7910,
      "synon": 7911,
      "sham": 7912,
      "shaming": 7913,
      "defender": 7914,
      "questioning": 7915,
      "oooooo": 7916,
      "valley": 7917,
      "athlet": 7918,
      "banks": 7919,
      "burgl": 7920,
      "cries": 7921,
      "beautifully": 7922,
      "breakup": 7923,
      "painted": 7924,
      "cynical": 7925,
      "capture": 7926,
      "roommate": 7927,
      "generations": 7928,
      "denver": 7929,
      "denying": 7930,
      "trait": 7931,
      "btc": 7932,
      "momentum": 7933,
      "importance": 7934,
      "medium": 7935,
      "reflection": 7936,
      "vicious": 7937,
      "ordering": 7938,
      "writers": 7939,
      "disgusted": 7940,
      "ogra": 7941,
      "nipp": 7942,
      "sticky": 7943,
      "dreaming": 7944,
      "bake": 7945,
      "transition": 7946,
      "sunset": 7947,
      "axe": 7948,
      "2003": 7949,
      "binged": 7950,
      "criteria": 7951,
      "flop": 7952,
      "systems": 7953,
      "publicity": 7954,
      "smiles": 7955,
      "includes": 7956,
      "cleaning": 7957,
      "packers": 7958,
      "reactions": 7959,
      "practicing": 7960,
      "deliver": 7961,
      "boxing": 7962,
      "fathers": 7963,
      "decides": 7964,
      "supposedly": 7965,
      "wheel": 7966,
      "moderate": 7967,
      "credibility": 7968,
      "slightest": 7969,
      "teenage": 7970,
      "teenagers": 7971,
      "chronic": 7972,
      "colorado": 7973,
      "invited": 7974,
      "rapid": 7975,
      "saurus": 7976,
      "bangs": 7977,
      "witnesses": 7978,
      "largely": 7979,
      "centrists": 7980,
      "stressful": 7981,
      "dressing": 7982,
      "punching": 7983,
      "greek": 7984,
      "combination": 7985,
      "continued": 7986,
      "copyright": 7987,
      "wisconsin": 7988,
      "hypocritical": 7989,
      "oppressed": 7990,
      "satisfaction": 7991,
      "memorable": 7992,
      "identifying": 7993,
      "6565": 7994,
      "reckon": 7995,
      "anarchy": 7996,
      "struggles": 7997,
      "tournament": 7998,
      "solely": 7999,
      "laptop": 8000,
      "mildly": 8001,
      "ormous": 8002,
      "flashbacks": 8003,
      "dumpster": 8004,
      "teleport": 8005,
      "shockingly": 8006,
      "aliens": 8007,
      "approaching": 8008,
      "economics": 8009,
      "lifting": 8010,
      "registered": 8011,
      "adopted": 8012,
      "effectively": 8013,
      "tacos": 8014,
      "grinding": 8015,
      "symptom": 8016,
      "melbourne": 8017,
      "irritating": 8018,
      "effici": 8019,
      "efficient": 8020,
      "fundament": 8021,
      "steelers": 8022,
      "louis": 8023,
      "establishment": 8024,
      "achieve": 8025,
      "stadium": 8026,
      "mortgage": 8027,
      "embrace": 8028,
      "elder": 8029,
      "greedy": 8030,
      "warriors": 8031,
      "pirate": 8032,
      "itutional": 8033,
      "celtic": 8034,
      "prescription": 8035,
      "relatively": 8036,
      "scientists": 8037,
      "sustainable": 8038,
      "neutral": 8039,
      "chemical": 8040,
      "assaulted": 8041,
      "atrocious": 8042,
      "dysfunction": 8043,
      "colonialism": 8044,
      "clouds": 8045,
      "superior": 8046,
      "tragic": 8047,
      "paragraph": 8048,
      ".'": 8049,
      "37": 8050,
      "41": 8051,
      "44": 8052,
      ":'(": 8053,
      "]'": 8054,
      "]”": 8055,
      "]....": 8056,
      "aven": 8057,
      "binary": 8058,
      "bounce": 8059,
      "cw": 8060,
      "cx": 8061,
      "dv": 8062,
      "dna": 8063,
      "dak": 8064,
      "ducks": 8065,
      "ema": 8066,
      "fp": 8067,
      "fence": 8068,
      "gment": 8069,
      "hc": 8070,
      "hart": 8071,
      "ike": 8072,
      "kn": 8073,
      "kay": 8074,
      "lac": 8075,
      "lam": 8076,
      "mk": 8077,
      "nye": 8078,
      "ored": 8079,
      "p3": 8080,
      "pam": 8081,
      "paw": 8082,
      "pens": 8083,
      "qcx": 8084,
      "ras": 8085,
      "rof": 8086,
      "rist": 8087,
      "sj": 8088,
      "smar": 8089,
      "shaving": 8090,
      "tx": 8091,
      "ued": 8092,
      "uuck": 8093,
      "vap": 8094,
      "virt": 8095,
      "wack": 8096,
      "xan": 8097,
      "yuck": 8098,
      "yah": 8099,
      "⣤⣤": 8100,
      "thi": 8101,
      "invisible": 8102,
      "incompat": 8103,
      "inexcusable": 8104,
      "rede": 8105,
      "remake": 8106,
      "recording": 8107,
      "the_": 8108,
      "mega": 8109,
      "melon": 8110,
      "metery": 8111,
      "itly": 8112,
      "itute": 8113,
      "itches": 8114,
      "stare": 8115,
      "sticking": 8116,
      "orleans": 8117,
      "toe": 8118,
      "tobac": 8119,
      "alert": 8120,
      "alpha": 8121,
      "enal": 8122,
      "enlight": 8123,
      "leth": 8124,
      "edly": 8125,
      "bese": 8126,
      "begging": 8127,
      "arbit": 8128,
      "veter": 8129,
      "vegg": 8130,
      "heels": 8131,
      "seed": 8132,
      "semitism": 8133,
      "notific": 8134,
      "sover": 8135,
      "haaaa": 8136,
      "hairline": 8137,
      "esp": 8138,
      "lical": 8139,
      "kees": 8140,
      "fork": 8141,
      "forbid": 8142,
      "icial": 8143,
      "advent": 8144,
      "goblin": 8145,
      "homa": 8146,
      "hobbies": 8147,
      "verbal": 8148,
      "cope": 8149,
      "covers": 8150,
      "coordin": 8151,
      "geor": 8152,
      "tives": 8153,
      "peg": 8154,
      "pepper": 8155,
      "unrelated": 8156,
      "unnecessary": 8157,
      "uninformed": 8158,
      "noted": 8159,
      "neuro": 8160,
      "ira": 8161,
      "irish": 8162,
      "pole": 8163,
      "degre": 8164,
      "decre": 8165,
      "default": 8166,
      "withdra": 8167,
      "maker": 8168,
      "opposed": 8169,
      "tearing": 8170,
      "shing": 8171,
      "shining": 8172,
      "cemetery": 8173,
      "conference": 8174,
      "antise": 8175,
      "usions": 8176,
      "gum": 8177,
      "gues": 8178,
      "guitar": 8179,
      "perth": 8180,
      "proving": 8181,
      "eline": 8182,
      "boards": 8183,
      "illi": 8184,
      "ndum": 8185,
      "redi": 8186,
      "wooo": 8187,
      "hash": 8188,
      "scrolling": 8189,
      "scrub": 8190,
      "ohhhh": 8191,
      "ept": 8192,
      "fatho": 8193,
      "spends": 8194,
      "spring": 8195,
      "spurs": 8196,
      "offering": 8197,
      "joint": 8198,
      "posters": 8199,
      "sorrow": 8200,
      "sorted": 8201,
      "actured": 8202,
      "fulfill": 8203,
      "chees": 8204,
      "gras": 8205,
      "mayo": 8206,
      "meanwhile": 8207,
      "greatly": 8208,
      "clin": 8209,
      "clam": 8210,
      "dull": 8211,
      "glue": 8212,
      "helmet": 8213,
      "yesssss": 8214,
      "tali": 8215,
      "naz": 8216,
      "forehead": 8217,
      "anged": 8218,
      "oming": 8219,
      "shops": 8220,
      "dammit": 8221,
      "blur": 8222,
      "damning": 8223,
      "shitposts": 8224,
      "shitposting": 8225,
      "pharma": 8226,
      "believed": 8227,
      "diff": 8228,
      "smith": 8229,
      "singer": 8230,
      "counting": 8231,
      "strongest": 8232,
      "magical": 8233,
      "horrend": 8234,
      "merrily": 8235,
      "redditor": 8236,
      "sexism": 8237,
      "jeans": 8238,
      "vial": 8239,
      "mustache": 8240,
      "twat": 8241,
      "arsenal": 8242,
      "nerf": 8243,
      "nerfed": 8244,
      "drafting": 8245,
      "shaking": 8246,
      "senses": 8247,
      "valent": 8248,
      "accuse": 8249,
      "skull": 8250,
      "july": 8251,
      "listed": 8252,
      "confess": 8253,
      "drum": 8254,
      "guest": 8255,
      "rides": 8256,
      "hearts": 8257,
      "chains": 8258,
      "shotgun": 8259,
      "capit": 8260,
      "capacity": 8261,
      "politician": 8262,
      "yawn": 8263,
      "lando": 8264,
      "2011": 8265,
      "arguably": 8266,
      "install": 8267,
      "drown": 8268,
      "drool": 8269,
      "archy": 8270,
      "holds": 8271,
      "testing": 8272,
      "tured": 8273,
      "midnight": 8274,
      "harry": 8275,
      "cliff": 8276,
      "closing": 8277,
      "sales": 8278,
      "refused": 8279,
      "purchase": 8280,
      "1200": 8281,
      "nike": 8282,
      "natty": 8283,
      "slave": 8284,
      "demographic": 8285,
      "sunny": 8286,
      "snack": 8287,
      "annoys": 8288,
      "distress": 8289,
      "referendum": 8290,
      "summary": 8291,
      "punk": 8292,
      "searching": 8293,
      "soccer": 8294,
      "avoided": 8295,
      "produce": 8296,
      "scienti": 8297,
      "pathize": 8298,
      "bumper": 8299,
      "council": 8300,
      "lacking": 8301,
      "package": 8302,
      "chicks": 8303,
      "practices": 8304,
      "satan": 8305,
      "committing": 8306,
      "potter": 8307,
      "randomly": 8308,
      "squir": 8309,
      "drafted": 8310,
      "aire": 8311,
      "nonetheless": 8312,
      "strip": 8313,
      "contracts": 8314,
      "willingly": 8315,
      "bbc": 8316,
      "texts": 8317,
      "touched": 8318,
      "threatened": 8319,
      "bearable": 8320,
      "represents": 8321,
      "cooked": 8322,
      "dodge": 8323,
      "beneficial": 8324,
      "knocked": 8325,
      "digital": 8326,
      "activities": 8327,
      "massively": 8328,
      "documented": 8329,
      "laying": 8330,
      "attempted": 8331,
      "quarters": 8332,
      "70s": 8333,
      "detail": 8334,
      "flags": 8335,
      "survived": 8336,
      "clarifying": 8337,
      "candy": 8338,
      "initial": 8339,
      "demonize": 8340,
      "⠀⠀⠀⠀⠀": 8341,
      "losers": 8342,
      "features": 8343,
      "challenging": 8344,
      "swimming": 8345,
      "qualify": 8346,
      "caliber": 8347,
      "rainbow": 8348,
      "bacter": 8349,
      "udder": 8350,
      "australian": 8351,
      "virginity": 8352,
      "increased": 8353,
      "ungle": 8354,
      "indication": 8355,
      "jumped": 8356,
      "defensively": 8357,
      "bottles": 8358,
      "industrial": 8359,
      "😭😭😭😭": 8360,
      "cigar": 8361,
      "broncos": 8362,
      "loyalty": 8363,
      "cousins": 8364,
      "arrive": 8365,
      "leadership": 8366,
      "tattoos": 8367,
      "darn": 8368,
      "suspicious": 8369,
      "competence": 8370,
      "bisexual": 8371,
      "hipster": 8372,
      "graduated": 8373,
      "desktop": 8374,
      "destroys": 8375,
      "lords": 8376,
      "tasted": 8377,
      "focused": 8378,
      "syrian": 8379,
      "ptsd": 8380,
      "keeper": 8381,
      "yankees": 8382,
      "poetry": 8383,
      "reliable": 8384,
      "sharp": 8385,
      "vehicle": 8386,
      "vehicles": 8387,
      "coolest": 8388,
      "stereotype": 8389,
      "sabres": 8390,
      "footage": 8391,
      "interpretation": 8392,
      "prostitution": 8393,
      "appointment": 8394,
      "excessive": 8395,
      "zombie": 8396,
      "determined": 8397,
      "intolerant": 8398,
      "encouraging": 8399,
      "woooosh": 8400,
      "suburbs": 8401,
      "diabet": 8402,
      "friday": 8403,
      "scottish": 8404,
      "piercings": 8405,
      "blizz": 8406,
      "rehab": 8407,
      "homie": 8408,
      "accidents": 8409,
      "arrogant": 8410,
      "dxm": 8411,
      "vulner": 8412,
      "innings": 8413,
      "allergic": 8414,
      "orgasm": 8415,
      "ribution": 8416,
      "deliberately": 8417,
      "feasible": 8418,
      "affili": 8419,
      "magnific": 8420,
      "synonym": 8421,
      "ography": 8422,
      "xanax": 8423,
      "degrees": 8424,
      "fathom": 8425,
      "horrendous": 8426,
      "\"...": 8427,
      "):": 8428,
      ")?": 8429,
      ".**": 8430,
      "4k": 8431,
      "66": 8432,
      ">\"": 8433,
      "aired": 8434,
      "ahah": 8435,
      "ahem": 8436,
      "bin": 8437,
      "bred": 8438,
      "baff": 8439,
      "cci": 8440,
      "cage": 8441,
      "dj": 8442,
      "dre": 8443,
      "dive": 8444,
      "dice": 8445,
      "dank": 8446,
      "ether": 8447,
      "eacho": 8448,
      "fate": 8449,
      "fist": 8450,
      "fty": 8451,
      "fps": 8452,
      "fond": 8453,
      "gp": 8454,
      "gloves": 8455,
      "ials": 8456,
      "jv": 8457,
      "kab": 8458,
      "kins": 8459,
      "kicking": 8460,
      "lining": 8461,
      "mw": 8462,
      "mour": 8463,
      "nar": 8464,
      "nations": 8465,
      "niest": 8466,
      "ota": 8467,
      "owo": 8468,
      "oils": 8469,
      "pk": 8470,
      "pian": 8471,
      "pages": 8472,
      "rhe": 8473,
      "rice": 8474,
      "tis": 8475,
      "tld": 8476,
      "tang": 8477,
      "twel": 8478,
      "wwe": 8479,
      "zos": 8480,
      "😎😎": 8481,
      "rek": 8482,
      "reposted": 8483,
      "republic": 8484,
      "retired": 8485,
      "rebel": 8486,
      "reaper": 8487,
      "resolution": 8488,
      "ancient": 8489,
      "meter": 8490,
      "metro": 8491,
      "melt": 8492,
      "isms": 8493,
      "stair": 8494,
      "orial": 8495,
      "orney": 8496,
      "orlando": 8497,
      "tower": 8498,
      "entered": 8499,
      "enormous": 8500,
      "lement": 8501,
      "leaks": 8502,
      "edmon": 8503,
      "bei": 8504,
      "bean": 8505,
      "bees": 8506,
      "beli": 8507,
      "bever": 8508,
      "behave": 8509,
      "beef": 8510,
      "veg": 8511,
      "hesit": 8512,
      "seal": 8513,
      "seven": 8514,
      "secut": 8515,
      "sects": 8516,
      "noooo": 8517,
      "som": 8518,
      "sooooo": 8519,
      "soda": 8520,
      "haun": 8521,
      "hawa": 8522,
      "habits": 8523,
      "loans": 8524,
      "locks": 8525,
      "libt": 8526,
      "liability": 8527,
      "aco": 8528,
      "acies": 8529,
      "acade": 8530,
      "..?": 8531,
      "iders": 8532,
      "robe": 8533,
      "gore": 8534,
      "uting": 8535,
      "hobby": 8536,
      "wigg": 8537,
      "wizard": 8538,
      "dot": 8539,
      "doot": 8540,
      "dozen": 8541,
      "coy": 8542,
      "coaster": 8543,
      "changer": 8544,
      "chili": 8545,
      "chasing": 8546,
      "abusing": 8547,
      "pel": 8548,
      "pew": 8549,
      "outing": 8550,
      "unable": 8551,
      "unsure": 8552,
      "unemployed": 8553,
      "rix": 8554,
      "butts": 8555,
      "irre": 8556,
      "iring": 8557,
      "pow": 8558,
      "poking": 8559,
      "poker": 8560,
      "justified": 8561,
      "delive": 8562,
      "depic": 8563,
      "degenerate": 8564,
      "maid": 8565,
      "maje": 8566,
      "opposition": 8567,
      "opposing": 8568,
      "tee": 8569,
      "tember": 8570,
      "shirts": 8571,
      "ceases": 8572,
      "ppi": 8573,
      "conver": 8574,
      "convo": 8575,
      "concre": 8576,
      "concep": 8577,
      "antis": 8578,
      "...)": 8579,
      "usage": 8580,
      "plast": 8581,
      "plates": 8582,
      "gur": 8583,
      "gucci": 8584,
      "proved": 8585,
      "proportion": 8586,
      "rah": 8587,
      "raping": 8588,
      "indu": 8589,
      "indul": 8590,
      "prey": 8591,
      "mented": 8592,
      "istan": 8593,
      "romance": 8594,
      "mania": 8595,
      "manuf": 8596,
      "veness": 8597,
      "typed": 8598,
      "forest": 8599,
      "ques": 8600,
      "quoting": 8601,
      "spa": 8602,
      "spart": 8603,
      "spine": 8604,
      "spouse": 8605,
      "spark": 8606,
      "spray": 8607,
      "spiders": 8608,
      "needles": 8609,
      "shoulders": 8610,
      "nevermind": 8611,
      "thens": 8612,
      "comedi": 8613,
      "liter": 8614,
      "prank": 8615,
      "disco": 8616,
      "discover": 8617,
      "disingen": 8618,
      "].\"": 8619,
      "selfie": 8620,
      "chester": 8621,
      "funds": 8622,
      "funniest": 8623,
      "overlap": 8624,
      "misinformation": 8625,
      "voices": 8626,
      "fried": 8627,
      "subway": 8628,
      "glory": 8629,
      "letters": 8630,
      "underweight": 8631,
      "diam": 8632,
      "dialo": 8633,
      "kiddo": 8634,
      "hier": 8635,
      "shoe": 8636,
      "shopping": 8637,
      "shoots": 8638,
      "commented": 8639,
      "cracy": 8640,
      "phan": 8641,
      "pharm": 8642,
      "suring": 8643,
      "survey": 8644,
      "ffy": 8645,
      "fiance": 8646,
      "trivial": 8647,
      "otta": 8648,
      "marx": 8649,
      "mario": 8650,
      "obsc": 8651,
      "observ": 8652,
      "legals": 8653,
      "legacy": 8654,
      "defining": 8655,
      "morality": 8656,
      "pug": 8657,
      "carriage": 8658,
      "headache": 8659,
      "chosen": 8660,
      "empathetic": 8661,
      "solves": 8662,
      "agreement": 8663,
      "logically": 8664,
      "parap": 8665,
      "sided": 8666,
      "fron": 8667,
      "frick": 8668,
      "jet": 8669,
      "childfree": 8670,
      "curb": 8671,
      "vikings": 8672,
      "chargers": 8673,
      "laugha": 8674,
      "leftists": 8675,
      "baller": 8676,
      "basis": 8677,
      "northern": 8678,
      "compil": 8679,
      "cameras": 8680,
      "fuuu": 8681,
      "bigo": 8682,
      "dragging": 8683,
      "defence": 8684,
      "deflect": 8685,
      "pedest": 8686,
      "walks": 8687,
      "burden": 8688,
      "attorney": 8689,
      "brah": 8690,
      "incenti": 8691,
      "priest": 8692,
      "centre": 8693,
      "humane": 8694,
      "cleare": 8695,
      "chamber": 8696,
      "parenting": 8697,
      "commie": 8698,
      "experiment": 8699,
      "caps": 8700,
      "plank": 8701,
      "landlord": 8702,
      "governor": 8703,
      "drove": 8704,
      "destiny": 8705,
      "generic": 8706,
      "denom": 8707,
      "powerplay": 8708,
      "italy": 8709,
      "existent": 8710,
      "emoji": 8711,
      "filth": 8712,
      "tbf": 8713,
      "figuring": 8714,
      "soup": 8715,
      "musical": 8716,
      "muscles": 8717,
      "miami": 8718,
      "salad": 8719,
      "respecting": 8720,
      "respectful": 8721,
      "leaders": 8722,
      "disappear": 8723,
      "fixing": 8724,
      "censor": 8725,
      "mainly": 8726,
      "grows": 8727,
      "slash": 8728,
      "suns": 8729,
      "trusting": 8730,
      "constitutional": 8731,
      "photograph": 8732,
      "photoshop": 8733,
      "psych": 8734,
      "tempor": 8735,
      "silent": 8736,
      "silence": 8737,
      "coverage": 8738,
      "furnit": 8739,
      "confirming": 8740,
      "towns": 8741,
      "equate": 8742,
      "approval": 8743,
      "humili": 8744,
      "judges": 8745,
      "hangs": 8746,
      "loaded": 8747,
      "matching": 8748,
      "presidency": 8749,
      "appeal": 8750,
      "feedback": 8751,
      "practical": 8752,
      "basement": 8753,
      "commitment": 8754,
      "troubles": 8755,
      "aires": 8756,
      "bond": 8757,
      "receive": 8758,
      "accurately": 8759,
      "credible": 8760,
      "intentions": 8761,
      "grades": 8762,
      "designs": 8763,
      "tracking": 8764,
      "invas": 8765,
      "organized": 8766,
      "timacy": 8767,
      "explode": 8768,
      "gather": 8769,
      "tantrum": 8770,
      "folk": 8771,
      "nastics": 8772,
      "skyrim": 8773,
      "gaining": 8774,
      "restaurants": 8775,
      "reached": 8776,
      "debating": 8777,
      "grief": 8778,
      "analy": 8779,
      "analysis": 8780,
      "district": 8781,
      "punched": 8782,
      "promotion": 8783,
      "traveling": 8784,
      "motivate": 8785,
      "hahahahahaha": 8786,
      "dominant": 8787,
      "oppressive": 8788,
      "nurses": 8789,
      "operation": 8790,
      "ownership": 8791,
      "weirder": 8792,
      "contribute": 8793,
      "spamming": 8794,
      "rumor": 8795,
      "gymnastics": 8796,
      "electrical": 8797,
      "sweetest": 8798,
      "sweetie": 8799,
      "wealthy": 8800,
      "quietly": 8801,
      "comprehension": 8802,
      "placing": 8803,
      "toothpaste": 8804,
      "tuned": 8805,
      "development": 8806,
      "watches": 8807,
      "advertising": 8808,
      "declare": 8809,
      "spoiler": 8810,
      "scripted": 8811,
      "routine": 8812,
      "paranoia": 8813,
      "statistics": 8814,
      "consuming": 8815,
      "conclusions": 8816,
      "construction": 8817,
      "experts": 8818,
      "dragons": 8819,
      "candidates": 8820,
      "inspiring": 8821,
      "begins": 8822,
      "shooter": 8823,
      "browsing": 8824,
      "instincts": 8825,
      "endorse": 8826,
      "delayed": 8827,
      "festival": 8828,
      "bamboo": 8829,
      "traumat": 8830,
      "snowflake": 8831,
      "stabbed": 8832,
      "granted": 8833,
      "peeps": 8834,
      "pedophile": 8835,
      "thoroughly": 8836,
      "remarkably": 8837,
      "ethnicity": 8838,
      "enthusiasm": 8839,
      "september": 8840,
      "noodle": 8841,
      "marginal": 8842,
      "turnover": 8843,
      "treasure": 8844,
      "rampant": 8845,
      "orientation": 8846,
      "gtfo": 8847,
      "proceeds": 8848,
      "divided": 8849,
      "barriers": 8850,
      "papa": 8851,
      "costume": 8852,
      "optimism": 8853,
      "raptors": 8854,
      "avatar": 8855,
      "murderer": 8856,
      "traditional": 8857,
      "principle": 8858,
      "psychiatrist": 8859,
      "diarrhea": 8860,
      "dakota": 8861,
      "arbitr": 8862,
      "bacteria": 8863,
      "magnificent": 8864,
      "eachother": 8865,
      "twelve": 8866,
      "edmonton": 8867,
      "delivered": 8868,
      "disingenuous": 8869,
      "dialogue": 8870,
      "furniture": 8871,
      ".,": 8872,
      "05": 8873,
      "2am": 8874,
      "3k": 8875,
      "350": 8876,
      "75": 8877,
      "700": 8878,
      "81": 8879,
      "800": 8880,
      "97": 8881,
      "]..": 8882,
      "amy": 8883,
      "bp": 8884,
      "bare": 8885,
      "bility": 8886,
      "cad": 8887,
      "cree": 8888,
      "cating": 8889,
      "dim": 8890,
      "dil": 8891,
      "dess": 8892,
      "dms": 8893,
      "dens": 8894,
      "dirt": 8895,
      "echo": 8896,
      "eager": 8897,
      "fg": 8898,
      "factual": 8899,
      "fml": 8900,
      "gly": 8901,
      "gta": 8902,
      "housing": 8903,
      "jing": 8904,
      "kac": 8905,
      "karen": 8906,
      "knights": 8907,
      "ln": 8908,
      "lv": 8909,
      "lpt": 8910,
      "mma": 8911,
      "mice": 8912,
      "mrs": 8913,
      "nra": 8914,
      "nial": 8915,
      "naming": 8916,
      "npc": 8917,
      "oe": 8918,
      "oct": 8919,
      "obese": 8920,
      "ptions": 8921,
      "panti": 8922,
      "pinch": 8923,
      "rangers": 8924,
      "sd": 8925,
      "sse": 8926,
      "slist": 8927,
      "skept": 8928,
      "ssover": 8929,
      "tds": 8930,
      "twin": 8931,
      "tories": 8932,
      "uno": 8933,
      "uce": 8934,
      "uded": 8935,
      "ufc": 8936,
      "vard": 8937,
      "wes": 8938,
      "wagon": 8939,
      "yu": 8940,
      "’,": 8941,
      "🔥🔥": 8942,
      "😩😩": 8943,
      "🙏🙏": 8944,
      "inher": 8945,
      "infant": 8946,
      "insecur": 8947,
      "rever": 8948,
      "refu": 8949,
      "resent": 8950,
      "retain": 8951,
      "resem": 8952,
      "merely": 8953,
      "issi": 8954,
      "stagger": 8955,
      "tok": 8956,
      "tomy": 8957,
      "ench": 8958,
      "enix": 8959,
      "lective": 8960,
      "asper": 8961,
      "asian": 8962,
      "beta": 8963,
      "belive": 8964,
      "verely": 8965,
      "lywood": 8966,
      "lynch": 8967,
      "heh": 8968,
      "het": 8969,
      "sept": 8970,
      "severely": 8971,
      "noo": 8972,
      "nothin": 8973,
      "socks": 8974,
      "hare": 8975,
      "hazy": 8976,
      "hacks": 8977,
      "lover": 8978,
      "locking": 8979,
      "libs": 8980,
      "formal": 8981,
      "rocks": 8982,
      "robots": 8983,
      "weas": 8984,
      "dol": 8985,
      "coaches": 8986,
      "gems": 8987,
      "chrome": 8988,
      "chubby": 8989,
      "tify": 8990,
      "tigers": 8991,
      "abs": 8992,
      "peta": 8993,
      "unis": 8994,
      "uncommon": 8995,
      "unhealthy": 8996,
      "unacceptable": 8997,
      "unemployment": 8998,
      "ribs": 8999,
      "mole": 9000,
      "supris": 9001,
      "nel": 9002,
      "irite": 9003,
      "poo": 9004,
      "popped": 9005,
      "fever": 9006,
      "det": 9007,
      "deck": 9008,
      "ifu": 9009,
      "mainten": 9010,
      "ophi": 9011,
      "tering": 9012,
      "canny": 9013,
      "cannon": 9014,
      "canucks": 9015,
      "yourselves": 9016,
      "amd": 9017,
      "amas": 9018,
      "amirite": 9019,
      "shudder": 9020,
      "trinity": 9021,
      "donut": 9022,
      "upgrade": 9023,
      "conform": 9024,
      "contains": 9025,
      "extre": 9026,
      "exposed": 9027,
      "sss": 9028,
      "persu": 9029,
      "perform": 9030,
      "proces": 9031,
      "proced": 9032,
      "propose": 9033,
      "goods": 9034,
      "bold": 9035,
      "boob": 9036,
      "ndp": 9037,
      "mane": 9038,
      "manner": 9039,
      "ctu": 9040,
      "ahhhhh": 9041,
      "igslist": 9042,
      "sage": 9043,
      "ummm": 9044,
      "sphor": 9045,
      "shouldnt": 9046,
      "fucken": 9047,
      "pricing": 9048,
      "sorta": 9049,
      "diss": 9050,
      "dishes": 9051,
      "disregard": 9052,
      "cials": 9053,
      "chet": 9054,
      "chess": 9055,
      "cheater": 9056,
      "overcome": 9057,
      "gray": 9058,
      "grasp": 9059,
      "intens": 9060,
      "rubs": 9061,
      "rugs": 9062,
      "rubb": 9063,
      "claw": 9064,
      "duh": 9065,
      "finals": 9066,
      "friggin": 9067,
      "subst": 9068,
      "glut": 9069,
      "couver": 9070,
      "serves": 9071,
      "bugs": 9072,
      "underground": 9073,
      "diversity": 9074,
      "hiv": 9075,
      "lifetime": 9076,
      "waist": 9077,
      "monkey": 9078,
      "blu": 9079,
      "bliss": 9080,
      "kinder": 9081,
      "cric": 9082,
      "crus": 9083,
      "........": 9084,
      "otic": 9085,
      "marks": 9086,
      "objecti": 9087,
      "turing": 9088,
      "genes": 9089,
      "gendered": 9090,
      "smiling": 9091,
      "singing": 9092,
      "pulls": 9093,
      "magically": 9094,
      "craigslist": 9095,
      "carbon": 9096,
      "hormone": 9097,
      "horses": 9098,
      "headlines": 9099,
      "mighty": 9100,
      "handy": 9101,
      "dysphor": 9102,
      "enjoys": 9103,
      "parach": 9104,
      "france": 9105,
      "fridge": 9106,
      "interact": 9107,
      "wardrobe": 9108,
      "homework": 9109,
      "placement": 9110,
      "twitch": 9111,
      "colum": 9112,
      "superstar": 9113,
      "pressed": 9114,
      "fugly": 9115,
      "hurry": 9116,
      "hurric": 9117,
      "syn": 9118,
      "freeze": 9119,
      "freezing": 9120,
      "draining": 9121,
      "shakes": 9122,
      "shaft": 9123,
      "evange": 9124,
      "pedophi": 9125,
      "signal": 9126,
      "signals": 9127,
      "barn": 9128,
      "banana": 9129,
      "mississi": 9130,
      "burgh": 9131,
      "earning": 9132,
      "hitler": 9133,
      "labe": 9134,
      "braz": 9135,
      "bravo": 9136,
      "bork": 9137,
      "warrant": 9138,
      "momma": 9139,
      "cleared": 9140,
      "dealt": 9141,
      "dealer": 9142,
      "chaos": 9143,
      "visited": 9144,
      "visiting": 9145,
      "cuts": 9146,
      "cuter": 9147,
      "trey": 9148,
      "explic": 9149,
      "finest": 9150,
      "viewers": 9151,
      "lander": 9152,
      "2012": 9153,
      "2015": 9154,
      "supported": 9155,
      "spoon": 9156,
      "generous": 9157,
      "shameful": 9158,
      "traits": 9159,
      "correcting": 9160,
      "extent": 9161,
      "harvard": 9162,
      "closure": 9163,
      "penny": 9164,
      "pencil": 9165,
      "safely": 9166,
      "aiming": 9167,
      "liberty": 9168,
      "scope": 9169,
      "motherfuck": 9170,
      "sickness": 9171,
      "ailing": 9172,
      "watermelon": 9173,
      "casual": 9174,
      "writes": 9175,
      "creeps": 9176,
      "animation": 9177,
      "slurs": 9178,
      "axy": 9179,
      "2006": 9180,
      "presents": 9181,
      "snacks": 9182,
      "shithe": 9183,
      "temple": 9184,
      "float": 9185,
      "prayer": 9186,
      "battery": 9187,
      "cheetos": 9188,
      "similarly": 9189,
      "panel": 9190,
      "fitting": 9191,
      "gifs": 9192,
      "crushed": 9193,
      "discussed": 9194,
      "blocks": 9195,
      "bumps": 9196,
      "bagel": 9197,
      "boomer": 9198,
      "ooooh": 9199,
      "nude": 9200,
      "numer": 9201,
      "packed": 9202,
      "toxicity": 9203,
      "consideration": 9204,
      "deciding": 9205,
      "lanes": 9206,
      "vancouver": 9207,
      "crossover": 9208,
      "slime": 9209,
      "wheels": 9210,
      "chills": 9211,
      "spotted": 9212,
      "innov": 9213,
      "describing": 9214,
      "dunk": 9215,
      "contacting": 9216,
      "hmmmmm": 9217,
      "rapists": 9218,
      "bathrooms": 9219,
      "representative": 9220,
      "banged": 9221,
      "hospitals": 9222,
      "gains": 9223,
      "bothering": 9224,
      "knocking": 9225,
      "knocks": 9226,
      "activist": 9227,
      "hollywood": 9228,
      "lux": 9229,
      "tricked": 9230,
      "brownies": 9231,
      "soulless": 9232,
      "cracked": 9233,
      "validation": 9234,
      "labs": 9235,
      "grim": 9236,
      "grip": 9237,
      "kitten": 9238,
      "stressed": 9239,
      "altcoin": 9240,
      "minorities": 9241,
      "234567": 9242,
      "meets": 9243,
      "triggers": 9244,
      "separated": 9245,
      "pairing": 9246,
      "copypasta": 9247,
      "performances": 9248,
      "nicer": 9249,
      "pupper": 9250,
      "frog": 9251,
      "neckbeard": 9252,
      "swipe": 9253,
      "replacement": 9254,
      "grabs": 9255,
      "jackass": 9256,
      "insulted": 9257,
      "soldier": 9258,
      "operate": 9259,
      "minimal": 9260,
      "freaky": 9261,
      "vaccinate": 9262,
      "stalking": 9263,
      "ghosting": 9264,
      "nicknames": 9265,
      "savings": 9266,
      "indicate": 9267,
      "mandatory": 9268,
      "manipulation": 9269,
      "investigate": 9270,
      "polyam": 9271,
      "devils": 9272,
      "occasions": 9273,
      "delightful": 9274,
      "persist": 9275,
      "islanders": 9276,
      "cowboys": 9277,
      "blasting": 9278,
      "sensational": 9279,
      "kneecap": 9280,
      "breeding": 9281,
      "initially": 9282,
      "jazz": 9283,
      "employee": 9284,
      "introduce": 9285,
      "____": 9286,
      "suspected": 9287,
      "fashioned": 9288,
      "measles": 9289,
      "executed": 9290,
      "ww2": 9291,
      "additional": 9292,
      "padres": 9293,
      "snapchat": 9294,
      "gdp": 9295,
      "references": 9296,
      "referencing": 9297,
      "galaxy": 9298,
      "tastes": 9299,
      "--------": 9300,
      "transphobe": 9301,
      "infection": 9302,
      "resident": 9303,
      "residents": 9304,
      "stacked": 9305,
      "eternal": 9306,
      "rabbit": 9307,
      "hysterical": 9308,
      "shooters": 9309,
      "established": 9310,
      "$$$$": 9311,
      "jacket": 9312,
      "amendment": 9313,
      "🦀🦀🦀🦀🦀🦀🦀🦀": 9314,
      "😤😤😤😤😤😤😤😤😤😤😤😤😤😤😤😤": 9315,
      "wrath": 9316,
      "enforcement": 9317,
      "potatoes": 9318,
      "hangover": 9319,
      "fooled": 9320,
      "eeeeeeeeeeeeeeeeeeeeeeeeeeeeeeee": 9321,
      "mechanics": 9322,
      "snowflakes": 9323,
      "9999999999999999": 9324,
      "gullible": 9325,
      "nagging": 9326,
      "slaughter": 9327,
      "rescue": 9328,
      "dynamic": 9329,
      "accusations": 9330,
      "goofy": 9331,
      "defeated": 9332,
      "vegetables": 9333,
      "immensely": 9334,
      "sketchy": 9335,
      "isolated": 9336,
      "savage": 9337,
      "turkish": 9338,
      "cuddling": 9339,
      "expansion": 9340,
      "balloon": 9341,
      "grocery": 9342,
      "confrontation": 9343,
      "lgbt": 9344,
      "fraud": 9345,
      "robbery": 9346,
      "volunteer": 9347,
      "aquaria": 9348,
      "durr": 9349,
      "beggars": 9350,
      "accepting": 9351,
      "withdrawals": 9352,
      "astounding": 9353,
      "premier": 9354,
      "blonde": 9355,
      "brooklyn": 9356,
      "elderly": 9357,
      "withdrawal": 9358,
      "blizzard": 9359,
      "tldr": 9360,
      "stairs": 9361,
      "powder": 9362,
      "obscure": 9363,
      "observation": 9364,
      "bigotry": 9365,
      "kachu": 9366,
      "insecurities": 9367,
      "suprised": 9368,
      "maintenance": 9369,
      "rubbish": 9370,
      "mississippi": 9371,
      "(?)": 9372,
      ",\"": 9373,
      "2d": 9374,
      "36": 9375,
      "52": 9376,
      "59": 9377,
      "88": 9378,
      "]’": 9379,
      "]??": 9380,
      "]?!": 9381,
      "apost": 9382,
      "aids": 9383,
      "bent": 9384,
      "bak": 9385,
      "boun": 9386,
      "coff": 9387,
      "cfb": 9388,
      "cunts": 9389,
      "df": 9390,
      "dn": 9391,
      "dye": 9392,
      "daw": 9393,
      "dicked": 9394,
      "fent": 9395,
      "gb": 9396,
      "gir": 9397,
      "gart": 9398,
      "genders": 9399,
      "hills": 9400,
      "js": 9401,
      "jfc": 9402,
      "jungle": 9403,
      "kro": 9404,
      "kong": 9405,
      "lp": 9406,
      "llion": 9407,
      "leng": 9408,
      "mf": 9409,
      "mn": 9410,
      "mson": 9411,
      "mately": 9412,
      "mics": 9413,
      "mtv": 9414,
      "nz": 9415,
      "nug": 9416,
      "naught": 9417,
[...]
